{
    "1": "a",
    "2": "b",
    "3": "c",
    "4": "d",
    "5": "e",
    "6": "f",
    "7": "g",
    "8": "h",
    "9": "i",
    "10": "j",
    "11": "k",
    "12": "l",
    "13": "m",
    "14": "n",
    "15": "o",
    "16": "p",
    "17": "q",
    "18": "r",
    "19": "s",
    "20": "t",
    "21": "u",
    "22": "v",
    "23": "w",
    "24": "x",
    "25": "y",
    "26": "z",
    "27": "а",
    "28": "б",
    "29": "в",
    "30": "г",
    "31": "д",
    "32": "е",
    "33": "ё",
    "34": "ж",
    "35": "з",
    "36": "и",
    "37": "й",
    "38": "к",
    "39": "л",
    "40": "м",
    "41": "н",
    "42": "о",
    "43": "п",
    "44": "р",
    "45": "с",
    "46": "т",
    "47": "у",
    "48": "ф",
    "49": "х",
    "50": "ц",
    "51": "ч",
    "52": "ш",
    "53": "щ",
    "54": "ъ",
    "55": "ы",
    "56": "ь",
    "57": "э",
    "58": "ю",
    "59": "я",
    "60": "ә",
    "61": "і",
    "62": "ң",
    "63": "ғ",
    "64": "ү",
    "65": "ұ",
    "66": "қ",
    "67": "ө",
    "68": "һ",
    "69": "1",
    "70": "2",
    "71": "3",
    "72": "4",
    "73": "5",
    "74": "6",
    "75": "7",
    "76": "8",
    "77": "9",
    "78": "0",
    "79": "!",
    "80": "@",
    "81": "#",
    "82": "$",
    "83": "%",
    "84": "^",
    "85": ":",
    "86": "&",
    "87": "*",
    "88": "(",
    "89": ")",
    "90": "_",
    "91": "+",
    "92": "=",
    "93": "-",
    "94": "?",
    "95": "/",
    "96": ">",
    "97": ".",
    "98": "<",
    "99": ",",
    "100": "`",
    "101": "|",
    "102": "\\",
    "103": "'",
    "104": "\"",
    "105": "[",
    "106": "]",
    "107": "{",
    "108": "}",
    "109": " ",
    "110": "aa",
    "111": "ab",
    "112": "ac",
    "113": "ad",
    "114": "ae",
    "115": "af",
    "116": "ag",
    "117": "ah",
    "118": "ai",
    "119": "aj",
    "120": "ak",
    "121": "al",
    "122": "am",
    "123": "an",
    "124": "ao",
    "125": "ap",
    "126": "aq",
    "127": "ar",
    "128": "as",
    "129": "at",
    "130": "au",
    "131": "av",
    "132": "aw",
    "133": "ax",
    "134": "ay",
    "135": "az",
    "136": "aа",
    "137": "aб",
    "138": "aв",
    "139": "aг",
    "140": "aд",
    "141": "aе",
    "142": "aё",
    "143": "aж",
    "144": "aз",
    "145": "aи",
    "146": "aй",
    "147": "aк",
    "148": "aл",
    "149": "aм",
    "150": "aн",
    "151": "aо",
    "152": "aп",
    "153": "aр",
    "154": "aс",
    "155": "aт",
    "156": "aу",
    "157": "aф",
    "158": "aх",
    "159": "aц",
    "160": "aч",
    "161": "aш",
    "162": "aщ",
    "163": "aъ",
    "164": "aы",
    "165": "aь",
    "166": "aэ",
    "167": "aю",
    "168": "aя",
    "169": "aә",
    "170": "aі",
    "171": "aң",
    "172": "aғ",
    "173": "aү",
    "174": "aұ",
    "175": "aқ",
    "176": "aө",
    "177": "aһ",
    "178": "a1",
    "179": "a2",
    "180": "a3",
    "181": "a4",
    "182": "a5",
    "183": "a6",
    "184": "a7",
    "185": "a8",
    "186": "a9",
    "187": "a0",
    "188": "a!",
    "189": "a@",
    "190": "a#",
    "191": "a$",
    "192": "a%",
    "193": "a^",
    "194": "a:",
    "195": "a&",
    "196": "a*",
    "197": "a(",
    "198": "a)",
    "199": "a_",
    "200": "a+",
    "201": "a=",
    "202": "a-",
    "203": "a?",
    "204": "a/",
    "205": "a>",
    "206": "a.",
    "207": "a<",
    "208": "a,",
    "209": "a`",
    "210": "a|",
    "211": "a\\",
    "212": "a'",
    "213": "a\"",
    "214": "a[",
    "215": "a]",
    "216": "a{",
    "217": "a}",
    "218": "a ",
    "219": "ba",
    "220": "bb",
    "221": "bc",
    "222": "bd",
    "223": "be",
    "224": "bf",
    "225": "bg",
    "226": "bh",
    "227": "bi",
    "228": "bj",
    "229": "bk",
    "230": "bl",
    "231": "bm",
    "232": "bn",
    "233": "bo",
    "234": "bp",
    "235": "bq",
    "236": "br",
    "237": "bs",
    "238": "bt",
    "239": "bu",
    "240": "bv",
    "241": "bw",
    "242": "bx",
    "243": "by",
    "244": "bz",
    "245": "bа",
    "246": "bб",
    "247": "bв",
    "248": "bг",
    "249": "bд",
    "250": "bе",
    "251": "bё",
    "252": "bж",
    "253": "bз",
    "254": "bи",
    "255": "bй",
    "256": "bк",
    "257": "bл",
    "258": "bм",
    "259": "bн",
    "260": "bо",
    "261": "bп",
    "262": "bр",
    "263": "bс",
    "264": "bт",
    "265": "bу",
    "266": "bф",
    "267": "bх",
    "268": "bц",
    "269": "bч",
    "270": "bш",
    "271": "bщ",
    "272": "bъ",
    "273": "bы",
    "274": "bь",
    "275": "bэ",
    "276": "bю",
    "277": "bя",
    "278": "bә",
    "279": "bі",
    "280": "bң",
    "281": "bғ",
    "282": "bү",
    "283": "bұ",
    "284": "bқ",
    "285": "bө",
    "286": "bһ",
    "287": "b1",
    "288": "b2",
    "289": "b3",
    "290": "b4",
    "291": "b5",
    "292": "b6",
    "293": "b7",
    "294": "b8",
    "295": "b9",
    "296": "b0",
    "297": "b!",
    "298": "b@",
    "299": "b#",
    "300": "b$",
    "301": "b%",
    "302": "b^",
    "303": "b:",
    "304": "b&",
    "305": "b*",
    "306": "b(",
    "307": "b)",
    "308": "b_",
    "309": "b+",
    "310": "b=",
    "311": "b-",
    "312": "b?",
    "313": "b/",
    "314": "b>",
    "315": "b.",
    "316": "b<",
    "317": "b,",
    "318": "b`",
    "319": "b|",
    "320": "b\\",
    "321": "b'",
    "322": "b\"",
    "323": "b[",
    "324": "b]",
    "325": "b{",
    "326": "b}",
    "327": "b ",
    "328": "ca",
    "329": "cb",
    "330": "cc",
    "331": "cd",
    "332": "ce",
    "333": "cf",
    "334": "cg",
    "335": "ch",
    "336": "ci",
    "337": "cj",
    "338": "ck",
    "339": "cl",
    "340": "cm",
    "341": "cn",
    "342": "co",
    "343": "cp",
    "344": "cq",
    "345": "cr",
    "346": "cs",
    "347": "ct",
    "348": "cu",
    "349": "cv",
    "350": "cw",
    "351": "cx",
    "352": "cy",
    "353": "cz",
    "354": "cа",
    "355": "cб",
    "356": "cв",
    "357": "cг",
    "358": "cд",
    "359": "cе",
    "360": "cё",
    "361": "cж",
    "362": "cз",
    "363": "cи",
    "364": "cй",
    "365": "cк",
    "366": "cл",
    "367": "cм",
    "368": "cн",
    "369": "cо",
    "370": "cп",
    "371": "cр",
    "372": "cс",
    "373": "cт",
    "374": "cу",
    "375": "cф",
    "376": "cх",
    "377": "cц",
    "378": "cч",
    "379": "cш",
    "380": "cщ",
    "381": "cъ",
    "382": "cы",
    "383": "cь",
    "384": "cэ",
    "385": "cю",
    "386": "cя",
    "387": "cә",
    "388": "cі",
    "389": "cң",
    "390": "cғ",
    "391": "cү",
    "392": "cұ",
    "393": "cқ",
    "394": "cө",
    "395": "cһ",
    "396": "c1",
    "397": "c2",
    "398": "c3",
    "399": "c4",
    "400": "c5",
    "401": "c6",
    "402": "c7",
    "403": "c8",
    "404": "c9",
    "405": "c0",
    "406": "c!",
    "407": "c@",
    "408": "c#",
    "409": "c$",
    "410": "c%",
    "411": "c^",
    "412": "c:",
    "413": "c&",
    "414": "c*",
    "415": "c(",
    "416": "c)",
    "417": "c_",
    "418": "c+",
    "419": "c=",
    "420": "c-",
    "421": "c?",
    "422": "c/",
    "423": "c>",
    "424": "c.",
    "425": "c<",
    "426": "c,",
    "427": "c`",
    "428": "c|",
    "429": "c\\",
    "430": "c'",
    "431": "c\"",
    "432": "c[",
    "433": "c]",
    "434": "c{",
    "435": "c}",
    "436": "c ",
    "437": "da",
    "438": "db",
    "439": "dc",
    "440": "dd",
    "441": "de",
    "442": "df",
    "443": "dg",
    "444": "dh",
    "445": "di",
    "446": "dj",
    "447": "dk",
    "448": "dl",
    "449": "dm",
    "450": "dn",
    "451": "do",
    "452": "dp",
    "453": "dq",
    "454": "dr",
    "455": "ds",
    "456": "dt",
    "457": "du",
    "458": "dv",
    "459": "dw",
    "460": "dx",
    "461": "dy",
    "462": "dz",
    "463": "dа",
    "464": "dб",
    "465": "dв",
    "466": "dг",
    "467": "dд",
    "468": "dе",
    "469": "dё",
    "470": "dж",
    "471": "dз",
    "472": "dи",
    "473": "dй",
    "474": "dк",
    "475": "dл",
    "476": "dм",
    "477": "dн",
    "478": "dо",
    "479": "dп",
    "480": "dр",
    "481": "dс",
    "482": "dт",
    "483": "dу",
    "484": "dф",
    "485": "dх",
    "486": "dц",
    "487": "dч",
    "488": "dш",
    "489": "dщ",
    "490": "dъ",
    "491": "dы",
    "492": "dь",
    "493": "dэ",
    "494": "dю",
    "495": "dя",
    "496": "dә",
    "497": "dі",
    "498": "dң",
    "499": "dғ",
    "500": "dү",
    "501": "dұ",
    "502": "dқ",
    "503": "dө",
    "504": "dһ",
    "505": "d1",
    "506": "d2",
    "507": "d3",
    "508": "d4",
    "509": "d5",
    "510": "d6",
    "511": "d7",
    "512": "d8",
    "513": "d9",
    "514": "d0",
    "515": "d!",
    "516": "d@",
    "517": "d#",
    "518": "d$",
    "519": "d%",
    "520": "d^",
    "521": "d:",
    "522": "d&",
    "523": "d*",
    "524": "d(",
    "525": "d)",
    "526": "d_",
    "527": "d+",
    "528": "d=",
    "529": "d-",
    "530": "d?",
    "531": "d/",
    "532": "d>",
    "533": "d.",
    "534": "d<",
    "535": "d,",
    "536": "d`",
    "537": "d|",
    "538": "d\\",
    "539": "d'",
    "540": "d\"",
    "541": "d[",
    "542": "d]",
    "543": "d{",
    "544": "d}",
    "545": "d ",
    "546": "ea",
    "547": "eb",
    "548": "ec",
    "549": "ed",
    "550": "ee",
    "551": "ef",
    "552": "eg",
    "553": "eh",
    "554": "ei",
    "555": "ej",
    "556": "ek",
    "557": "el",
    "558": "em",
    "559": "en",
    "560": "eo",
    "561": "ep",
    "562": "eq",
    "563": "er",
    "564": "es",
    "565": "et",
    "566": "eu",
    "567": "ev",
    "568": "ew",
    "569": "ex",
    "570": "ey",
    "571": "ez",
    "572": "eа",
    "573": "eб",
    "574": "eв",
    "575": "eг",
    "576": "eд",
    "577": "eе",
    "578": "eё",
    "579": "eж",
    "580": "eз",
    "581": "eи",
    "582": "eй",
    "583": "eк",
    "584": "eл",
    "585": "eм",
    "586": "eн",
    "587": "eо",
    "588": "eп",
    "589": "eр",
    "590": "eс",
    "591": "eт",
    "592": "eу",
    "593": "eф",
    "594": "eх",
    "595": "eц",
    "596": "eч",
    "597": "eш",
    "598": "eщ",
    "599": "eъ",
    "600": "eы",
    "601": "eь",
    "602": "eэ",
    "603": "eю",
    "604": "eя",
    "605": "eә",
    "606": "eі",
    "607": "eң",
    "608": "eғ",
    "609": "eү",
    "610": "eұ",
    "611": "eқ",
    "612": "eө",
    "613": "eһ",
    "614": "e1",
    "615": "e2",
    "616": "e3",
    "617": "e4",
    "618": "e5",
    "619": "e6",
    "620": "e7",
    "621": "e8",
    "622": "e9",
    "623": "e0",
    "624": "e!",
    "625": "e@",
    "626": "e#",
    "627": "e$",
    "628": "e%",
    "629": "e^",
    "630": "e:",
    "631": "e&",
    "632": "e*",
    "633": "e(",
    "634": "e)",
    "635": "e_",
    "636": "e+",
    "637": "e=",
    "638": "e-",
    "639": "e?",
    "640": "e/",
    "641": "e>",
    "642": "e.",
    "643": "e<",
    "644": "e,",
    "645": "e`",
    "646": "e|",
    "647": "e\\",
    "648": "e'",
    "649": "e\"",
    "650": "e[",
    "651": "e]",
    "652": "e{",
    "653": "e}",
    "654": "e ",
    "655": "fa",
    "656": "fb",
    "657": "fc",
    "658": "fd",
    "659": "fe",
    "660": "ff",
    "661": "fg",
    "662": "fh",
    "663": "fi",
    "664": "fj",
    "665": "fk",
    "666": "fl",
    "667": "fm",
    "668": "fn",
    "669": "fo",
    "670": "fp",
    "671": "fq",
    "672": "fr",
    "673": "fs",
    "674": "ft",
    "675": "fu",
    "676": "fv",
    "677": "fw",
    "678": "fx",
    "679": "fy",
    "680": "fz",
    "681": "fа",
    "682": "fб",
    "683": "fв",
    "684": "fг",
    "685": "fд",
    "686": "fе",
    "687": "fё",
    "688": "fж",
    "689": "fз",
    "690": "fи",
    "691": "fй",
    "692": "fк",
    "693": "fл",
    "694": "fм",
    "695": "fн",
    "696": "fо",
    "697": "fп",
    "698": "fр",
    "699": "fс",
    "700": "fт",
    "701": "fу",
    "702": "fф",
    "703": "fх",
    "704": "fц",
    "705": "fч",
    "706": "fш",
    "707": "fщ",
    "708": "fъ",
    "709": "fы",
    "710": "fь",
    "711": "fэ",
    "712": "fю",
    "713": "fя",
    "714": "fә",
    "715": "fі",
    "716": "fң",
    "717": "fғ",
    "718": "fү",
    "719": "fұ",
    "720": "fқ",
    "721": "fө",
    "722": "fһ",
    "723": "f1",
    "724": "f2",
    "725": "f3",
    "726": "f4",
    "727": "f5",
    "728": "f6",
    "729": "f7",
    "730": "f8",
    "731": "f9",
    "732": "f0",
    "733": "f!",
    "734": "f@",
    "735": "f#",
    "736": "f$",
    "737": "f%",
    "738": "f^",
    "739": "f:",
    "740": "f&",
    "741": "f*",
    "742": "f(",
    "743": "f)",
    "744": "f_",
    "745": "f+",
    "746": "f=",
    "747": "f-",
    "748": "f?",
    "749": "f/",
    "750": "f>",
    "751": "f.",
    "752": "f<",
    "753": "f,",
    "754": "f`",
    "755": "f|",
    "756": "f\\",
    "757": "f'",
    "758": "f\"",
    "759": "f[",
    "760": "f]",
    "761": "f{",
    "762": "f}",
    "763": "f ",
    "764": "ga",
    "765": "gb",
    "766": "gc",
    "767": "gd",
    "768": "ge",
    "769": "gf",
    "770": "gg",
    "771": "gh",
    "772": "gi",
    "773": "gj",
    "774": "gk",
    "775": "gl",
    "776": "gm",
    "777": "gn",
    "778": "go",
    "779": "gp",
    "780": "gq",
    "781": "gr",
    "782": "gs",
    "783": "gt",
    "784": "gu",
    "785": "gv",
    "786": "gw",
    "787": "gx",
    "788": "gy",
    "789": "gz",
    "790": "gа",
    "791": "gб",
    "792": "gв",
    "793": "gг",
    "794": "gд",
    "795": "gе",
    "796": "gё",
    "797": "gж",
    "798": "gз",
    "799": "gи",
    "800": "gй",
    "801": "gк",
    "802": "gл",
    "803": "gм",
    "804": "gн",
    "805": "gо",
    "806": "gп",
    "807": "gр",
    "808": "gс",
    "809": "gт",
    "810": "gу",
    "811": "gф",
    "812": "gх",
    "813": "gц",
    "814": "gч",
    "815": "gш",
    "816": "gщ",
    "817": "gъ",
    "818": "gы",
    "819": "gь",
    "820": "gэ",
    "821": "gю",
    "822": "gя",
    "823": "gә",
    "824": "gі",
    "825": "gң",
    "826": "gғ",
    "827": "gү",
    "828": "gұ",
    "829": "gқ",
    "830": "gө",
    "831": "gһ",
    "832": "g1",
    "833": "g2",
    "834": "g3",
    "835": "g4",
    "836": "g5",
    "837": "g6",
    "838": "g7",
    "839": "g8",
    "840": "g9",
    "841": "g0",
    "842": "g!",
    "843": "g@",
    "844": "g#",
    "845": "g$",
    "846": "g%",
    "847": "g^",
    "848": "g:",
    "849": "g&",
    "850": "g*",
    "851": "g(",
    "852": "g)",
    "853": "g_",
    "854": "g+",
    "855": "g=",
    "856": "g-",
    "857": "g?",
    "858": "g/",
    "859": "g>",
    "860": "g.",
    "861": "g<",
    "862": "g,",
    "863": "g`",
    "864": "g|",
    "865": "g\\",
    "866": "g'",
    "867": "g\"",
    "868": "g[",
    "869": "g]",
    "870": "g{",
    "871": "g}",
    "872": "g ",
    "873": "ha",
    "874": "hb",
    "875": "hc",
    "876": "hd",
    "877": "he",
    "878": "hf",
    "879": "hg",
    "880": "hh",
    "881": "hi",
    "882": "hj",
    "883": "hk",
    "884": "hl",
    "885": "hm",
    "886": "hn",
    "887": "ho",
    "888": "hp",
    "889": "hq",
    "890": "hr",
    "891": "hs",
    "892": "ht",
    "893": "hu",
    "894": "hv",
    "895": "hw",
    "896": "hx",
    "897": "hy",
    "898": "hz",
    "899": "hа",
    "900": "hб",
    "901": "hв",
    "902": "hг",
    "903": "hд",
    "904": "hе",
    "905": "hё",
    "906": "hж",
    "907": "hз",
    "908": "hи",
    "909": "hй",
    "910": "hк",
    "911": "hл",
    "912": "hм",
    "913": "hн",
    "914": "hо",
    "915": "hп",
    "916": "hр",
    "917": "hс",
    "918": "hт",
    "919": "hу",
    "920": "hф",
    "921": "hх",
    "922": "hц",
    "923": "hч",
    "924": "hш",
    "925": "hщ",
    "926": "hъ",
    "927": "hы",
    "928": "hь",
    "929": "hэ",
    "930": "hю",
    "931": "hя",
    "932": "hә",
    "933": "hі",
    "934": "hң",
    "935": "hғ",
    "936": "hү",
    "937": "hұ",
    "938": "hқ",
    "939": "hө",
    "940": "hһ",
    "941": "h1",
    "942": "h2",
    "943": "h3",
    "944": "h4",
    "945": "h5",
    "946": "h6",
    "947": "h7",
    "948": "h8",
    "949": "h9",
    "950": "h0",
    "951": "h!",
    "952": "h@",
    "953": "h#",
    "954": "h$",
    "955": "h%",
    "956": "h^",
    "957": "h:",
    "958": "h&",
    "959": "h*",
    "960": "h(",
    "961": "h)",
    "962": "h_",
    "963": "h+",
    "964": "h=",
    "965": "h-",
    "966": "h?",
    "967": "h/",
    "968": "h>",
    "969": "h.",
    "970": "h<",
    "971": "h,",
    "972": "h`",
    "973": "h|",
    "974": "h\\",
    "975": "h'",
    "976": "h\"",
    "977": "h[",
    "978": "h]",
    "979": "h{",
    "980": "h}",
    "981": "h ",
    "982": "ia",
    "983": "ib",
    "984": "ic",
    "985": "id",
    "986": "ie",
    "987": "if",
    "988": "ig",
    "989": "ih",
    "990": "ii",
    "991": "ij",
    "992": "ik",
    "993": "il",
    "994": "im",
    "995": "in",
    "996": "io",
    "997": "ip",
    "998": "iq",
    "999": "ir",
    "1000": "is",
    "1001": "it",
    "1002": "iu",
    "1003": "iv",
    "1004": "iw",
    "1005": "ix",
    "1006": "iy",
    "1007": "iz",
    "1008": "iа",
    "1009": "iб",
    "1010": "iв",
    "1011": "iг",
    "1012": "iд",
    "1013": "iе",
    "1014": "iё",
    "1015": "iж",
    "1016": "iз",
    "1017": "iи",
    "1018": "iй",
    "1019": "iк",
    "1020": "iл",
    "1021": "iм",
    "1022": "iн",
    "1023": "iо",
    "1024": "iп",
    "1025": "iр",
    "1026": "iс",
    "1027": "iт",
    "1028": "iу",
    "1029": "iф",
    "1030": "iх",
    "1031": "iц",
    "1032": "iч",
    "1033": "iш",
    "1034": "iщ",
    "1035": "iъ",
    "1036": "iы",
    "1037": "iь",
    "1038": "iэ",
    "1039": "iю",
    "1040": "iя",
    "1041": "iә",
    "1042": "iі",
    "1043": "iң",
    "1044": "iғ",
    "1045": "iү",
    "1046": "iұ",
    "1047": "iқ",
    "1048": "iө",
    "1049": "iһ",
    "1050": "i1",
    "1051": "i2",
    "1052": "i3",
    "1053": "i4",
    "1054": "i5",
    "1055": "i6",
    "1056": "i7",
    "1057": "i8",
    "1058": "i9",
    "1059": "i0",
    "1060": "i!",
    "1061": "i@",
    "1062": "i#",
    "1063": "i$",
    "1064": "i%",
    "1065": "i^",
    "1066": "i:",
    "1067": "i&",
    "1068": "i*",
    "1069": "i(",
    "1070": "i)",
    "1071": "i_",
    "1072": "i+",
    "1073": "i=",
    "1074": "i-",
    "1075": "i?",
    "1076": "i/",
    "1077": "i>",
    "1078": "i.",
    "1079": "i<",
    "1080": "i,",
    "1081": "i`",
    "1082": "i|",
    "1083": "i\\",
    "1084": "i'",
    "1085": "i\"",
    "1086": "i[",
    "1087": "i]",
    "1088": "i{",
    "1089": "i}",
    "1090": "i ",
    "1091": "ja",
    "1092": "jb",
    "1093": "jc",
    "1094": "jd",
    "1095": "je",
    "1096": "jf",
    "1097": "jg",
    "1098": "jh",
    "1099": "ji",
    "1100": "jj",
    "1101": "jk",
    "1102": "jl",
    "1103": "jm",
    "1104": "jn",
    "1105": "jo",
    "1106": "jp",
    "1107": "jq",
    "1108": "jr",
    "1109": "js",
    "1110": "jt",
    "1111": "ju",
    "1112": "jv",
    "1113": "jw",
    "1114": "jx",
    "1115": "jy",
    "1116": "jz",
    "1117": "jа",
    "1118": "jб",
    "1119": "jв",
    "1120": "jг",
    "1121": "jд",
    "1122": "jе",
    "1123": "jё",
    "1124": "jж",
    "1125": "jз",
    "1126": "jи",
    "1127": "jй",
    "1128": "jк",
    "1129": "jл",
    "1130": "jм",
    "1131": "jн",
    "1132": "jо",
    "1133": "jп",
    "1134": "jр",
    "1135": "jс",
    "1136": "jт",
    "1137": "jу",
    "1138": "jф",
    "1139": "jх",
    "1140": "jц",
    "1141": "jч",
    "1142": "jш",
    "1143": "jщ",
    "1144": "jъ",
    "1145": "jы",
    "1146": "jь",
    "1147": "jэ",
    "1148": "jю",
    "1149": "jя",
    "1150": "jә",
    "1151": "jі",
    "1152": "jң",
    "1153": "jғ",
    "1154": "jү",
    "1155": "jұ",
    "1156": "jқ",
    "1157": "jө",
    "1158": "jһ",
    "1159": "j1",
    "1160": "j2",
    "1161": "j3",
    "1162": "j4",
    "1163": "j5",
    "1164": "j6",
    "1165": "j7",
    "1166": "j8",
    "1167": "j9",
    "1168": "j0",
    "1169": "j!",
    "1170": "j@",
    "1171": "j#",
    "1172": "j$",
    "1173": "j%",
    "1174": "j^",
    "1175": "j:",
    "1176": "j&",
    "1177": "j*",
    "1178": "j(",
    "1179": "j)",
    "1180": "j_",
    "1181": "j+",
    "1182": "j=",
    "1183": "j-",
    "1184": "j?",
    "1185": "j/",
    "1186": "j>",
    "1187": "j.",
    "1188": "j<",
    "1189": "j,",
    "1190": "j`",
    "1191": "j|",
    "1192": "j\\",
    "1193": "j'",
    "1194": "j\"",
    "1195": "j[",
    "1196": "j]",
    "1197": "j{",
    "1198": "j}",
    "1199": "j ",
    "1200": "ka",
    "1201": "kb",
    "1202": "kc",
    "1203": "kd",
    "1204": "ke",
    "1205": "kf",
    "1206": "kg",
    "1207": "kh",
    "1208": "ki",
    "1209": "kj",
    "1210": "kk",
    "1211": "kl",
    "1212": "km",
    "1213": "kn",
    "1214": "ko",
    "1215": "kp",
    "1216": "kq",
    "1217": "kr",
    "1218": "ks",
    "1219": "kt",
    "1220": "ku",
    "1221": "kv",
    "1222": "kw",
    "1223": "kx",
    "1224": "ky",
    "1225": "kz",
    "1226": "kа",
    "1227": "kб",
    "1228": "kв",
    "1229": "kг",
    "1230": "kд",
    "1231": "kе",
    "1232": "kё",
    "1233": "kж",
    "1234": "kз",
    "1235": "kи",
    "1236": "kй",
    "1237": "kк",
    "1238": "kл",
    "1239": "kм",
    "1240": "kн",
    "1241": "kо",
    "1242": "kп",
    "1243": "kр",
    "1244": "kс",
    "1245": "kт",
    "1246": "kу",
    "1247": "kф",
    "1248": "kх",
    "1249": "kц",
    "1250": "kч",
    "1251": "kш",
    "1252": "kщ",
    "1253": "kъ",
    "1254": "kы",
    "1255": "kь",
    "1256": "kэ",
    "1257": "kю",
    "1258": "kя",
    "1259": "kә",
    "1260": "kі",
    "1261": "kң",
    "1262": "kғ",
    "1263": "kү",
    "1264": "kұ",
    "1265": "kқ",
    "1266": "kө",
    "1267": "kһ",
    "1268": "k1",
    "1269": "k2",
    "1270": "k3",
    "1271": "k4",
    "1272": "k5",
    "1273": "k6",
    "1274": "k7",
    "1275": "k8",
    "1276": "k9",
    "1277": "k0",
    "1278": "k!",
    "1279": "k@",
    "1280": "k#",
    "1281": "k$",
    "1282": "k%",
    "1283": "k^",
    "1284": "k:",
    "1285": "k&",
    "1286": "k*",
    "1287": "k(",
    "1288": "k)",
    "1289": "k_",
    "1290": "k+",
    "1291": "k=",
    "1292": "k-",
    "1293": "k?",
    "1294": "k/",
    "1295": "k>",
    "1296": "k.",
    "1297": "k<",
    "1298": "k,",
    "1299": "k`",
    "1300": "k|",
    "1301": "k\\",
    "1302": "k'",
    "1303": "k\"",
    "1304": "k[",
    "1305": "k]",
    "1306": "k{",
    "1307": "k}",
    "1308": "k ",
    "1309": "la",
    "1310": "lb",
    "1311": "lc",
    "1312": "ld",
    "1313": "le",
    "1314": "lf",
    "1315": "lg",
    "1316": "lh",
    "1317": "li",
    "1318": "lj",
    "1319": "lk",
    "1320": "ll",
    "1321": "lm",
    "1322": "ln",
    "1323": "lo",
    "1324": "lp",
    "1325": "lq",
    "1326": "lr",
    "1327": "ls",
    "1328": "lt",
    "1329": "lu",
    "1330": "lv",
    "1331": "lw",
    "1332": "lx",
    "1333": "ly",
    "1334": "lz",
    "1335": "lа",
    "1336": "lб",
    "1337": "lв",
    "1338": "lг",
    "1339": "lд",
    "1340": "lе",
    "1341": "lё",
    "1342": "lж",
    "1343": "lз",
    "1344": "lи",
    "1345": "lй",
    "1346": "lк",
    "1347": "lл",
    "1348": "lм",
    "1349": "lн",
    "1350": "lо",
    "1351": "lп",
    "1352": "lр",
    "1353": "lс",
    "1354": "lт",
    "1355": "lу",
    "1356": "lф",
    "1357": "lх",
    "1358": "lц",
    "1359": "lч",
    "1360": "lш",
    "1361": "lщ",
    "1362": "lъ",
    "1363": "lы",
    "1364": "lь",
    "1365": "lэ",
    "1366": "lю",
    "1367": "lя",
    "1368": "lә",
    "1369": "lі",
    "1370": "lң",
    "1371": "lғ",
    "1372": "lү",
    "1373": "lұ",
    "1374": "lқ",
    "1375": "lө",
    "1376": "lһ",
    "1377": "l1",
    "1378": "l2",
    "1379": "l3",
    "1380": "l4",
    "1381": "l5",
    "1382": "l6",
    "1383": "l7",
    "1384": "l8",
    "1385": "l9",
    "1386": "l0",
    "1387": "l!",
    "1388": "l@",
    "1389": "l#",
    "1390": "l$",
    "1391": "l%",
    "1392": "l^",
    "1393": "l:",
    "1394": "l&",
    "1395": "l*",
    "1396": "l(",
    "1397": "l)",
    "1398": "l_",
    "1399": "l+",
    "1400": "l=",
    "1401": "l-",
    "1402": "l?",
    "1403": "l/",
    "1404": "l>",
    "1405": "l.",
    "1406": "l<",
    "1407": "l,",
    "1408": "l`",
    "1409": "l|",
    "1410": "l\\",
    "1411": "l'",
    "1412": "l\"",
    "1413": "l[",
    "1414": "l]",
    "1415": "l{",
    "1416": "l}",
    "1417": "l ",
    "1418": "ma",
    "1419": "mb",
    "1420": "mc",
    "1421": "md",
    "1422": "me",
    "1423": "mf",
    "1424": "mg",
    "1425": "mh",
    "1426": "mi",
    "1427": "mj",
    "1428": "mk",
    "1429": "ml",
    "1430": "mm",
    "1431": "mn",
    "1432": "mo",
    "1433": "mp",
    "1434": "mq",
    "1435": "mr",
    "1436": "ms",
    "1437": "mt",
    "1438": "mu",
    "1439": "mv",
    "1440": "mw",
    "1441": "mx",
    "1442": "my",
    "1443": "mz",
    "1444": "mа",
    "1445": "mб",
    "1446": "mв",
    "1447": "mг",
    "1448": "mд",
    "1449": "mе",
    "1450": "mё",
    "1451": "mж",
    "1452": "mз",
    "1453": "mи",
    "1454": "mй",
    "1455": "mк",
    "1456": "mл",
    "1457": "mм",
    "1458": "mн",
    "1459": "mо",
    "1460": "mп",
    "1461": "mр",
    "1462": "mс",
    "1463": "mт",
    "1464": "mу",
    "1465": "mф",
    "1466": "mх",
    "1467": "mц",
    "1468": "mч",
    "1469": "mш",
    "1470": "mщ",
    "1471": "mъ",
    "1472": "mы",
    "1473": "mь",
    "1474": "mэ",
    "1475": "mю",
    "1476": "mя",
    "1477": "mә",
    "1478": "mі",
    "1479": "mң",
    "1480": "mғ",
    "1481": "mү",
    "1482": "mұ",
    "1483": "mқ",
    "1484": "mө",
    "1485": "mһ",
    "1486": "m1",
    "1487": "m2",
    "1488": "m3",
    "1489": "m4",
    "1490": "m5",
    "1491": "m6",
    "1492": "m7",
    "1493": "m8",
    "1494": "m9",
    "1495": "m0",
    "1496": "m!",
    "1497": "m@",
    "1498": "m#",
    "1499": "m$",
    "1500": "m%",
    "1501": "m^",
    "1502": "m:",
    "1503": "m&",
    "1504": "m*",
    "1505": "m(",
    "1506": "m)",
    "1507": "m_",
    "1508": "m+",
    "1509": "m=",
    "1510": "m-",
    "1511": "m?",
    "1512": "m/",
    "1513": "m>",
    "1514": "m.",
    "1515": "m<",
    "1516": "m,",
    "1517": "m`",
    "1518": "m|",
    "1519": "m\\",
    "1520": "m'",
    "1521": "m\"",
    "1522": "m[",
    "1523": "m]",
    "1524": "m{",
    "1525": "m}",
    "1526": "m ",
    "1527": "na",
    "1528": "nb",
    "1529": "nc",
    "1530": "nd",
    "1531": "ne",
    "1532": "nf",
    "1533": "ng",
    "1534": "nh",
    "1535": "ni",
    "1536": "nj",
    "1537": "nk",
    "1538": "nl",
    "1539": "nm",
    "1540": "nn",
    "1541": "no",
    "1542": "np",
    "1543": "nq",
    "1544": "nr",
    "1545": "ns",
    "1546": "nt",
    "1547": "nu",
    "1548": "nv",
    "1549": "nw",
    "1550": "nx",
    "1551": "ny",
    "1552": "nz",
    "1553": "nа",
    "1554": "nб",
    "1555": "nв",
    "1556": "nг",
    "1557": "nд",
    "1558": "nе",
    "1559": "nё",
    "1560": "nж",
    "1561": "nз",
    "1562": "nи",
    "1563": "nй",
    "1564": "nк",
    "1565": "nл",
    "1566": "nм",
    "1567": "nн",
    "1568": "nо",
    "1569": "nп",
    "1570": "nр",
    "1571": "nс",
    "1572": "nт",
    "1573": "nу",
    "1574": "nф",
    "1575": "nх",
    "1576": "nц",
    "1577": "nч",
    "1578": "nш",
    "1579": "nщ",
    "1580": "nъ",
    "1581": "nы",
    "1582": "nь",
    "1583": "nэ",
    "1584": "nю",
    "1585": "nя",
    "1586": "nә",
    "1587": "nі",
    "1588": "nң",
    "1589": "nғ",
    "1590": "nү",
    "1591": "nұ",
    "1592": "nқ",
    "1593": "nө",
    "1594": "nһ",
    "1595": "n1",
    "1596": "n2",
    "1597": "n3",
    "1598": "n4",
    "1599": "n5",
    "1600": "n6",
    "1601": "n7",
    "1602": "n8",
    "1603": "n9",
    "1604": "n0",
    "1605": "n!",
    "1606": "n@",
    "1607": "n#",
    "1608": "n$",
    "1609": "n%",
    "1610": "n^",
    "1611": "n:",
    "1612": "n&",
    "1613": "n*",
    "1614": "n(",
    "1615": "n)",
    "1616": "n_",
    "1617": "n+",
    "1618": "n=",
    "1619": "n-",
    "1620": "n?",
    "1621": "n/",
    "1622": "n>",
    "1623": "n.",
    "1624": "n<",
    "1625": "n,",
    "1626": "n`",
    "1627": "n|",
    "1628": "n\\",
    "1629": "n'",
    "1630": "n\"",
    "1631": "n[",
    "1632": "n]",
    "1633": "n{",
    "1634": "n}",
    "1635": "n ",
    "1636": "oa",
    "1637": "ob",
    "1638": "oc",
    "1639": "od",
    "1640": "oe",
    "1641": "of",
    "1642": "og",
    "1643": "oh",
    "1644": "oi",
    "1645": "oj",
    "1646": "ok",
    "1647": "ol",
    "1648": "om",
    "1649": "on",
    "1650": "oo",
    "1651": "op",
    "1652": "oq",
    "1653": "or",
    "1654": "os",
    "1655": "ot",
    "1656": "ou",
    "1657": "ov",
    "1658": "ow",
    "1659": "ox",
    "1660": "oy",
    "1661": "oz",
    "1662": "oа",
    "1663": "oб",
    "1664": "oв",
    "1665": "oг",
    "1666": "oд",
    "1667": "oе",
    "1668": "oё",
    "1669": "oж",
    "1670": "oз",
    "1671": "oи",
    "1672": "oй",
    "1673": "oк",
    "1674": "oл",
    "1675": "oм",
    "1676": "oн",
    "1677": "oо",
    "1678": "oп",
    "1679": "oр",
    "1680": "oс",
    "1681": "oт",
    "1682": "oу",
    "1683": "oф",
    "1684": "oх",
    "1685": "oц",
    "1686": "oч",
    "1687": "oш",
    "1688": "oщ",
    "1689": "oъ",
    "1690": "oы",
    "1691": "oь",
    "1692": "oэ",
    "1693": "oю",
    "1694": "oя",
    "1695": "oә",
    "1696": "oі",
    "1697": "oң",
    "1698": "oғ",
    "1699": "oү",
    "1700": "oұ",
    "1701": "oқ",
    "1702": "oө",
    "1703": "oһ",
    "1704": "o1",
    "1705": "o2",
    "1706": "o3",
    "1707": "o4",
    "1708": "o5",
    "1709": "o6",
    "1710": "o7",
    "1711": "o8",
    "1712": "o9",
    "1713": "o0",
    "1714": "o!",
    "1715": "o@",
    "1716": "o#",
    "1717": "o$",
    "1718": "o%",
    "1719": "o^",
    "1720": "o:",
    "1721": "o&",
    "1722": "o*",
    "1723": "o(",
    "1724": "o)",
    "1725": "o_",
    "1726": "o+",
    "1727": "o=",
    "1728": "o-",
    "1729": "o?",
    "1730": "o/",
    "1731": "o>",
    "1732": "o.",
    "1733": "o<",
    "1734": "o,",
    "1735": "o`",
    "1736": "o|",
    "1737": "o\\",
    "1738": "o'",
    "1739": "o\"",
    "1740": "o[",
    "1741": "o]",
    "1742": "o{",
    "1743": "o}",
    "1744": "o ",
    "1745": "pa",
    "1746": "pb",
    "1747": "pc",
    "1748": "pd",
    "1749": "pe",
    "1750": "pf",
    "1751": "pg",
    "1752": "ph",
    "1753": "pi",
    "1754": "pj",
    "1755": "pk",
    "1756": "pl",
    "1757": "pm",
    "1758": "pn",
    "1759": "po",
    "1760": "pp",
    "1761": "pq",
    "1762": "pr",
    "1763": "ps",
    "1764": "pt",
    "1765": "pu",
    "1766": "pv",
    "1767": "pw",
    "1768": "px",
    "1769": "py",
    "1770": "pz",
    "1771": "pа",
    "1772": "pб",
    "1773": "pв",
    "1774": "pг",
    "1775": "pд",
    "1776": "pе",
    "1777": "pё",
    "1778": "pж",
    "1779": "pз",
    "1780": "pи",
    "1781": "pй",
    "1782": "pк",
    "1783": "pл",
    "1784": "pм",
    "1785": "pн",
    "1786": "pо",
    "1787": "pп",
    "1788": "pр",
    "1789": "pс",
    "1790": "pт",
    "1791": "pу",
    "1792": "pф",
    "1793": "pх",
    "1794": "pц",
    "1795": "pч",
    "1796": "pш",
    "1797": "pщ",
    "1798": "pъ",
    "1799": "pы",
    "1800": "pь",
    "1801": "pэ",
    "1802": "pю",
    "1803": "pя",
    "1804": "pә",
    "1805": "pі",
    "1806": "pң",
    "1807": "pғ",
    "1808": "pү",
    "1809": "pұ",
    "1810": "pқ",
    "1811": "pө",
    "1812": "pһ",
    "1813": "p1",
    "1814": "p2",
    "1815": "p3",
    "1816": "p4",
    "1817": "p5",
    "1818": "p6",
    "1819": "p7",
    "1820": "p8",
    "1821": "p9",
    "1822": "p0",
    "1823": "p!",
    "1824": "p@",
    "1825": "p#",
    "1826": "p$",
    "1827": "p%",
    "1828": "p^",
    "1829": "p:",
    "1830": "p&",
    "1831": "p*",
    "1832": "p(",
    "1833": "p)",
    "1834": "p_",
    "1835": "p+",
    "1836": "p=",
    "1837": "p-",
    "1838": "p?",
    "1839": "p/",
    "1840": "p>",
    "1841": "p.",
    "1842": "p<",
    "1843": "p,",
    "1844": "p`",
    "1845": "p|",
    "1846": "p\\",
    "1847": "p'",
    "1848": "p\"",
    "1849": "p[",
    "1850": "p]",
    "1851": "p{",
    "1852": "p}",
    "1853": "p ",
    "1854": "qa",
    "1855": "qb",
    "1856": "qc",
    "1857": "qd",
    "1858": "qe",
    "1859": "qf",
    "1860": "qg",
    "1861": "qh",
    "1862": "qi",
    "1863": "qj",
    "1864": "qk",
    "1865": "ql",
    "1866": "qm",
    "1867": "qn",
    "1868": "qo",
    "1869": "qp",
    "1870": "qq",
    "1871": "qr",
    "1872": "qs",
    "1873": "qt",
    "1874": "qu",
    "1875": "qv",
    "1876": "qw",
    "1877": "qx",
    "1878": "qy",
    "1879": "qz",
    "1880": "qа",
    "1881": "qб",
    "1882": "qв",
    "1883": "qг",
    "1884": "qд",
    "1885": "qе",
    "1886": "qё",
    "1887": "qж",
    "1888": "qз",
    "1889": "qи",
    "1890": "qй",
    "1891": "qк",
    "1892": "qл",
    "1893": "qм",
    "1894": "qн",
    "1895": "qо",
    "1896": "qп",
    "1897": "qр",
    "1898": "qс",
    "1899": "qт",
    "1900": "qу",
    "1901": "qф",
    "1902": "qх",
    "1903": "qц",
    "1904": "qч",
    "1905": "qш",
    "1906": "qщ",
    "1907": "qъ",
    "1908": "qы",
    "1909": "qь",
    "1910": "qэ",
    "1911": "qю",
    "1912": "qя",
    "1913": "qә",
    "1914": "qі",
    "1915": "qң",
    "1916": "qғ",
    "1917": "qү",
    "1918": "qұ",
    "1919": "qқ",
    "1920": "qө",
    "1921": "qһ",
    "1922": "q1",
    "1923": "q2",
    "1924": "q3",
    "1925": "q4",
    "1926": "q5",
    "1927": "q6",
    "1928": "q7",
    "1929": "q8",
    "1930": "q9",
    "1931": "q0",
    "1932": "q!",
    "1933": "q@",
    "1934": "q#",
    "1935": "q$",
    "1936": "q%",
    "1937": "q^",
    "1938": "q:",
    "1939": "q&",
    "1940": "q*",
    "1941": "q(",
    "1942": "q)",
    "1943": "q_",
    "1944": "q+",
    "1945": "q=",
    "1946": "q-",
    "1947": "q?",
    "1948": "q/",
    "1949": "q>",
    "1950": "q.",
    "1951": "q<",
    "1952": "q,",
    "1953": "q`",
    "1954": "q|",
    "1955": "q\\",
    "1956": "q'",
    "1957": "q\"",
    "1958": "q[",
    "1959": "q]",
    "1960": "q{",
    "1961": "q}",
    "1962": "q ",
    "1963": "ra",
    "1964": "rb",
    "1965": "rc",
    "1966": "rd",
    "1967": "re",
    "1968": "rf",
    "1969": "rg",
    "1970": "rh",
    "1971": "ri",
    "1972": "rj",
    "1973": "rk",
    "1974": "rl",
    "1975": "rm",
    "1976": "rn",
    "1977": "ro",
    "1978": "rp",
    "1979": "rq",
    "1980": "rr",
    "1981": "rs",
    "1982": "rt",
    "1983": "ru",
    "1984": "rv",
    "1985": "rw",
    "1986": "rx",
    "1987": "ry",
    "1988": "rz",
    "1989": "rа",
    "1990": "rб",
    "1991": "rв",
    "1992": "rг",
    "1993": "rд",
    "1994": "rе",
    "1995": "rё",
    "1996": "rж",
    "1997": "rз",
    "1998": "rи",
    "1999": "rй",
    "2000": "rк",
    "2001": "rл",
    "2002": "rм",
    "2003": "rн",
    "2004": "rо",
    "2005": "rп",
    "2006": "rр",
    "2007": "rс",
    "2008": "rт",
    "2009": "rу",
    "2010": "rф",
    "2011": "rх",
    "2012": "rц",
    "2013": "rч",
    "2014": "rш",
    "2015": "rщ",
    "2016": "rъ",
    "2017": "rы",
    "2018": "rь",
    "2019": "rэ",
    "2020": "rю",
    "2021": "rя",
    "2022": "rә",
    "2023": "rі",
    "2024": "rң",
    "2025": "rғ",
    "2026": "rү",
    "2027": "rұ",
    "2028": "rқ",
    "2029": "rө",
    "2030": "rһ",
    "2031": "r1",
    "2032": "r2",
    "2033": "r3",
    "2034": "r4",
    "2035": "r5",
    "2036": "r6",
    "2037": "r7",
    "2038": "r8",
    "2039": "r9",
    "2040": "r0",
    "2041": "r!",
    "2042": "r@",
    "2043": "r#",
    "2044": "r$",
    "2045": "r%",
    "2046": "r^",
    "2047": "r:",
    "2048": "r&",
    "2049": "r*",
    "2050": "r(",
    "2051": "r)",
    "2052": "r_",
    "2053": "r+",
    "2054": "r=",
    "2055": "r-",
    "2056": "r?",
    "2057": "r/",
    "2058": "r>",
    "2059": "r.",
    "2060": "r<",
    "2061": "r,",
    "2062": "r`",
    "2063": "r|",
    "2064": "r\\",
    "2065": "r'",
    "2066": "r\"",
    "2067": "r[",
    "2068": "r]",
    "2069": "r{",
    "2070": "r}",
    "2071": "r ",
    "2072": "sa",
    "2073": "sb",
    "2074": "sc",
    "2075": "sd",
    "2076": "se",
    "2077": "sf",
    "2078": "sg",
    "2079": "sh",
    "2080": "si",
    "2081": "sj",
    "2082": "sk",
    "2083": "sl",
    "2084": "sm",
    "2085": "sn",
    "2086": "so",
    "2087": "sp",
    "2088": "sq",
    "2089": "sr",
    "2090": "ss",
    "2091": "st",
    "2092": "su",
    "2093": "sv",
    "2094": "sw",
    "2095": "sx",
    "2096": "sy",
    "2097": "sz",
    "2098": "sа",
    "2099": "sб",
    "2100": "sв",
    "2101": "sг",
    "2102": "sд",
    "2103": "sе",
    "2104": "sё",
    "2105": "sж",
    "2106": "sз",
    "2107": "sи",
    "2108": "sй",
    "2109": "sк",
    "2110": "sл",
    "2111": "sм",
    "2112": "sн",
    "2113": "sо",
    "2114": "sп",
    "2115": "sр",
    "2116": "sс",
    "2117": "sт",
    "2118": "sу",
    "2119": "sф",
    "2120": "sх",
    "2121": "sц",
    "2122": "sч",
    "2123": "sш",
    "2124": "sщ",
    "2125": "sъ",
    "2126": "sы",
    "2127": "sь",
    "2128": "sэ",
    "2129": "sю",
    "2130": "sя",
    "2131": "sә",
    "2132": "sі",
    "2133": "sң",
    "2134": "sғ",
    "2135": "sү",
    "2136": "sұ",
    "2137": "sқ",
    "2138": "sө",
    "2139": "sһ",
    "2140": "s1",
    "2141": "s2",
    "2142": "s3",
    "2143": "s4",
    "2144": "s5",
    "2145": "s6",
    "2146": "s7",
    "2147": "s8",
    "2148": "s9",
    "2149": "s0",
    "2150": "s!",
    "2151": "s@",
    "2152": "s#",
    "2153": "s$",
    "2154": "s%",
    "2155": "s^",
    "2156": "s:",
    "2157": "s&",
    "2158": "s*",
    "2159": "s(",
    "2160": "s)",
    "2161": "s_",
    "2162": "s+",
    "2163": "s=",
    "2164": "s-",
    "2165": "s?",
    "2166": "s/",
    "2167": "s>",
    "2168": "s.",
    "2169": "s<",
    "2170": "s,",
    "2171": "s`",
    "2172": "s|",
    "2173": "s\\",
    "2174": "s'",
    "2175": "s\"",
    "2176": "s[",
    "2177": "s]",
    "2178": "s{",
    "2179": "s}",
    "2180": "s ",
    "2181": "ta",
    "2182": "tb",
    "2183": "tc",
    "2184": "td",
    "2185": "te",
    "2186": "tf",
    "2187": "tg",
    "2188": "th",
    "2189": "ti",
    "2190": "tj",
    "2191": "tk",
    "2192": "tl",
    "2193": "tm",
    "2194": "tn",
    "2195": "to",
    "2196": "tp",
    "2197": "tq",
    "2198": "tr",
    "2199": "ts",
    "2200": "tt",
    "2201": "tu",
    "2202": "tv",
    "2203": "tw",
    "2204": "tx",
    "2205": "ty",
    "2206": "tz",
    "2207": "tа",
    "2208": "tб",
    "2209": "tв",
    "2210": "tг",
    "2211": "tд",
    "2212": "tе",
    "2213": "tё",
    "2214": "tж",
    "2215": "tз",
    "2216": "tи",
    "2217": "tй",
    "2218": "tк",
    "2219": "tл",
    "2220": "tм",
    "2221": "tн",
    "2222": "tо",
    "2223": "tп",
    "2224": "tр",
    "2225": "tс",
    "2226": "tт",
    "2227": "tу",
    "2228": "tф",
    "2229": "tх",
    "2230": "tц",
    "2231": "tч",
    "2232": "tш",
    "2233": "tщ",
    "2234": "tъ",
    "2235": "tы",
    "2236": "tь",
    "2237": "tэ",
    "2238": "tю",
    "2239": "tя",
    "2240": "tә",
    "2241": "tі",
    "2242": "tң",
    "2243": "tғ",
    "2244": "tү",
    "2245": "tұ",
    "2246": "tқ",
    "2247": "tө",
    "2248": "tһ",
    "2249": "t1",
    "2250": "t2",
    "2251": "t3",
    "2252": "t4",
    "2253": "t5",
    "2254": "t6",
    "2255": "t7",
    "2256": "t8",
    "2257": "t9",
    "2258": "t0",
    "2259": "t!",
    "2260": "t@",
    "2261": "t#",
    "2262": "t$",
    "2263": "t%",
    "2264": "t^",
    "2265": "t:",
    "2266": "t&",
    "2267": "t*",
    "2268": "t(",
    "2269": "t)",
    "2270": "t_",
    "2271": "t+",
    "2272": "t=",
    "2273": "t-",
    "2274": "t?",
    "2275": "t/",
    "2276": "t>",
    "2277": "t.",
    "2278": "t<",
    "2279": "t,",
    "2280": "t`",
    "2281": "t|",
    "2282": "t\\",
    "2283": "t'",
    "2284": "t\"",
    "2285": "t[",
    "2286": "t]",
    "2287": "t{",
    "2288": "t}",
    "2289": "t ",
    "2290": "ua",
    "2291": "ub",
    "2292": "uc",
    "2293": "ud",
    "2294": "ue",
    "2295": "uf",
    "2296": "ug",
    "2297": "uh",
    "2298": "ui",
    "2299": "uj",
    "2300": "uk",
    "2301": "ul",
    "2302": "um",
    "2303": "un",
    "2304": "uo",
    "2305": "up",
    "2306": "uq",
    "2307": "ur",
    "2308": "us",
    "2309": "ut",
    "2310": "uu",
    "2311": "uv",
    "2312": "uw",
    "2313": "ux",
    "2314": "uy",
    "2315": "uz",
    "2316": "uа",
    "2317": "uб",
    "2318": "uв",
    "2319": "uг",
    "2320": "uд",
    "2321": "uе",
    "2322": "uё",
    "2323": "uж",
    "2324": "uз",
    "2325": "uи",
    "2326": "uй",
    "2327": "uк",
    "2328": "uл",
    "2329": "uм",
    "2330": "uн",
    "2331": "uо",
    "2332": "uп",
    "2333": "uр",
    "2334": "uс",
    "2335": "uт",
    "2336": "uу",
    "2337": "uф",
    "2338": "uх",
    "2339": "uц",
    "2340": "uч",
    "2341": "uш",
    "2342": "uщ",
    "2343": "uъ",
    "2344": "uы",
    "2345": "uь",
    "2346": "uэ",
    "2347": "uю",
    "2348": "uя",
    "2349": "uә",
    "2350": "uі",
    "2351": "uң",
    "2352": "uғ",
    "2353": "uү",
    "2354": "uұ",
    "2355": "uқ",
    "2356": "uө",
    "2357": "uһ",
    "2358": "u1",
    "2359": "u2",
    "2360": "u3",
    "2361": "u4",
    "2362": "u5",
    "2363": "u6",
    "2364": "u7",
    "2365": "u8",
    "2366": "u9",
    "2367": "u0",
    "2368": "u!",
    "2369": "u@",
    "2370": "u#",
    "2371": "u$",
    "2372": "u%",
    "2373": "u^",
    "2374": "u:",
    "2375": "u&",
    "2376": "u*",
    "2377": "u(",
    "2378": "u)",
    "2379": "u_",
    "2380": "u+",
    "2381": "u=",
    "2382": "u-",
    "2383": "u?",
    "2384": "u/",
    "2385": "u>",
    "2386": "u.",
    "2387": "u<",
    "2388": "u,",
    "2389": "u`",
    "2390": "u|",
    "2391": "u\\",
    "2392": "u'",
    "2393": "u\"",
    "2394": "u[",
    "2395": "u]",
    "2396": "u{",
    "2397": "u}",
    "2398": "u ",
    "2399": "va",
    "2400": "vb",
    "2401": "vc",
    "2402": "vd",
    "2403": "ve",
    "2404": "vf",
    "2405": "vg",
    "2406": "vh",
    "2407": "vi",
    "2408": "vj",
    "2409": "vk",
    "2410": "vl",
    "2411": "vm",
    "2412": "vn",
    "2413": "vo",
    "2414": "vp",
    "2415": "vq",
    "2416": "vr",
    "2417": "vs",
    "2418": "vt",
    "2419": "vu",
    "2420": "vv",
    "2421": "vw",
    "2422": "vx",
    "2423": "vy",
    "2424": "vz",
    "2425": "vа",
    "2426": "vб",
    "2427": "vв",
    "2428": "vг",
    "2429": "vд",
    "2430": "vе",
    "2431": "vё",
    "2432": "vж",
    "2433": "vз",
    "2434": "vи",
    "2435": "vй",
    "2436": "vк",
    "2437": "vл",
    "2438": "vм",
    "2439": "vн",
    "2440": "vо",
    "2441": "vп",
    "2442": "vр",
    "2443": "vс",
    "2444": "vт",
    "2445": "vу",
    "2446": "vф",
    "2447": "vх",
    "2448": "vц",
    "2449": "vч",
    "2450": "vш",
    "2451": "vщ",
    "2452": "vъ",
    "2453": "vы",
    "2454": "vь",
    "2455": "vэ",
    "2456": "vю",
    "2457": "vя",
    "2458": "vә",
    "2459": "vі",
    "2460": "vң",
    "2461": "vғ",
    "2462": "vү",
    "2463": "vұ",
    "2464": "vқ",
    "2465": "vө",
    "2466": "vһ",
    "2467": "v1",
    "2468": "v2",
    "2469": "v3",
    "2470": "v4",
    "2471": "v5",
    "2472": "v6",
    "2473": "v7",
    "2474": "v8",
    "2475": "v9",
    "2476": "v0",
    "2477": "v!",
    "2478": "v@",
    "2479": "v#",
    "2480": "v$",
    "2481": "v%",
    "2482": "v^",
    "2483": "v:",
    "2484": "v&",
    "2485": "v*",
    "2486": "v(",
    "2487": "v)",
    "2488": "v_",
    "2489": "v+",
    "2490": "v=",
    "2491": "v-",
    "2492": "v?",
    "2493": "v/",
    "2494": "v>",
    "2495": "v.",
    "2496": "v<",
    "2497": "v,",
    "2498": "v`",
    "2499": "v|",
    "2500": "v\\",
    "2501": "v'",
    "2502": "v\"",
    "2503": "v[",
    "2504": "v]",
    "2505": "v{",
    "2506": "v}",
    "2507": "v ",
    "2508": "wa",
    "2509": "wb",
    "2510": "wc",
    "2511": "wd",
    "2512": "we",
    "2513": "wf",
    "2514": "wg",
    "2515": "wh",
    "2516": "wi",
    "2517": "wj",
    "2518": "wk",
    "2519": "wl",
    "2520": "wm",
    "2521": "wn",
    "2522": "wo",
    "2523": "wp",
    "2524": "wq",
    "2525": "wr",
    "2526": "ws",
    "2527": "wt",
    "2528": "wu",
    "2529": "wv",
    "2530": "ww",
    "2531": "wx",
    "2532": "wy",
    "2533": "wz",
    "2534": "wа",
    "2535": "wб",
    "2536": "wв",
    "2537": "wг",
    "2538": "wд",
    "2539": "wе",
    "2540": "wё",
    "2541": "wж",
    "2542": "wз",
    "2543": "wи",
    "2544": "wй",
    "2545": "wк",
    "2546": "wл",
    "2547": "wм",
    "2548": "wн",
    "2549": "wо",
    "2550": "wп",
    "2551": "wр",
    "2552": "wс",
    "2553": "wт",
    "2554": "wу",
    "2555": "wф",
    "2556": "wх",
    "2557": "wц",
    "2558": "wч",
    "2559": "wш",
    "2560": "wщ",
    "2561": "wъ",
    "2562": "wы",
    "2563": "wь",
    "2564": "wэ",
    "2565": "wю",
    "2566": "wя",
    "2567": "wә",
    "2568": "wі",
    "2569": "wң",
    "2570": "wғ",
    "2571": "wү",
    "2572": "wұ",
    "2573": "wқ",
    "2574": "wө",
    "2575": "wһ",
    "2576": "w1",
    "2577": "w2",
    "2578": "w3",
    "2579": "w4",
    "2580": "w5",
    "2581": "w6",
    "2582": "w7",
    "2583": "w8",
    "2584": "w9",
    "2585": "w0",
    "2586": "w!",
    "2587": "w@",
    "2588": "w#",
    "2589": "w$",
    "2590": "w%",
    "2591": "w^",
    "2592": "w:",
    "2593": "w&",
    "2594": "w*",
    "2595": "w(",
    "2596": "w)",
    "2597": "w_",
    "2598": "w+",
    "2599": "w=",
    "2600": "w-",
    "2601": "w?",
    "2602": "w/",
    "2603": "w>",
    "2604": "w.",
    "2605": "w<",
    "2606": "w,",
    "2607": "w`",
    "2608": "w|",
    "2609": "w\\",
    "2610": "w'",
    "2611": "w\"",
    "2612": "w[",
    "2613": "w]",
    "2614": "w{",
    "2615": "w}",
    "2616": "w ",
    "2617": "xa",
    "2618": "xb",
    "2619": "xc",
    "2620": "xd",
    "2621": "xe",
    "2622": "xf",
    "2623": "xg",
    "2624": "xh",
    "2625": "xi",
    "2626": "xj",
    "2627": "xk",
    "2628": "xl",
    "2629": "xm",
    "2630": "xn",
    "2631": "xo",
    "2632": "xp",
    "2633": "xq",
    "2634": "xr",
    "2635": "xs",
    "2636": "xt",
    "2637": "xu",
    "2638": "xv",
    "2639": "xw",
    "2640": "xx",
    "2641": "xy",
    "2642": "xz",
    "2643": "xа",
    "2644": "xб",
    "2645": "xв",
    "2646": "xг",
    "2647": "xд",
    "2648": "xе",
    "2649": "xё",
    "2650": "xж",
    "2651": "xз",
    "2652": "xи",
    "2653": "xй",
    "2654": "xк",
    "2655": "xл",
    "2656": "xм",
    "2657": "xн",
    "2658": "xо",
    "2659": "xп",
    "2660": "xр",
    "2661": "xс",
    "2662": "xт",
    "2663": "xу",
    "2664": "xф",
    "2665": "xх",
    "2666": "xц",
    "2667": "xч",
    "2668": "xш",
    "2669": "xщ",
    "2670": "xъ",
    "2671": "xы",
    "2672": "xь",
    "2673": "xэ",
    "2674": "xю",
    "2675": "xя",
    "2676": "xә",
    "2677": "xі",
    "2678": "xң",
    "2679": "xғ",
    "2680": "xү",
    "2681": "xұ",
    "2682": "xқ",
    "2683": "xө",
    "2684": "xһ",
    "2685": "x1",
    "2686": "x2",
    "2687": "x3",
    "2688": "x4",
    "2689": "x5",
    "2690": "x6",
    "2691": "x7",
    "2692": "x8",
    "2693": "x9",
    "2694": "x0",
    "2695": "x!",
    "2696": "x@",
    "2697": "x#",
    "2698": "x$",
    "2699": "x%",
    "2700": "x^",
    "2701": "x:",
    "2702": "x&",
    "2703": "x*",
    "2704": "x(",
    "2705": "x)",
    "2706": "x_",
    "2707": "x+",
    "2708": "x=",
    "2709": "x-",
    "2710": "x?",
    "2711": "x/",
    "2712": "x>",
    "2713": "x.",
    "2714": "x<",
    "2715": "x,",
    "2716": "x`",
    "2717": "x|",
    "2718": "x\\",
    "2719": "x'",
    "2720": "x\"",
    "2721": "x[",
    "2722": "x]",
    "2723": "x{",
    "2724": "x}",
    "2725": "x ",
    "2726": "ya",
    "2727": "yb",
    "2728": "yc",
    "2729": "yd",
    "2730": "ye",
    "2731": "yf",
    "2732": "yg",
    "2733": "yh",
    "2734": "yi",
    "2735": "yj",
    "2736": "yk",
    "2737": "yl",
    "2738": "ym",
    "2739": "yn",
    "2740": "yo",
    "2741": "yp",
    "2742": "yq",
    "2743": "yr",
    "2744": "ys",
    "2745": "yt",
    "2746": "yu",
    "2747": "yv",
    "2748": "yw",
    "2749": "yx",
    "2750": "yy",
    "2751": "yz",
    "2752": "yа",
    "2753": "yб",
    "2754": "yв",
    "2755": "yг",
    "2756": "yд",
    "2757": "yе",
    "2758": "yё",
    "2759": "yж",
    "2760": "yз",
    "2761": "yи",
    "2762": "yй",
    "2763": "yк",
    "2764": "yл",
    "2765": "yм",
    "2766": "yн",
    "2767": "yо",
    "2768": "yп",
    "2769": "yр",
    "2770": "yс",
    "2771": "yт",
    "2772": "yу",
    "2773": "yф",
    "2774": "yх",
    "2775": "yц",
    "2776": "yч",
    "2777": "yш",
    "2778": "yщ",
    "2779": "yъ",
    "2780": "yы",
    "2781": "yь",
    "2782": "yэ",
    "2783": "yю",
    "2784": "yя",
    "2785": "yә",
    "2786": "yі",
    "2787": "yң",
    "2788": "yғ",
    "2789": "yү",
    "2790": "yұ",
    "2791": "yқ",
    "2792": "yө",
    "2793": "yһ",
    "2794": "y1",
    "2795": "y2",
    "2796": "y3",
    "2797": "y4",
    "2798": "y5",
    "2799": "y6",
    "2800": "y7",
    "2801": "y8",
    "2802": "y9",
    "2803": "y0",
    "2804": "y!",
    "2805": "y@",
    "2806": "y#",
    "2807": "y$",
    "2808": "y%",
    "2809": "y^",
    "2810": "y:",
    "2811": "y&",
    "2812": "y*",
    "2813": "y(",
    "2814": "y)",
    "2815": "y_",
    "2816": "y+",
    "2817": "y=",
    "2818": "y-",
    "2819": "y?",
    "2820": "y/",
    "2821": "y>",
    "2822": "y.",
    "2823": "y<",
    "2824": "y,",
    "2825": "y`",
    "2826": "y|",
    "2827": "y\\",
    "2828": "y'",
    "2829": "y\"",
    "2830": "y[",
    "2831": "y]",
    "2832": "y{",
    "2833": "y}",
    "2834": "y ",
    "2835": "za",
    "2836": "zb",
    "2837": "zc",
    "2838": "zd",
    "2839": "ze",
    "2840": "zf",
    "2841": "zg",
    "2842": "zh",
    "2843": "zi",
    "2844": "zj",
    "2845": "zk",
    "2846": "zl",
    "2847": "zm",
    "2848": "zn",
    "2849": "zo",
    "2850": "zp",
    "2851": "zq",
    "2852": "zr",
    "2853": "zs",
    "2854": "zt",
    "2855": "zu",
    "2856": "zv",
    "2857": "zw",
    "2858": "zx",
    "2859": "zy",
    "2860": "zz",
    "2861": "zа",
    "2862": "zб",
    "2863": "zв",
    "2864": "zг",
    "2865": "zд",
    "2866": "zе",
    "2867": "zё",
    "2868": "zж",
    "2869": "zз",
    "2870": "zи",
    "2871": "zй",
    "2872": "zк",
    "2873": "zл",
    "2874": "zм",
    "2875": "zн",
    "2876": "zо",
    "2877": "zп",
    "2878": "zр",
    "2879": "zс",
    "2880": "zт",
    "2881": "zу",
    "2882": "zф",
    "2883": "zх",
    "2884": "zц",
    "2885": "zч",
    "2886": "zш",
    "2887": "zщ",
    "2888": "zъ",
    "2889": "zы",
    "2890": "zь",
    "2891": "zэ",
    "2892": "zю",
    "2893": "zя",
    "2894": "zә",
    "2895": "zі",
    "2896": "zң",
    "2897": "zғ",
    "2898": "zү",
    "2899": "zұ",
    "2900": "zқ",
    "2901": "zө",
    "2902": "zһ",
    "2903": "z1",
    "2904": "z2",
    "2905": "z3",
    "2906": "z4",
    "2907": "z5",
    "2908": "z6",
    "2909": "z7",
    "2910": "z8",
    "2911": "z9",
    "2912": "z0",
    "2913": "z!",
    "2914": "z@",
    "2915": "z#",
    "2916": "z$",
    "2917": "z%",
    "2918": "z^",
    "2919": "z:",
    "2920": "z&",
    "2921": "z*",
    "2922": "z(",
    "2923": "z)",
    "2924": "z_",
    "2925": "z+",
    "2926": "z=",
    "2927": "z-",
    "2928": "z?",
    "2929": "z/",
    "2930": "z>",
    "2931": "z.",
    "2932": "z<",
    "2933": "z,",
    "2934": "z`",
    "2935": "z|",
    "2936": "z\\",
    "2937": "z'",
    "2938": "z\"",
    "2939": "z[",
    "2940": "z]",
    "2941": "z{",
    "2942": "z}",
    "2943": "z ",
    "2944": "аa",
    "2945": "аb",
    "2946": "аc",
    "2947": "аd",
    "2948": "аe",
    "2949": "аf",
    "2950": "аg",
    "2951": "аh",
    "2952": "аi",
    "2953": "аj",
    "2954": "аk",
    "2955": "аl",
    "2956": "аm",
    "2957": "аn",
    "2958": "аo",
    "2959": "аp",
    "2960": "аq",
    "2961": "аr",
    "2962": "аs",
    "2963": "аt",
    "2964": "аu",
    "2965": "аv",
    "2966": "аw",
    "2967": "аx",
    "2968": "аy",
    "2969": "аz",
    "2970": "аа",
    "2971": "аб",
    "2972": "ав",
    "2973": "аг",
    "2974": "ад",
    "2975": "ае",
    "2976": "аё",
    "2977": "аж",
    "2978": "аз",
    "2979": "аи",
    "2980": "ай",
    "2981": "ак",
    "2982": "ал",
    "2983": "ам",
    "2984": "ан",
    "2985": "ао",
    "2986": "ап",
    "2987": "ар",
    "2988": "ас",
    "2989": "ат",
    "2990": "ау",
    "2991": "аф",
    "2992": "ах",
    "2993": "ац",
    "2994": "ач",
    "2995": "аш",
    "2996": "ащ",
    "2997": "аъ",
    "2998": "аы",
    "2999": "аь",
    "3000": "аэ",
    "3001": "аю",
    "3002": "ая",
    "3003": "аә",
    "3004": "аі",
    "3005": "аң",
    "3006": "ағ",
    "3007": "аү",
    "3008": "аұ",
    "3009": "ақ",
    "3010": "аө",
    "3011": "аһ",
    "3012": "а1",
    "3013": "а2",
    "3014": "а3",
    "3015": "а4",
    "3016": "а5",
    "3017": "а6",
    "3018": "а7",
    "3019": "а8",
    "3020": "а9",
    "3021": "а0",
    "3022": "а!",
    "3023": "а@",
    "3024": "а#",
    "3025": "а$",
    "3026": "а%",
    "3027": "а^",
    "3028": "а:",
    "3029": "а&",
    "3030": "а*",
    "3031": "а(",
    "3032": "а)",
    "3033": "а_",
    "3034": "а+",
    "3035": "а=",
    "3036": "а-",
    "3037": "а?",
    "3038": "а/",
    "3039": "а>",
    "3040": "а.",
    "3041": "а<",
    "3042": "а,",
    "3043": "а`",
    "3044": "а|",
    "3045": "а\\",
    "3046": "а'",
    "3047": "а\"",
    "3048": "а[",
    "3049": "а]",
    "3050": "а{",
    "3051": "а}",
    "3052": "а ",
    "3053": "бa",
    "3054": "бb",
    "3055": "бc",
    "3056": "бd",
    "3057": "бe",
    "3058": "бf",
    "3059": "бg",
    "3060": "бh",
    "3061": "бi",
    "3062": "бj",
    "3063": "бk",
    "3064": "бl",
    "3065": "бm",
    "3066": "бn",
    "3067": "бo",
    "3068": "бp",
    "3069": "бq",
    "3070": "бr",
    "3071": "бs",
    "3072": "бt",
    "3073": "бu",
    "3074": "бv",
    "3075": "бw",
    "3076": "бx",
    "3077": "бy",
    "3078": "бz",
    "3079": "ба",
    "3080": "бб",
    "3081": "бв",
    "3082": "бг",
    "3083": "бд",
    "3084": "бе",
    "3085": "бё",
    "3086": "бж",
    "3087": "бз",
    "3088": "би",
    "3089": "бй",
    "3090": "бк",
    "3091": "бл",
    "3092": "бм",
    "3093": "бн",
    "3094": "бо",
    "3095": "бп",
    "3096": "бр",
    "3097": "бс",
    "3098": "бт",
    "3099": "бу",
    "3100": "бф",
    "3101": "бх",
    "3102": "бц",
    "3103": "бч",
    "3104": "бш",
    "3105": "бщ",
    "3106": "бъ",
    "3107": "бы",
    "3108": "бь",
    "3109": "бэ",
    "3110": "бю",
    "3111": "бя",
    "3112": "бә",
    "3113": "бі",
    "3114": "бң",
    "3115": "бғ",
    "3116": "бү",
    "3117": "бұ",
    "3118": "бқ",
    "3119": "бө",
    "3120": "бһ",
    "3121": "б1",
    "3122": "б2",
    "3123": "б3",
    "3124": "б4",
    "3125": "б5",
    "3126": "б6",
    "3127": "б7",
    "3128": "б8",
    "3129": "б9",
    "3130": "б0",
    "3131": "б!",
    "3132": "б@",
    "3133": "б#",
    "3134": "б$",
    "3135": "б%",
    "3136": "б^",
    "3137": "б:",
    "3138": "б&",
    "3139": "б*",
    "3140": "б(",
    "3141": "б)",
    "3142": "б_",
    "3143": "б+",
    "3144": "б=",
    "3145": "б-",
    "3146": "б?",
    "3147": "б/",
    "3148": "б>",
    "3149": "б.",
    "3150": "б<",
    "3151": "б,",
    "3152": "б`",
    "3153": "б|",
    "3154": "б\\",
    "3155": "б'",
    "3156": "б\"",
    "3157": "б[",
    "3158": "б]",
    "3159": "б{",
    "3160": "б}",
    "3161": "б ",
    "3162": "вa",
    "3163": "вb",
    "3164": "вc",
    "3165": "вd",
    "3166": "вe",
    "3167": "вf",
    "3168": "вg",
    "3169": "вh",
    "3170": "вi",
    "3171": "вj",
    "3172": "вk",
    "3173": "вl",
    "3174": "вm",
    "3175": "вn",
    "3176": "вo",
    "3177": "вp",
    "3178": "вq",
    "3179": "вr",
    "3180": "вs",
    "3181": "вt",
    "3182": "вu",
    "3183": "вv",
    "3184": "вw",
    "3185": "вx",
    "3186": "вy",
    "3187": "вz",
    "3188": "ва",
    "3189": "вб",
    "3190": "вв",
    "3191": "вг",
    "3192": "вд",
    "3193": "ве",
    "3194": "вё",
    "3195": "вж",
    "3196": "вз",
    "3197": "ви",
    "3198": "вй",
    "3199": "вк",
    "3200": "вл",
    "3201": "вм",
    "3202": "вн",
    "3203": "во",
    "3204": "вп",
    "3205": "вр",
    "3206": "вс",
    "3207": "вт",
    "3208": "ву",
    "3209": "вф",
    "3210": "вх",
    "3211": "вц",
    "3212": "вч",
    "3213": "вш",
    "3214": "вщ",
    "3215": "въ",
    "3216": "вы",
    "3217": "вь",
    "3218": "вэ",
    "3219": "вю",
    "3220": "вя",
    "3221": "вә",
    "3222": "ві",
    "3223": "вң",
    "3224": "вғ",
    "3225": "вү",
    "3226": "вұ",
    "3227": "вқ",
    "3228": "вө",
    "3229": "вһ",
    "3230": "в1",
    "3231": "в2",
    "3232": "в3",
    "3233": "в4",
    "3234": "в5",
    "3235": "в6",
    "3236": "в7",
    "3237": "в8",
    "3238": "в9",
    "3239": "в0",
    "3240": "в!",
    "3241": "в@",
    "3242": "в#",
    "3243": "в$",
    "3244": "в%",
    "3245": "в^",
    "3246": "в:",
    "3247": "в&",
    "3248": "в*",
    "3249": "в(",
    "3250": "в)",
    "3251": "в_",
    "3252": "в+",
    "3253": "в=",
    "3254": "в-",
    "3255": "в?",
    "3256": "в/",
    "3257": "в>",
    "3258": "в.",
    "3259": "в<",
    "3260": "в,",
    "3261": "в`",
    "3262": "в|",
    "3263": "в\\",
    "3264": "в'",
    "3265": "в\"",
    "3266": "в[",
    "3267": "в]",
    "3268": "в{",
    "3269": "в}",
    "3270": "в ",
    "3271": "гa",
    "3272": "гb",
    "3273": "гc",
    "3274": "гd",
    "3275": "гe",
    "3276": "гf",
    "3277": "гg",
    "3278": "гh",
    "3279": "гi",
    "3280": "гj",
    "3281": "гk",
    "3282": "гl",
    "3283": "гm",
    "3284": "гn",
    "3285": "гo",
    "3286": "гp",
    "3287": "гq",
    "3288": "гr",
    "3289": "гs",
    "3290": "гt",
    "3291": "гu",
    "3292": "гv",
    "3293": "гw",
    "3294": "гx",
    "3295": "гy",
    "3296": "гz",
    "3297": "га",
    "3298": "гб",
    "3299": "гв",
    "3300": "гг",
    "3301": "гд",
    "3302": "ге",
    "3303": "гё",
    "3304": "гж",
    "3305": "гз",
    "3306": "ги",
    "3307": "гй",
    "3308": "гк",
    "3309": "гл",
    "3310": "гм",
    "3311": "гн",
    "3312": "го",
    "3313": "гп",
    "3314": "гр",
    "3315": "гс",
    "3316": "гт",
    "3317": "гу",
    "3318": "гф",
    "3319": "гх",
    "3320": "гц",
    "3321": "гч",
    "3322": "гш",
    "3323": "гщ",
    "3324": "гъ",
    "3325": "гы",
    "3326": "гь",
    "3327": "гэ",
    "3328": "гю",
    "3329": "гя",
    "3330": "гә",
    "3331": "гі",
    "3332": "гң",
    "3333": "гғ",
    "3334": "гү",
    "3335": "гұ",
    "3336": "гқ",
    "3337": "гө",
    "3338": "гһ",
    "3339": "г1",
    "3340": "г2",
    "3341": "г3",
    "3342": "г4",
    "3343": "г5",
    "3344": "г6",
    "3345": "г7",
    "3346": "г8",
    "3347": "г9",
    "3348": "г0",
    "3349": "г!",
    "3350": "г@",
    "3351": "г#",
    "3352": "г$",
    "3353": "г%",
    "3354": "г^",
    "3355": "г:",
    "3356": "г&",
    "3357": "г*",
    "3358": "г(",
    "3359": "г)",
    "3360": "г_",
    "3361": "г+",
    "3362": "г=",
    "3363": "г-",
    "3364": "г?",
    "3365": "г/",
    "3366": "г>",
    "3367": "г.",
    "3368": "г<",
    "3369": "г,",
    "3370": "г`",
    "3371": "г|",
    "3372": "г\\",
    "3373": "г'",
    "3374": "г\"",
    "3375": "г[",
    "3376": "г]",
    "3377": "г{",
    "3378": "г}",
    "3379": "г ",
    "3380": "дa",
    "3381": "дb",
    "3382": "дc",
    "3383": "дd",
    "3384": "дe",
    "3385": "дf",
    "3386": "дg",
    "3387": "дh",
    "3388": "дi",
    "3389": "дj",
    "3390": "дk",
    "3391": "дl",
    "3392": "дm",
    "3393": "дn",
    "3394": "дo",
    "3395": "дp",
    "3396": "дq",
    "3397": "дr",
    "3398": "дs",
    "3399": "дt",
    "3400": "дu",
    "3401": "дv",
    "3402": "дw",
    "3403": "дx",
    "3404": "дy",
    "3405": "дz",
    "3406": "да",
    "3407": "дб",
    "3408": "дв",
    "3409": "дг",
    "3410": "дд",
    "3411": "де",
    "3412": "дё",
    "3413": "дж",
    "3414": "дз",
    "3415": "ди",
    "3416": "дй",
    "3417": "дк",
    "3418": "дл",
    "3419": "дм",
    "3420": "дн",
    "3421": "до",
    "3422": "дп",
    "3423": "др",
    "3424": "дс",
    "3425": "дт",
    "3426": "ду",
    "3427": "дф",
    "3428": "дх",
    "3429": "дц",
    "3430": "дч",
    "3431": "дш",
    "3432": "дщ",
    "3433": "дъ",
    "3434": "ды",
    "3435": "дь",
    "3436": "дэ",
    "3437": "дю",
    "3438": "дя",
    "3439": "дә",
    "3440": "ді",
    "3441": "дң",
    "3442": "дғ",
    "3443": "дү",
    "3444": "дұ",
    "3445": "дқ",
    "3446": "дө",
    "3447": "дһ",
    "3448": "д1",
    "3449": "д2",
    "3450": "д3",
    "3451": "д4",
    "3452": "д5",
    "3453": "д6",
    "3454": "д7",
    "3455": "д8",
    "3456": "д9",
    "3457": "д0",
    "3458": "д!",
    "3459": "д@",
    "3460": "д#",
    "3461": "д$",
    "3462": "д%",
    "3463": "д^",
    "3464": "д:",
    "3465": "д&",
    "3466": "д*",
    "3467": "д(",
    "3468": "д)",
    "3469": "д_",
    "3470": "д+",
    "3471": "д=",
    "3472": "д-",
    "3473": "д?",
    "3474": "д/",
    "3475": "д>",
    "3476": "д.",
    "3477": "д<",
    "3478": "д,",
    "3479": "д`",
    "3480": "д|",
    "3481": "д\\",
    "3482": "д'",
    "3483": "д\"",
    "3484": "д[",
    "3485": "д]",
    "3486": "д{",
    "3487": "д}",
    "3488": "д ",
    "3489": "еa",
    "3490": "еb",
    "3491": "еc",
    "3492": "еd",
    "3493": "еe",
    "3494": "еf",
    "3495": "еg",
    "3496": "еh",
    "3497": "еi",
    "3498": "еj",
    "3499": "еk",
    "3500": "еl",
    "3501": "еm",
    "3502": "еn",
    "3503": "еo",
    "3504": "еp",
    "3505": "еq",
    "3506": "еr",
    "3507": "еs",
    "3508": "еt",
    "3509": "еu",
    "3510": "еv",
    "3511": "еw",
    "3512": "еx",
    "3513": "еy",
    "3514": "еz",
    "3515": "еа",
    "3516": "еб",
    "3517": "ев",
    "3518": "ег",
    "3519": "ед",
    "3520": "ее",
    "3521": "её",
    "3522": "еж",
    "3523": "ез",
    "3524": "еи",
    "3525": "ей",
    "3526": "ек",
    "3527": "ел",
    "3528": "ем",
    "3529": "ен",
    "3530": "ео",
    "3531": "еп",
    "3532": "ер",
    "3533": "ес",
    "3534": "ет",
    "3535": "еу",
    "3536": "еф",
    "3537": "ех",
    "3538": "ец",
    "3539": "еч",
    "3540": "еш",
    "3541": "ещ",
    "3542": "еъ",
    "3543": "еы",
    "3544": "еь",
    "3545": "еэ",
    "3546": "ею",
    "3547": "ея",
    "3548": "еә",
    "3549": "еі",
    "3550": "ең",
    "3551": "еғ",
    "3552": "еү",
    "3553": "еұ",
    "3554": "еқ",
    "3555": "еө",
    "3556": "еһ",
    "3557": "е1",
    "3558": "е2",
    "3559": "е3",
    "3560": "е4",
    "3561": "е5",
    "3562": "е6",
    "3563": "е7",
    "3564": "е8",
    "3565": "е9",
    "3566": "е0",
    "3567": "е!",
    "3568": "е@",
    "3569": "е#",
    "3570": "е$",
    "3571": "е%",
    "3572": "е^",
    "3573": "е:",
    "3574": "е&",
    "3575": "е*",
    "3576": "е(",
    "3577": "е)",
    "3578": "е_",
    "3579": "е+",
    "3580": "е=",
    "3581": "е-",
    "3582": "е?",
    "3583": "е/",
    "3584": "е>",
    "3585": "е.",
    "3586": "е<",
    "3587": "е,",
    "3588": "е`",
    "3589": "е|",
    "3590": "е\\",
    "3591": "е'",
    "3592": "е\"",
    "3593": "е[",
    "3594": "е]",
    "3595": "е{",
    "3596": "е}",
    "3597": "е ",
    "3598": "ёa",
    "3599": "ёb",
    "3600": "ёc",
    "3601": "ёd",
    "3602": "ёe",
    "3603": "ёf",
    "3604": "ёg",
    "3605": "ёh",
    "3606": "ёi",
    "3607": "ёj",
    "3608": "ёk",
    "3609": "ёl",
    "3610": "ёm",
    "3611": "ёn",
    "3612": "ёo",
    "3613": "ёp",
    "3614": "ёq",
    "3615": "ёr",
    "3616": "ёs",
    "3617": "ёt",
    "3618": "ёu",
    "3619": "ёv",
    "3620": "ёw",
    "3621": "ёx",
    "3622": "ёy",
    "3623": "ёz",
    "3624": "ёа",
    "3625": "ёб",
    "3626": "ёв",
    "3627": "ёг",
    "3628": "ёд",
    "3629": "ёе",
    "3630": "ёё",
    "3631": "ёж",
    "3632": "ёз",
    "3633": "ёи",
    "3634": "ёй",
    "3635": "ёк",
    "3636": "ёл",
    "3637": "ём",
    "3638": "ён",
    "3639": "ёо",
    "3640": "ёп",
    "3641": "ёр",
    "3642": "ёс",
    "3643": "ёт",
    "3644": "ёу",
    "3645": "ёф",
    "3646": "ёх",
    "3647": "ёц",
    "3648": "ёч",
    "3649": "ёш",
    "3650": "ёщ",
    "3651": "ёъ",
    "3652": "ёы",
    "3653": "ёь",
    "3654": "ёэ",
    "3655": "ёю",
    "3656": "ёя",
    "3657": "ёә",
    "3658": "ёі",
    "3659": "ёң",
    "3660": "ёғ",
    "3661": "ёү",
    "3662": "ёұ",
    "3663": "ёқ",
    "3664": "ёө",
    "3665": "ёһ",
    "3666": "ё1",
    "3667": "ё2",
    "3668": "ё3",
    "3669": "ё4",
    "3670": "ё5",
    "3671": "ё6",
    "3672": "ё7",
    "3673": "ё8",
    "3674": "ё9",
    "3675": "ё0",
    "3676": "ё!",
    "3677": "ё@",
    "3678": "ё#",
    "3679": "ё$",
    "3680": "ё%",
    "3681": "ё^",
    "3682": "ё:",
    "3683": "ё&",
    "3684": "ё*",
    "3685": "ё(",
    "3686": "ё)",
    "3687": "ё_",
    "3688": "ё+",
    "3689": "ё=",
    "3690": "ё-",
    "3691": "ё?",
    "3692": "ё/",
    "3693": "ё>",
    "3694": "ё.",
    "3695": "ё<",
    "3696": "ё,",
    "3697": "ё`",
    "3698": "ё|",
    "3699": "ё\\",
    "3700": "ё'",
    "3701": "ё\"",
    "3702": "ё[",
    "3703": "ё]",
    "3704": "ё{",
    "3705": "ё}",
    "3706": "ё ",
    "3707": "жa",
    "3708": "жb",
    "3709": "жc",
    "3710": "жd",
    "3711": "жe",
    "3712": "жf",
    "3713": "жg",
    "3714": "жh",
    "3715": "жi",
    "3716": "жj",
    "3717": "жk",
    "3718": "жl",
    "3719": "жm",
    "3720": "жn",
    "3721": "жo",
    "3722": "жp",
    "3723": "жq",
    "3724": "жr",
    "3725": "жs",
    "3726": "жt",
    "3727": "жu",
    "3728": "жv",
    "3729": "жw",
    "3730": "жx",
    "3731": "жy",
    "3732": "жz",
    "3733": "жа",
    "3734": "жб",
    "3735": "жв",
    "3736": "жг",
    "3737": "жд",
    "3738": "же",
    "3739": "жё",
    "3740": "жж",
    "3741": "жз",
    "3742": "жи",
    "3743": "жй",
    "3744": "жк",
    "3745": "жл",
    "3746": "жм",
    "3747": "жн",
    "3748": "жо",
    "3749": "жп",
    "3750": "жр",
    "3751": "жс",
    "3752": "жт",
    "3753": "жу",
    "3754": "жф",
    "3755": "жх",
    "3756": "жц",
    "3757": "жч",
    "3758": "жш",
    "3759": "жщ",
    "3760": "жъ",
    "3761": "жы",
    "3762": "жь",
    "3763": "жэ",
    "3764": "жю",
    "3765": "жя",
    "3766": "жә",
    "3767": "жі",
    "3768": "жң",
    "3769": "жғ",
    "3770": "жү",
    "3771": "жұ",
    "3772": "жқ",
    "3773": "жө",
    "3774": "жһ",
    "3775": "ж1",
    "3776": "ж2",
    "3777": "ж3",
    "3778": "ж4",
    "3779": "ж5",
    "3780": "ж6",
    "3781": "ж7",
    "3782": "ж8",
    "3783": "ж9",
    "3784": "ж0",
    "3785": "ж!",
    "3786": "ж@",
    "3787": "ж#",
    "3788": "ж$",
    "3789": "ж%",
    "3790": "ж^",
    "3791": "ж:",
    "3792": "ж&",
    "3793": "ж*",
    "3794": "ж(",
    "3795": "ж)",
    "3796": "ж_",
    "3797": "ж+",
    "3798": "ж=",
    "3799": "ж-",
    "3800": "ж?",
    "3801": "ж/",
    "3802": "ж>",
    "3803": "ж.",
    "3804": "ж<",
    "3805": "ж,",
    "3806": "ж`",
    "3807": "ж|",
    "3808": "ж\\",
    "3809": "ж'",
    "3810": "ж\"",
    "3811": "ж[",
    "3812": "ж]",
    "3813": "ж{",
    "3814": "ж}",
    "3815": "ж ",
    "3816": "зa",
    "3817": "зb",
    "3818": "зc",
    "3819": "зd",
    "3820": "зe",
    "3821": "зf",
    "3822": "зg",
    "3823": "зh",
    "3824": "зi",
    "3825": "зj",
    "3826": "зk",
    "3827": "зl",
    "3828": "зm",
    "3829": "зn",
    "3830": "зo",
    "3831": "зp",
    "3832": "зq",
    "3833": "зr",
    "3834": "зs",
    "3835": "зt",
    "3836": "зu",
    "3837": "зv",
    "3838": "зw",
    "3839": "зx",
    "3840": "зy",
    "3841": "зz",
    "3842": "за",
    "3843": "зб",
    "3844": "зв",
    "3845": "зг",
    "3846": "зд",
    "3847": "зе",
    "3848": "зё",
    "3849": "зж",
    "3850": "зз",
    "3851": "зи",
    "3852": "зй",
    "3853": "зк",
    "3854": "зл",
    "3855": "зм",
    "3856": "зн",
    "3857": "зо",
    "3858": "зп",
    "3859": "зр",
    "3860": "зс",
    "3861": "зт",
    "3862": "зу",
    "3863": "зф",
    "3864": "зх",
    "3865": "зц",
    "3866": "зч",
    "3867": "зш",
    "3868": "зщ",
    "3869": "зъ",
    "3870": "зы",
    "3871": "зь",
    "3872": "зэ",
    "3873": "зю",
    "3874": "зя",
    "3875": "зә",
    "3876": "зі",
    "3877": "зң",
    "3878": "зғ",
    "3879": "зү",
    "3880": "зұ",
    "3881": "зқ",
    "3882": "зө",
    "3883": "зһ",
    "3884": "з1",
    "3885": "з2",
    "3886": "з3",
    "3887": "з4",
    "3888": "з5",
    "3889": "з6",
    "3890": "з7",
    "3891": "з8",
    "3892": "з9",
    "3893": "з0",
    "3894": "з!",
    "3895": "з@",
    "3896": "з#",
    "3897": "з$",
    "3898": "з%",
    "3899": "з^",
    "3900": "з:",
    "3901": "з&",
    "3902": "з*",
    "3903": "з(",
    "3904": "з)",
    "3905": "з_",
    "3906": "з+",
    "3907": "з=",
    "3908": "з-",
    "3909": "з?",
    "3910": "з/",
    "3911": "з>",
    "3912": "з.",
    "3913": "з<",
    "3914": "з,",
    "3915": "з`",
    "3916": "з|",
    "3917": "з\\",
    "3918": "з'",
    "3919": "з\"",
    "3920": "з[",
    "3921": "з]",
    "3922": "з{",
    "3923": "з}",
    "3924": "з ",
    "3925": "иa",
    "3926": "иb",
    "3927": "иc",
    "3928": "иd",
    "3929": "иe",
    "3930": "иf",
    "3931": "иg",
    "3932": "иh",
    "3933": "иi",
    "3934": "иj",
    "3935": "иk",
    "3936": "иl",
    "3937": "иm",
    "3938": "иn",
    "3939": "иo",
    "3940": "иp",
    "3941": "иq",
    "3942": "иr",
    "3943": "иs",
    "3944": "иt",
    "3945": "иu",
    "3946": "иv",
    "3947": "иw",
    "3948": "иx",
    "3949": "иy",
    "3950": "иz",
    "3951": "иа",
    "3952": "иб",
    "3953": "ив",
    "3954": "иг",
    "3955": "ид",
    "3956": "ие",
    "3957": "иё",
    "3958": "иж",
    "3959": "из",
    "3960": "ии",
    "3961": "ий",
    "3962": "ик",
    "3963": "ил",
    "3964": "им",
    "3965": "ин",
    "3966": "ио",
    "3967": "ип",
    "3968": "ир",
    "3969": "ис",
    "3970": "ит",
    "3971": "иу",
    "3972": "иф",
    "3973": "их",
    "3974": "иц",
    "3975": "ич",
    "3976": "иш",
    "3977": "ищ",
    "3978": "иъ",
    "3979": "иы",
    "3980": "иь",
    "3981": "иэ",
    "3982": "ию",
    "3983": "ия",
    "3984": "иә",
    "3985": "иі",
    "3986": "иң",
    "3987": "иғ",
    "3988": "иү",
    "3989": "иұ",
    "3990": "иқ",
    "3991": "иө",
    "3992": "иһ",
    "3993": "и1",
    "3994": "и2",
    "3995": "и3",
    "3996": "и4",
    "3997": "и5",
    "3998": "и6",
    "3999": "и7",
    "4000": "и8",
    "4001": "и9",
    "4002": "и0",
    "4003": "и!",
    "4004": "и@",
    "4005": "и#",
    "4006": "и$",
    "4007": "и%",
    "4008": "и^",
    "4009": "и:",
    "4010": "и&",
    "4011": "и*",
    "4012": "и(",
    "4013": "и)",
    "4014": "и_",
    "4015": "и+",
    "4016": "и=",
    "4017": "и-",
    "4018": "и?",
    "4019": "и/",
    "4020": "и>",
    "4021": "и.",
    "4022": "и<",
    "4023": "и,",
    "4024": "и`",
    "4025": "и|",
    "4026": "и\\",
    "4027": "и'",
    "4028": "и\"",
    "4029": "и[",
    "4030": "и]",
    "4031": "и{",
    "4032": "и}",
    "4033": "и ",
    "4034": "йa",
    "4035": "йb",
    "4036": "йc",
    "4037": "йd",
    "4038": "йe",
    "4039": "йf",
    "4040": "йg",
    "4041": "йh",
    "4042": "йi",
    "4043": "йj",
    "4044": "йk",
    "4045": "йl",
    "4046": "йm",
    "4047": "йn",
    "4048": "йo",
    "4049": "йp",
    "4050": "йq",
    "4051": "йr",
    "4052": "йs",
    "4053": "йt",
    "4054": "йu",
    "4055": "йv",
    "4056": "йw",
    "4057": "йx",
    "4058": "йy",
    "4059": "йz",
    "4060": "йа",
    "4061": "йб",
    "4062": "йв",
    "4063": "йг",
    "4064": "йд",
    "4065": "йе",
    "4066": "йё",
    "4067": "йж",
    "4068": "йз",
    "4069": "йи",
    "4070": "йй",
    "4071": "йк",
    "4072": "йл",
    "4073": "йм",
    "4074": "йн",
    "4075": "йо",
    "4076": "йп",
    "4077": "йр",
    "4078": "йс",
    "4079": "йт",
    "4080": "йу",
    "4081": "йф",
    "4082": "йх",
    "4083": "йц",
    "4084": "йч",
    "4085": "йш",
    "4086": "йщ",
    "4087": "йъ",
    "4088": "йы",
    "4089": "йь",
    "4090": "йэ",
    "4091": "йю",
    "4092": "йя",
    "4093": "йә",
    "4094": "йі",
    "4095": "йң",
    "4096": "йғ",
    "4097": "йү",
    "4098": "йұ",
    "4099": "йқ",
    "4100": "йө",
    "4101": "йһ",
    "4102": "й1",
    "4103": "й2",
    "4104": "й3",
    "4105": "й4",
    "4106": "й5",
    "4107": "й6",
    "4108": "й7",
    "4109": "й8",
    "4110": "й9",
    "4111": "й0",
    "4112": "й!",
    "4113": "й@",
    "4114": "й#",
    "4115": "й$",
    "4116": "й%",
    "4117": "й^",
    "4118": "й:",
    "4119": "й&",
    "4120": "й*",
    "4121": "й(",
    "4122": "й)",
    "4123": "й_",
    "4124": "й+",
    "4125": "й=",
    "4126": "й-",
    "4127": "й?",
    "4128": "й/",
    "4129": "й>",
    "4130": "й.",
    "4131": "й<",
    "4132": "й,",
    "4133": "й`",
    "4134": "й|",
    "4135": "й\\",
    "4136": "й'",
    "4137": "й\"",
    "4138": "й[",
    "4139": "й]",
    "4140": "й{",
    "4141": "й}",
    "4142": "й ",
    "4143": "кa",
    "4144": "кb",
    "4145": "кc",
    "4146": "кd",
    "4147": "кe",
    "4148": "кf",
    "4149": "кg",
    "4150": "кh",
    "4151": "кi",
    "4152": "кj",
    "4153": "кk",
    "4154": "кl",
    "4155": "кm",
    "4156": "кn",
    "4157": "кo",
    "4158": "кp",
    "4159": "кq",
    "4160": "кr",
    "4161": "кs",
    "4162": "кt",
    "4163": "кu",
    "4164": "кv",
    "4165": "кw",
    "4166": "кx",
    "4167": "кy",
    "4168": "кz",
    "4169": "ка",
    "4170": "кб",
    "4171": "кв",
    "4172": "кг",
    "4173": "кд",
    "4174": "ке",
    "4175": "кё",
    "4176": "кж",
    "4177": "кз",
    "4178": "ки",
    "4179": "кй",
    "4180": "кк",
    "4181": "кл",
    "4182": "км",
    "4183": "кн",
    "4184": "ко",
    "4185": "кп",
    "4186": "кр",
    "4187": "кс",
    "4188": "кт",
    "4189": "ку",
    "4190": "кф",
    "4191": "кх",
    "4192": "кц",
    "4193": "кч",
    "4194": "кш",
    "4195": "кщ",
    "4196": "къ",
    "4197": "кы",
    "4198": "кь",
    "4199": "кэ",
    "4200": "кю",
    "4201": "кя",
    "4202": "кә",
    "4203": "кі",
    "4204": "кң",
    "4205": "кғ",
    "4206": "кү",
    "4207": "кұ",
    "4208": "кқ",
    "4209": "кө",
    "4210": "кһ",
    "4211": "к1",
    "4212": "к2",
    "4213": "к3",
    "4214": "к4",
    "4215": "к5",
    "4216": "к6",
    "4217": "к7",
    "4218": "к8",
    "4219": "к9",
    "4220": "к0",
    "4221": "к!",
    "4222": "к@",
    "4223": "к#",
    "4224": "к$",
    "4225": "к%",
    "4226": "к^",
    "4227": "к:",
    "4228": "к&",
    "4229": "к*",
    "4230": "к(",
    "4231": "к)",
    "4232": "к_",
    "4233": "к+",
    "4234": "к=",
    "4235": "к-",
    "4236": "к?",
    "4237": "к/",
    "4238": "к>",
    "4239": "к.",
    "4240": "к<",
    "4241": "к,",
    "4242": "к`",
    "4243": "к|",
    "4244": "к\\",
    "4245": "к'",
    "4246": "к\"",
    "4247": "к[",
    "4248": "к]",
    "4249": "к{",
    "4250": "к}",
    "4251": "к ",
    "4252": "лa",
    "4253": "лb",
    "4254": "лc",
    "4255": "лd",
    "4256": "лe",
    "4257": "лf",
    "4258": "лg",
    "4259": "лh",
    "4260": "лi",
    "4261": "лj",
    "4262": "лk",
    "4263": "лl",
    "4264": "лm",
    "4265": "лn",
    "4266": "лo",
    "4267": "лp",
    "4268": "лq",
    "4269": "лr",
    "4270": "лs",
    "4271": "лt",
    "4272": "лu",
    "4273": "лv",
    "4274": "лw",
    "4275": "лx",
    "4276": "лy",
    "4277": "лz",
    "4278": "ла",
    "4279": "лб",
    "4280": "лв",
    "4281": "лг",
    "4282": "лд",
    "4283": "ле",
    "4284": "лё",
    "4285": "лж",
    "4286": "лз",
    "4287": "ли",
    "4288": "лй",
    "4289": "лк",
    "4290": "лл",
    "4291": "лм",
    "4292": "лн",
    "4293": "ло",
    "4294": "лп",
    "4295": "лр",
    "4296": "лс",
    "4297": "лт",
    "4298": "лу",
    "4299": "лф",
    "4300": "лх",
    "4301": "лц",
    "4302": "лч",
    "4303": "лш",
    "4304": "лщ",
    "4305": "лъ",
    "4306": "лы",
    "4307": "ль",
    "4308": "лэ",
    "4309": "лю",
    "4310": "ля",
    "4311": "лә",
    "4312": "лі",
    "4313": "лң",
    "4314": "лғ",
    "4315": "лү",
    "4316": "лұ",
    "4317": "лқ",
    "4318": "лө",
    "4319": "лһ",
    "4320": "л1",
    "4321": "л2",
    "4322": "л3",
    "4323": "л4",
    "4324": "л5",
    "4325": "л6",
    "4326": "л7",
    "4327": "л8",
    "4328": "л9",
    "4329": "л0",
    "4330": "л!",
    "4331": "л@",
    "4332": "л#",
    "4333": "л$",
    "4334": "л%",
    "4335": "л^",
    "4336": "л:",
    "4337": "л&",
    "4338": "л*",
    "4339": "л(",
    "4340": "л)",
    "4341": "л_",
    "4342": "л+",
    "4343": "л=",
    "4344": "л-",
    "4345": "л?",
    "4346": "л/",
    "4347": "л>",
    "4348": "л.",
    "4349": "л<",
    "4350": "л,",
    "4351": "л`",
    "4352": "л|",
    "4353": "л\\",
    "4354": "л'",
    "4355": "л\"",
    "4356": "л[",
    "4357": "л]",
    "4358": "л{",
    "4359": "л}",
    "4360": "л ",
    "4361": "мa",
    "4362": "мb",
    "4363": "мc",
    "4364": "мd",
    "4365": "мe",
    "4366": "мf",
    "4367": "мg",
    "4368": "мh",
    "4369": "мi",
    "4370": "мj",
    "4371": "мk",
    "4372": "мl",
    "4373": "мm",
    "4374": "мn",
    "4375": "мo",
    "4376": "мp",
    "4377": "мq",
    "4378": "мr",
    "4379": "мs",
    "4380": "мt",
    "4381": "мu",
    "4382": "мv",
    "4383": "мw",
    "4384": "мx",
    "4385": "мy",
    "4386": "мz",
    "4387": "ма",
    "4388": "мб",
    "4389": "мв",
    "4390": "мг",
    "4391": "мд",
    "4392": "ме",
    "4393": "мё",
    "4394": "мж",
    "4395": "мз",
    "4396": "ми",
    "4397": "мй",
    "4398": "мк",
    "4399": "мл",
    "4400": "мм",
    "4401": "мн",
    "4402": "мо",
    "4403": "мп",
    "4404": "мр",
    "4405": "мс",
    "4406": "мт",
    "4407": "му",
    "4408": "мф",
    "4409": "мх",
    "4410": "мц",
    "4411": "мч",
    "4412": "мш",
    "4413": "мщ",
    "4414": "мъ",
    "4415": "мы",
    "4416": "мь",
    "4417": "мэ",
    "4418": "мю",
    "4419": "мя",
    "4420": "мә",
    "4421": "мі",
    "4422": "мң",
    "4423": "мғ",
    "4424": "мү",
    "4425": "мұ",
    "4426": "мқ",
    "4427": "мө",
    "4428": "мһ",
    "4429": "м1",
    "4430": "м2",
    "4431": "м3",
    "4432": "м4",
    "4433": "м5",
    "4434": "м6",
    "4435": "м7",
    "4436": "м8",
    "4437": "м9",
    "4438": "м0",
    "4439": "м!",
    "4440": "м@",
    "4441": "м#",
    "4442": "м$",
    "4443": "м%",
    "4444": "м^",
    "4445": "м:",
    "4446": "м&",
    "4447": "м*",
    "4448": "м(",
    "4449": "м)",
    "4450": "м_",
    "4451": "м+",
    "4452": "м=",
    "4453": "м-",
    "4454": "м?",
    "4455": "м/",
    "4456": "м>",
    "4457": "м.",
    "4458": "м<",
    "4459": "м,",
    "4460": "м`",
    "4461": "м|",
    "4462": "м\\",
    "4463": "м'",
    "4464": "м\"",
    "4465": "м[",
    "4466": "м]",
    "4467": "м{",
    "4468": "м}",
    "4469": "м ",
    "4470": "нa",
    "4471": "нb",
    "4472": "нc",
    "4473": "нd",
    "4474": "нe",
    "4475": "нf",
    "4476": "нg",
    "4477": "нh",
    "4478": "нi",
    "4479": "нj",
    "4480": "нk",
    "4481": "нl",
    "4482": "нm",
    "4483": "нn",
    "4484": "нo",
    "4485": "нp",
    "4486": "нq",
    "4487": "нr",
    "4488": "нs",
    "4489": "нt",
    "4490": "нu",
    "4491": "нv",
    "4492": "нw",
    "4493": "нx",
    "4494": "нy",
    "4495": "нz",
    "4496": "на",
    "4497": "нб",
    "4498": "нв",
    "4499": "нг",
    "4500": "нд",
    "4501": "не",
    "4502": "нё",
    "4503": "нж",
    "4504": "нз",
    "4505": "ни",
    "4506": "нй",
    "4507": "нк",
    "4508": "нл",
    "4509": "нм",
    "4510": "нн",
    "4511": "но",
    "4512": "нп",
    "4513": "нр",
    "4514": "нс",
    "4515": "нт",
    "4516": "ну",
    "4517": "нф",
    "4518": "нх",
    "4519": "нц",
    "4520": "нч",
    "4521": "нш",
    "4522": "нщ",
    "4523": "нъ",
    "4524": "ны",
    "4525": "нь",
    "4526": "нэ",
    "4527": "ню",
    "4528": "ня",
    "4529": "нә",
    "4530": "ні",
    "4531": "нң",
    "4532": "нғ",
    "4533": "нү",
    "4534": "нұ",
    "4535": "нқ",
    "4536": "нө",
    "4537": "нһ",
    "4538": "н1",
    "4539": "н2",
    "4540": "н3",
    "4541": "н4",
    "4542": "н5",
    "4543": "н6",
    "4544": "н7",
    "4545": "н8",
    "4546": "н9",
    "4547": "н0",
    "4548": "н!",
    "4549": "н@",
    "4550": "н#",
    "4551": "н$",
    "4552": "н%",
    "4553": "н^",
    "4554": "н:",
    "4555": "н&",
    "4556": "н*",
    "4557": "н(",
    "4558": "н)",
    "4559": "н_",
    "4560": "н+",
    "4561": "н=",
    "4562": "н-",
    "4563": "н?",
    "4564": "н/",
    "4565": "н>",
    "4566": "н.",
    "4567": "н<",
    "4568": "н,",
    "4569": "н`",
    "4570": "н|",
    "4571": "н\\",
    "4572": "н'",
    "4573": "н\"",
    "4574": "н[",
    "4575": "н]",
    "4576": "н{",
    "4577": "н}",
    "4578": "н ",
    "4579": "оa",
    "4580": "оb",
    "4581": "оc",
    "4582": "оd",
    "4583": "оe",
    "4584": "оf",
    "4585": "оg",
    "4586": "оh",
    "4587": "оi",
    "4588": "оj",
    "4589": "оk",
    "4590": "оl",
    "4591": "оm",
    "4592": "оn",
    "4593": "оo",
    "4594": "оp",
    "4595": "оq",
    "4596": "оr",
    "4597": "оs",
    "4598": "оt",
    "4599": "оu",
    "4600": "оv",
    "4601": "оw",
    "4602": "оx",
    "4603": "оy",
    "4604": "оz",
    "4605": "оа",
    "4606": "об",
    "4607": "ов",
    "4608": "ог",
    "4609": "од",
    "4610": "ое",
    "4611": "оё",
    "4612": "ож",
    "4613": "оз",
    "4614": "ои",
    "4615": "ой",
    "4616": "ок",
    "4617": "ол",
    "4618": "ом",
    "4619": "он",
    "4620": "оо",
    "4621": "оп",
    "4622": "ор",
    "4623": "ос",
    "4624": "от",
    "4625": "оу",
    "4626": "оф",
    "4627": "ох",
    "4628": "оц",
    "4629": "оч",
    "4630": "ош",
    "4631": "ощ",
    "4632": "оъ",
    "4633": "оы",
    "4634": "оь",
    "4635": "оэ",
    "4636": "ою",
    "4637": "оя",
    "4638": "оә",
    "4639": "оі",
    "4640": "оң",
    "4641": "оғ",
    "4642": "оү",
    "4643": "оұ",
    "4644": "оқ",
    "4645": "оө",
    "4646": "оһ",
    "4647": "о1",
    "4648": "о2",
    "4649": "о3",
    "4650": "о4",
    "4651": "о5",
    "4652": "о6",
    "4653": "о7",
    "4654": "о8",
    "4655": "о9",
    "4656": "о0",
    "4657": "о!",
    "4658": "о@",
    "4659": "о#",
    "4660": "о$",
    "4661": "о%",
    "4662": "о^",
    "4663": "о:",
    "4664": "о&",
    "4665": "о*",
    "4666": "о(",
    "4667": "о)",
    "4668": "о_",
    "4669": "о+",
    "4670": "о=",
    "4671": "о-",
    "4672": "о?",
    "4673": "о/",
    "4674": "о>",
    "4675": "о.",
    "4676": "о<",
    "4677": "о,",
    "4678": "о`",
    "4679": "о|",
    "4680": "о\\",
    "4681": "о'",
    "4682": "о\"",
    "4683": "о[",
    "4684": "о]",
    "4685": "о{",
    "4686": "о}",
    "4687": "о ",
    "4688": "пa",
    "4689": "пb",
    "4690": "пc",
    "4691": "пd",
    "4692": "пe",
    "4693": "пf",
    "4694": "пg",
    "4695": "пh",
    "4696": "пi",
    "4697": "пj",
    "4698": "пk",
    "4699": "пl",
    "4700": "пm",
    "4701": "пn",
    "4702": "пo",
    "4703": "пp",
    "4704": "пq",
    "4705": "пr",
    "4706": "пs",
    "4707": "пt",
    "4708": "пu",
    "4709": "пv",
    "4710": "пw",
    "4711": "пx",
    "4712": "пy",
    "4713": "пz",
    "4714": "па",
    "4715": "пб",
    "4716": "пв",
    "4717": "пг",
    "4718": "пд",
    "4719": "пе",
    "4720": "пё",
    "4721": "пж",
    "4722": "пз",
    "4723": "пи",
    "4724": "пй",
    "4725": "пк",
    "4726": "пл",
    "4727": "пм",
    "4728": "пн",
    "4729": "по",
    "4730": "пп",
    "4731": "пр",
    "4732": "пс",
    "4733": "пт",
    "4734": "пу",
    "4735": "пф",
    "4736": "пх",
    "4737": "пц",
    "4738": "пч",
    "4739": "пш",
    "4740": "пщ",
    "4741": "пъ",
    "4742": "пы",
    "4743": "пь",
    "4744": "пэ",
    "4745": "пю",
    "4746": "пя",
    "4747": "пә",
    "4748": "пі",
    "4749": "пң",
    "4750": "пғ",
    "4751": "пү",
    "4752": "пұ",
    "4753": "пқ",
    "4754": "пө",
    "4755": "пһ",
    "4756": "п1",
    "4757": "п2",
    "4758": "п3",
    "4759": "п4",
    "4760": "п5",
    "4761": "п6",
    "4762": "п7",
    "4763": "п8",
    "4764": "п9",
    "4765": "п0",
    "4766": "п!",
    "4767": "п@",
    "4768": "п#",
    "4769": "п$",
    "4770": "п%",
    "4771": "п^",
    "4772": "п:",
    "4773": "п&",
    "4774": "п*",
    "4775": "п(",
    "4776": "п)",
    "4777": "п_",
    "4778": "п+",
    "4779": "п=",
    "4780": "п-",
    "4781": "п?",
    "4782": "п/",
    "4783": "п>",
    "4784": "п.",
    "4785": "п<",
    "4786": "п,",
    "4787": "п`",
    "4788": "п|",
    "4789": "п\\",
    "4790": "п'",
    "4791": "п\"",
    "4792": "п[",
    "4793": "п]",
    "4794": "п{",
    "4795": "п}",
    "4796": "п ",
    "4797": "рa",
    "4798": "рb",
    "4799": "рc",
    "4800": "рd",
    "4801": "рe",
    "4802": "рf",
    "4803": "рg",
    "4804": "рh",
    "4805": "рi",
    "4806": "рj",
    "4807": "рk",
    "4808": "рl",
    "4809": "рm",
    "4810": "рn",
    "4811": "рo",
    "4812": "рp",
    "4813": "рq",
    "4814": "рr",
    "4815": "рs",
    "4816": "рt",
    "4817": "рu",
    "4818": "рv",
    "4819": "рw",
    "4820": "рx",
    "4821": "рy",
    "4822": "рz",
    "4823": "ра",
    "4824": "рб",
    "4825": "рв",
    "4826": "рг",
    "4827": "рд",
    "4828": "ре",
    "4829": "рё",
    "4830": "рж",
    "4831": "рз",
    "4832": "ри",
    "4833": "рй",
    "4834": "рк",
    "4835": "рл",
    "4836": "рм",
    "4837": "рн",
    "4838": "ро",
    "4839": "рп",
    "4840": "рр",
    "4841": "рс",
    "4842": "рт",
    "4843": "ру",
    "4844": "рф",
    "4845": "рх",
    "4846": "рц",
    "4847": "рч",
    "4848": "рш",
    "4849": "рщ",
    "4850": "ръ",
    "4851": "ры",
    "4852": "рь",
    "4853": "рэ",
    "4854": "рю",
    "4855": "ря",
    "4856": "рә",
    "4857": "рі",
    "4858": "рң",
    "4859": "рғ",
    "4860": "рү",
    "4861": "рұ",
    "4862": "рқ",
    "4863": "рө",
    "4864": "рһ",
    "4865": "р1",
    "4866": "р2",
    "4867": "р3",
    "4868": "р4",
    "4869": "р5",
    "4870": "р6",
    "4871": "р7",
    "4872": "р8",
    "4873": "р9",
    "4874": "р0",
    "4875": "р!",
    "4876": "р@",
    "4877": "р#",
    "4878": "р$",
    "4879": "р%",
    "4880": "р^",
    "4881": "р:",
    "4882": "р&",
    "4883": "р*",
    "4884": "р(",
    "4885": "р)",
    "4886": "р_",
    "4887": "р+",
    "4888": "р=",
    "4889": "р-",
    "4890": "р?",
    "4891": "р/",
    "4892": "р>",
    "4893": "р.",
    "4894": "р<",
    "4895": "р,",
    "4896": "р`",
    "4897": "р|",
    "4898": "р\\",
    "4899": "р'",
    "4900": "р\"",
    "4901": "р[",
    "4902": "р]",
    "4903": "р{",
    "4904": "р}",
    "4905": "р ",
    "4906": "сa",
    "4907": "сb",
    "4908": "сc",
    "4909": "сd",
    "4910": "сe",
    "4911": "сf",
    "4912": "сg",
    "4913": "сh",
    "4914": "сi",
    "4915": "сj",
    "4916": "сk",
    "4917": "сl",
    "4918": "сm",
    "4919": "сn",
    "4920": "сo",
    "4921": "сp",
    "4922": "сq",
    "4923": "сr",
    "4924": "сs",
    "4925": "сt",
    "4926": "сu",
    "4927": "сv",
    "4928": "сw",
    "4929": "сx",
    "4930": "сy",
    "4931": "сz",
    "4932": "са",
    "4933": "сб",
    "4934": "св",
    "4935": "сг",
    "4936": "сд",
    "4937": "се",
    "4938": "сё",
    "4939": "сж",
    "4940": "сз",
    "4941": "си",
    "4942": "сй",
    "4943": "ск",
    "4944": "сл",
    "4945": "см",
    "4946": "сн",
    "4947": "со",
    "4948": "сп",
    "4949": "ср",
    "4950": "сс",
    "4951": "ст",
    "4952": "су",
    "4953": "сф",
    "4954": "сх",
    "4955": "сц",
    "4956": "сч",
    "4957": "сш",
    "4958": "сщ",
    "4959": "съ",
    "4960": "сы",
    "4961": "сь",
    "4962": "сэ",
    "4963": "сю",
    "4964": "ся",
    "4965": "сә",
    "4966": "сі",
    "4967": "сң",
    "4968": "сғ",
    "4969": "сү",
    "4970": "сұ",
    "4971": "сқ",
    "4972": "сө",
    "4973": "сһ",
    "4974": "с1",
    "4975": "с2",
    "4976": "с3",
    "4977": "с4",
    "4978": "с5",
    "4979": "с6",
    "4980": "с7",
    "4981": "с8",
    "4982": "с9",
    "4983": "с0",
    "4984": "с!",
    "4985": "с@",
    "4986": "с#",
    "4987": "с$",
    "4988": "с%",
    "4989": "с^",
    "4990": "с:",
    "4991": "с&",
    "4992": "с*",
    "4993": "с(",
    "4994": "с)",
    "4995": "с_",
    "4996": "с+",
    "4997": "с=",
    "4998": "с-",
    "4999": "с?",
    "5000": "с/",
    "5001": "с>",
    "5002": "с.",
    "5003": "с<",
    "5004": "с,",
    "5005": "с`",
    "5006": "с|",
    "5007": "с\\",
    "5008": "с'",
    "5009": "с\"",
    "5010": "с[",
    "5011": "с]",
    "5012": "с{",
    "5013": "с}",
    "5014": "с ",
    "5015": "тa",
    "5016": "тb",
    "5017": "тc",
    "5018": "тd",
    "5019": "тe",
    "5020": "тf",
    "5021": "тg",
    "5022": "тh",
    "5023": "тi",
    "5024": "тj",
    "5025": "тk",
    "5026": "тl",
    "5027": "тm",
    "5028": "тn",
    "5029": "тo",
    "5030": "тp",
    "5031": "тq",
    "5032": "тr",
    "5033": "тs",
    "5034": "тt",
    "5035": "тu",
    "5036": "тv",
    "5037": "тw",
    "5038": "тx",
    "5039": "тy",
    "5040": "тz",
    "5041": "та",
    "5042": "тб",
    "5043": "тв",
    "5044": "тг",
    "5045": "тд",
    "5046": "те",
    "5047": "тё",
    "5048": "тж",
    "5049": "тз",
    "5050": "ти",
    "5051": "тй",
    "5052": "тк",
    "5053": "тл",
    "5054": "тм",
    "5055": "тн",
    "5056": "то",
    "5057": "тп",
    "5058": "тр",
    "5059": "тс",
    "5060": "тт",
    "5061": "ту",
    "5062": "тф",
    "5063": "тх",
    "5064": "тц",
    "5065": "тч",
    "5066": "тш",
    "5067": "тщ",
    "5068": "тъ",
    "5069": "ты",
    "5070": "ть",
    "5071": "тэ",
    "5072": "тю",
    "5073": "тя",
    "5074": "тә",
    "5075": "ті",
    "5076": "тң",
    "5077": "тғ",
    "5078": "тү",
    "5079": "тұ",
    "5080": "тқ",
    "5081": "тө",
    "5082": "тһ",
    "5083": "т1",
    "5084": "т2",
    "5085": "т3",
    "5086": "т4",
    "5087": "т5",
    "5088": "т6",
    "5089": "т7",
    "5090": "т8",
    "5091": "т9",
    "5092": "т0",
    "5093": "т!",
    "5094": "т@",
    "5095": "т#",
    "5096": "т$",
    "5097": "т%",
    "5098": "т^",
    "5099": "т:",
    "5100": "т&",
    "5101": "т*",
    "5102": "т(",
    "5103": "т)",
    "5104": "т_",
    "5105": "т+",
    "5106": "т=",
    "5107": "т-",
    "5108": "т?",
    "5109": "т/",
    "5110": "т>",
    "5111": "т.",
    "5112": "т<",
    "5113": "т,",
    "5114": "т`",
    "5115": "т|",
    "5116": "т\\",
    "5117": "т'",
    "5118": "т\"",
    "5119": "т[",
    "5120": "т]",
    "5121": "т{",
    "5122": "т}",
    "5123": "т ",
    "5124": "уa",
    "5125": "уb",
    "5126": "уc",
    "5127": "уd",
    "5128": "уe",
    "5129": "уf",
    "5130": "уg",
    "5131": "уh",
    "5132": "уi",
    "5133": "уj",
    "5134": "уk",
    "5135": "уl",
    "5136": "уm",
    "5137": "уn",
    "5138": "уo",
    "5139": "уp",
    "5140": "уq",
    "5141": "уr",
    "5142": "уs",
    "5143": "уt",
    "5144": "уu",
    "5145": "уv",
    "5146": "уw",
    "5147": "уx",
    "5148": "уy",
    "5149": "уz",
    "5150": "уа",
    "5151": "уб",
    "5152": "ув",
    "5153": "уг",
    "5154": "уд",
    "5155": "уе",
    "5156": "уё",
    "5157": "уж",
    "5158": "уз",
    "5159": "уи",
    "5160": "уй",
    "5161": "ук",
    "5162": "ул",
    "5163": "ум",
    "5164": "ун",
    "5165": "уо",
    "5166": "уп",
    "5167": "ур",
    "5168": "ус",
    "5169": "ут",
    "5170": "уу",
    "5171": "уф",
    "5172": "ух",
    "5173": "уц",
    "5174": "уч",
    "5175": "уш",
    "5176": "ущ",
    "5177": "уъ",
    "5178": "уы",
    "5179": "уь",
    "5180": "уэ",
    "5181": "ую",
    "5182": "уя",
    "5183": "уә",
    "5184": "уі",
    "5185": "уң",
    "5186": "уғ",
    "5187": "уү",
    "5188": "уұ",
    "5189": "уқ",
    "5190": "уө",
    "5191": "уһ",
    "5192": "у1",
    "5193": "у2",
    "5194": "у3",
    "5195": "у4",
    "5196": "у5",
    "5197": "у6",
    "5198": "у7",
    "5199": "у8",
    "5200": "у9",
    "5201": "у0",
    "5202": "у!",
    "5203": "у@",
    "5204": "у#",
    "5205": "у$",
    "5206": "у%",
    "5207": "у^",
    "5208": "у:",
    "5209": "у&",
    "5210": "у*",
    "5211": "у(",
    "5212": "у)",
    "5213": "у_",
    "5214": "у+",
    "5215": "у=",
    "5216": "у-",
    "5217": "у?",
    "5218": "у/",
    "5219": "у>",
    "5220": "у.",
    "5221": "у<",
    "5222": "у,",
    "5223": "у`",
    "5224": "у|",
    "5225": "у\\",
    "5226": "у'",
    "5227": "у\"",
    "5228": "у[",
    "5229": "у]",
    "5230": "у{",
    "5231": "у}",
    "5232": "у ",
    "5233": "фa",
    "5234": "фb",
    "5235": "фc",
    "5236": "фd",
    "5237": "фe",
    "5238": "фf",
    "5239": "фg",
    "5240": "фh",
    "5241": "фi",
    "5242": "фj",
    "5243": "фk",
    "5244": "фl",
    "5245": "фm",
    "5246": "фn",
    "5247": "фo",
    "5248": "фp",
    "5249": "фq",
    "5250": "фr",
    "5251": "фs",
    "5252": "фt",
    "5253": "фu",
    "5254": "фv",
    "5255": "фw",
    "5256": "фx",
    "5257": "фy",
    "5258": "фz",
    "5259": "фа",
    "5260": "фб",
    "5261": "фв",
    "5262": "фг",
    "5263": "фд",
    "5264": "фе",
    "5265": "фё",
    "5266": "фж",
    "5267": "фз",
    "5268": "фи",
    "5269": "фй",
    "5270": "фк",
    "5271": "фл",
    "5272": "фм",
    "5273": "фн",
    "5274": "фо",
    "5275": "фп",
    "5276": "фр",
    "5277": "фс",
    "5278": "фт",
    "5279": "фу",
    "5280": "фф",
    "5281": "фх",
    "5282": "фц",
    "5283": "фч",
    "5284": "фш",
    "5285": "фщ",
    "5286": "фъ",
    "5287": "фы",
    "5288": "фь",
    "5289": "фэ",
    "5290": "фю",
    "5291": "фя",
    "5292": "фә",
    "5293": "фі",
    "5294": "фң",
    "5295": "фғ",
    "5296": "фү",
    "5297": "фұ",
    "5298": "фқ",
    "5299": "фө",
    "5300": "фһ",
    "5301": "ф1",
    "5302": "ф2",
    "5303": "ф3",
    "5304": "ф4",
    "5305": "ф5",
    "5306": "ф6",
    "5307": "ф7",
    "5308": "ф8",
    "5309": "ф9",
    "5310": "ф0",
    "5311": "ф!",
    "5312": "ф@",
    "5313": "ф#",
    "5314": "ф$",
    "5315": "ф%",
    "5316": "ф^",
    "5317": "ф:",
    "5318": "ф&",
    "5319": "ф*",
    "5320": "ф(",
    "5321": "ф)",
    "5322": "ф_",
    "5323": "ф+",
    "5324": "ф=",
    "5325": "ф-",
    "5326": "ф?",
    "5327": "ф/",
    "5328": "ф>",
    "5329": "ф.",
    "5330": "ф<",
    "5331": "ф,",
    "5332": "ф`",
    "5333": "ф|",
    "5334": "ф\\",
    "5335": "ф'",
    "5336": "ф\"",
    "5337": "ф[",
    "5338": "ф]",
    "5339": "ф{",
    "5340": "ф}",
    "5341": "ф ",
    "5342": "хa",
    "5343": "хb",
    "5344": "хc",
    "5345": "хd",
    "5346": "хe",
    "5347": "хf",
    "5348": "хg",
    "5349": "хh",
    "5350": "хi",
    "5351": "хj",
    "5352": "хk",
    "5353": "хl",
    "5354": "хm",
    "5355": "хn",
    "5356": "хo",
    "5357": "хp",
    "5358": "хq",
    "5359": "хr",
    "5360": "хs",
    "5361": "хt",
    "5362": "хu",
    "5363": "хv",
    "5364": "хw",
    "5365": "хx",
    "5366": "хy",
    "5367": "хz",
    "5368": "ха",
    "5369": "хб",
    "5370": "хв",
    "5371": "хг",
    "5372": "хд",
    "5373": "хе",
    "5374": "хё",
    "5375": "хж",
    "5376": "хз",
    "5377": "хи",
    "5378": "хй",
    "5379": "хк",
    "5380": "хл",
    "5381": "хм",
    "5382": "хн",
    "5383": "хо",
    "5384": "хп",
    "5385": "хр",
    "5386": "хс",
    "5387": "хт",
    "5388": "ху",
    "5389": "хф",
    "5390": "хх",
    "5391": "хц",
    "5392": "хч",
    "5393": "хш",
    "5394": "хщ",
    "5395": "хъ",
    "5396": "хы",
    "5397": "хь",
    "5398": "хэ",
    "5399": "хю",
    "5400": "хя",
    "5401": "хә",
    "5402": "хі",
    "5403": "хң",
    "5404": "хғ",
    "5405": "хү",
    "5406": "хұ",
    "5407": "хқ",
    "5408": "хө",
    "5409": "хһ",
    "5410": "х1",
    "5411": "х2",
    "5412": "х3",
    "5413": "х4",
    "5414": "х5",
    "5415": "х6",
    "5416": "х7",
    "5417": "х8",
    "5418": "х9",
    "5419": "х0",
    "5420": "х!",
    "5421": "х@",
    "5422": "х#",
    "5423": "х$",
    "5424": "х%",
    "5425": "х^",
    "5426": "х:",
    "5427": "х&",
    "5428": "х*",
    "5429": "х(",
    "5430": "х)",
    "5431": "х_",
    "5432": "х+",
    "5433": "х=",
    "5434": "х-",
    "5435": "х?",
    "5436": "х/",
    "5437": "х>",
    "5438": "х.",
    "5439": "х<",
    "5440": "х,",
    "5441": "х`",
    "5442": "х|",
    "5443": "х\\",
    "5444": "х'",
    "5445": "х\"",
    "5446": "х[",
    "5447": "х]",
    "5448": "х{",
    "5449": "х}",
    "5450": "х ",
    "5451": "цa",
    "5452": "цb",
    "5453": "цc",
    "5454": "цd",
    "5455": "цe",
    "5456": "цf",
    "5457": "цg",
    "5458": "цh",
    "5459": "цi",
    "5460": "цj",
    "5461": "цk",
    "5462": "цl",
    "5463": "цm",
    "5464": "цn",
    "5465": "цo",
    "5466": "цp",
    "5467": "цq",
    "5468": "цr",
    "5469": "цs",
    "5470": "цt",
    "5471": "цu",
    "5472": "цv",
    "5473": "цw",
    "5474": "цx",
    "5475": "цy",
    "5476": "цz",
    "5477": "ца",
    "5478": "цб",
    "5479": "цв",
    "5480": "цг",
    "5481": "цд",
    "5482": "це",
    "5483": "цё",
    "5484": "цж",
    "5485": "цз",
    "5486": "ци",
    "5487": "цй",
    "5488": "цк",
    "5489": "цл",
    "5490": "цм",
    "5491": "цн",
    "5492": "цо",
    "5493": "цп",
    "5494": "цр",
    "5495": "цс",
    "5496": "цт",
    "5497": "цу",
    "5498": "цф",
    "5499": "цх",
    "5500": "цц",
    "5501": "цч",
    "5502": "цш",
    "5503": "цщ",
    "5504": "цъ",
    "5505": "цы",
    "5506": "ць",
    "5507": "цэ",
    "5508": "цю",
    "5509": "ця",
    "5510": "цә",
    "5511": "ці",
    "5512": "цң",
    "5513": "цғ",
    "5514": "цү",
    "5515": "цұ",
    "5516": "цқ",
    "5517": "цө",
    "5518": "цһ",
    "5519": "ц1",
    "5520": "ц2",
    "5521": "ц3",
    "5522": "ц4",
    "5523": "ц5",
    "5524": "ц6",
    "5525": "ц7",
    "5526": "ц8",
    "5527": "ц9",
    "5528": "ц0",
    "5529": "ц!",
    "5530": "ц@",
    "5531": "ц#",
    "5532": "ц$",
    "5533": "ц%",
    "5534": "ц^",
    "5535": "ц:",
    "5536": "ц&",
    "5537": "ц*",
    "5538": "ц(",
    "5539": "ц)",
    "5540": "ц_",
    "5541": "ц+",
    "5542": "ц=",
    "5543": "ц-",
    "5544": "ц?",
    "5545": "ц/",
    "5546": "ц>",
    "5547": "ц.",
    "5548": "ц<",
    "5549": "ц,",
    "5550": "ц`",
    "5551": "ц|",
    "5552": "ц\\",
    "5553": "ц'",
    "5554": "ц\"",
    "5555": "ц[",
    "5556": "ц]",
    "5557": "ц{",
    "5558": "ц}",
    "5559": "ц ",
    "5560": "чa",
    "5561": "чb",
    "5562": "чc",
    "5563": "чd",
    "5564": "чe",
    "5565": "чf",
    "5566": "чg",
    "5567": "чh",
    "5568": "чi",
    "5569": "чj",
    "5570": "чk",
    "5571": "чl",
    "5572": "чm",
    "5573": "чn",
    "5574": "чo",
    "5575": "чp",
    "5576": "чq",
    "5577": "чr",
    "5578": "чs",
    "5579": "чt",
    "5580": "чu",
    "5581": "чv",
    "5582": "чw",
    "5583": "чx",
    "5584": "чy",
    "5585": "чz",
    "5586": "ча",
    "5587": "чб",
    "5588": "чв",
    "5589": "чг",
    "5590": "чд",
    "5591": "че",
    "5592": "чё",
    "5593": "чж",
    "5594": "чз",
    "5595": "чи",
    "5596": "чй",
    "5597": "чк",
    "5598": "чл",
    "5599": "чм",
    "5600": "чн",
    "5601": "чо",
    "5602": "чп",
    "5603": "чр",
    "5604": "чс",
    "5605": "чт",
    "5606": "чу",
    "5607": "чф",
    "5608": "чх",
    "5609": "чц",
    "5610": "чч",
    "5611": "чш",
    "5612": "чщ",
    "5613": "чъ",
    "5614": "чы",
    "5615": "чь",
    "5616": "чэ",
    "5617": "чю",
    "5618": "чя",
    "5619": "чә",
    "5620": "чі",
    "5621": "чң",
    "5622": "чғ",
    "5623": "чү",
    "5624": "чұ",
    "5625": "чқ",
    "5626": "чө",
    "5627": "чһ",
    "5628": "ч1",
    "5629": "ч2",
    "5630": "ч3",
    "5631": "ч4",
    "5632": "ч5",
    "5633": "ч6",
    "5634": "ч7",
    "5635": "ч8",
    "5636": "ч9",
    "5637": "ч0",
    "5638": "ч!",
    "5639": "ч@",
    "5640": "ч#",
    "5641": "ч$",
    "5642": "ч%",
    "5643": "ч^",
    "5644": "ч:",
    "5645": "ч&",
    "5646": "ч*",
    "5647": "ч(",
    "5648": "ч)",
    "5649": "ч_",
    "5650": "ч+",
    "5651": "ч=",
    "5652": "ч-",
    "5653": "ч?",
    "5654": "ч/",
    "5655": "ч>",
    "5656": "ч.",
    "5657": "ч<",
    "5658": "ч,",
    "5659": "ч`",
    "5660": "ч|",
    "5661": "ч\\",
    "5662": "ч'",
    "5663": "ч\"",
    "5664": "ч[",
    "5665": "ч]",
    "5666": "ч{",
    "5667": "ч}",
    "5668": "ч ",
    "5669": "шa",
    "5670": "шb",
    "5671": "шc",
    "5672": "шd",
    "5673": "шe",
    "5674": "шf",
    "5675": "шg",
    "5676": "шh",
    "5677": "шi",
    "5678": "шj",
    "5679": "шk",
    "5680": "шl",
    "5681": "шm",
    "5682": "шn",
    "5683": "шo",
    "5684": "шp",
    "5685": "шq",
    "5686": "шr",
    "5687": "шs",
    "5688": "шt",
    "5689": "шu",
    "5690": "шv",
    "5691": "шw",
    "5692": "шx",
    "5693": "шy",
    "5694": "шz",
    "5695": "ша",
    "5696": "шб",
    "5697": "шв",
    "5698": "шг",
    "5699": "шд",
    "5700": "ше",
    "5701": "шё",
    "5702": "шж",
    "5703": "шз",
    "5704": "ши",
    "5705": "шй",
    "5706": "шк",
    "5707": "шл",
    "5708": "шм",
    "5709": "шн",
    "5710": "шо",
    "5711": "шп",
    "5712": "шр",
    "5713": "шс",
    "5714": "шт",
    "5715": "шу",
    "5716": "шф",
    "5717": "шх",
    "5718": "шц",
    "5719": "шч",
    "5720": "шш",
    "5721": "шщ",
    "5722": "шъ",
    "5723": "шы",
    "5724": "шь",
    "5725": "шэ",
    "5726": "шю",
    "5727": "шя",
    "5728": "шә",
    "5729": "ші",
    "5730": "шң",
    "5731": "шғ",
    "5732": "шү",
    "5733": "шұ",
    "5734": "шқ",
    "5735": "шө",
    "5736": "шһ",
    "5737": "ш1",
    "5738": "ш2",
    "5739": "ш3",
    "5740": "ш4",
    "5741": "ш5",
    "5742": "ш6",
    "5743": "ш7",
    "5744": "ш8",
    "5745": "ш9",
    "5746": "ш0",
    "5747": "ш!",
    "5748": "ш@",
    "5749": "ш#",
    "5750": "ш$",
    "5751": "ш%",
    "5752": "ш^",
    "5753": "ш:",
    "5754": "ш&",
    "5755": "ш*",
    "5756": "ш(",
    "5757": "ш)",
    "5758": "ш_",
    "5759": "ш+",
    "5760": "ш=",
    "5761": "ш-",
    "5762": "ш?",
    "5763": "ш/",
    "5764": "ш>",
    "5765": "ш.",
    "5766": "ш<",
    "5767": "ш,",
    "5768": "ш`",
    "5769": "ш|",
    "5770": "ш\\",
    "5771": "ш'",
    "5772": "ш\"",
    "5773": "ш[",
    "5774": "ш]",
    "5775": "ш{",
    "5776": "ш}",
    "5777": "ш ",
    "5778": "щa",
    "5779": "щb",
    "5780": "щc",
    "5781": "щd",
    "5782": "щe",
    "5783": "щf",
    "5784": "щg",
    "5785": "щh",
    "5786": "щi",
    "5787": "щj",
    "5788": "щk",
    "5789": "щl",
    "5790": "щm",
    "5791": "щn",
    "5792": "щo",
    "5793": "щp",
    "5794": "щq",
    "5795": "щr",
    "5796": "щs",
    "5797": "щt",
    "5798": "щu",
    "5799": "щv",
    "5800": "щw",
    "5801": "щx",
    "5802": "щy",
    "5803": "щz",
    "5804": "ща",
    "5805": "щб",
    "5806": "щв",
    "5807": "щг",
    "5808": "щд",
    "5809": "ще",
    "5810": "щё",
    "5811": "щж",
    "5812": "щз",
    "5813": "щи",
    "5814": "щй",
    "5815": "щк",
    "5816": "щл",
    "5817": "щм",
    "5818": "щн",
    "5819": "що",
    "5820": "щп",
    "5821": "щр",
    "5822": "щс",
    "5823": "щт",
    "5824": "щу",
    "5825": "щф",
    "5826": "щх",
    "5827": "щц",
    "5828": "щч",
    "5829": "щш",
    "5830": "щщ",
    "5831": "щъ",
    "5832": "щы",
    "5833": "щь",
    "5834": "щэ",
    "5835": "щю",
    "5836": "щя",
    "5837": "щә",
    "5838": "щі",
    "5839": "щң",
    "5840": "щғ",
    "5841": "щү",
    "5842": "щұ",
    "5843": "щқ",
    "5844": "щө",
    "5845": "щһ",
    "5846": "щ1",
    "5847": "щ2",
    "5848": "щ3",
    "5849": "щ4",
    "5850": "щ5",
    "5851": "щ6",
    "5852": "щ7",
    "5853": "щ8",
    "5854": "щ9",
    "5855": "щ0",
    "5856": "щ!",
    "5857": "щ@",
    "5858": "щ#",
    "5859": "щ$",
    "5860": "щ%",
    "5861": "щ^",
    "5862": "щ:",
    "5863": "щ&",
    "5864": "щ*",
    "5865": "щ(",
    "5866": "щ)",
    "5867": "щ_",
    "5868": "щ+",
    "5869": "щ=",
    "5870": "щ-",
    "5871": "щ?",
    "5872": "щ/",
    "5873": "щ>",
    "5874": "щ.",
    "5875": "щ<",
    "5876": "щ,",
    "5877": "щ`",
    "5878": "щ|",
    "5879": "щ\\",
    "5880": "щ'",
    "5881": "щ\"",
    "5882": "щ[",
    "5883": "щ]",
    "5884": "щ{",
    "5885": "щ}",
    "5886": "щ ",
    "5887": "ъa",
    "5888": "ъb",
    "5889": "ъc",
    "5890": "ъd",
    "5891": "ъe",
    "5892": "ъf",
    "5893": "ъg",
    "5894": "ъh",
    "5895": "ъi",
    "5896": "ъj",
    "5897": "ъk",
    "5898": "ъl",
    "5899": "ъm",
    "5900": "ъn",
    "5901": "ъo",
    "5902": "ъp",
    "5903": "ъq",
    "5904": "ъr",
    "5905": "ъs",
    "5906": "ъt",
    "5907": "ъu",
    "5908": "ъv",
    "5909": "ъw",
    "5910": "ъx",
    "5911": "ъy",
    "5912": "ъz",
    "5913": "ъа",
    "5914": "ъб",
    "5915": "ъв",
    "5916": "ъг",
    "5917": "ъд",
    "5918": "ъе",
    "5919": "ъё",
    "5920": "ъж",
    "5921": "ъз",
    "5922": "ъи",
    "5923": "ъй",
    "5924": "ък",
    "5925": "ъл",
    "5926": "ъм",
    "5927": "ън",
    "5928": "ъо",
    "5929": "ъп",
    "5930": "ър",
    "5931": "ъс",
    "5932": "ът",
    "5933": "ъу",
    "5934": "ъф",
    "5935": "ъх",
    "5936": "ъц",
    "5937": "ъч",
    "5938": "ъш",
    "5939": "ъщ",
    "5940": "ъъ",
    "5941": "ъы",
    "5942": "ъь",
    "5943": "ъэ",
    "5944": "ъю",
    "5945": "ъя",
    "5946": "ъә",
    "5947": "ъі",
    "5948": "ъң",
    "5949": "ъғ",
    "5950": "ъү",
    "5951": "ъұ",
    "5952": "ъқ",
    "5953": "ъө",
    "5954": "ъһ",
    "5955": "ъ1",
    "5956": "ъ2",
    "5957": "ъ3",
    "5958": "ъ4",
    "5959": "ъ5",
    "5960": "ъ6",
    "5961": "ъ7",
    "5962": "ъ8",
    "5963": "ъ9",
    "5964": "ъ0",
    "5965": "ъ!",
    "5966": "ъ@",
    "5967": "ъ#",
    "5968": "ъ$",
    "5969": "ъ%",
    "5970": "ъ^",
    "5971": "ъ:",
    "5972": "ъ&",
    "5973": "ъ*",
    "5974": "ъ(",
    "5975": "ъ)",
    "5976": "ъ_",
    "5977": "ъ+",
    "5978": "ъ=",
    "5979": "ъ-",
    "5980": "ъ?",
    "5981": "ъ/",
    "5982": "ъ>",
    "5983": "ъ.",
    "5984": "ъ<",
    "5985": "ъ,",
    "5986": "ъ`",
    "5987": "ъ|",
    "5988": "ъ\\",
    "5989": "ъ'",
    "5990": "ъ\"",
    "5991": "ъ[",
    "5992": "ъ]",
    "5993": "ъ{",
    "5994": "ъ}",
    "5995": "ъ ",
    "5996": "ыa",
    "5997": "ыb",
    "5998": "ыc",
    "5999": "ыd",
    "6000": "ыe",
    "6001": "ыf",
    "6002": "ыg",
    "6003": "ыh",
    "6004": "ыi",
    "6005": "ыj",
    "6006": "ыk",
    "6007": "ыl",
    "6008": "ыm",
    "6009": "ыn",
    "6010": "ыo",
    "6011": "ыp",
    "6012": "ыq",
    "6013": "ыr",
    "6014": "ыs",
    "6015": "ыt",
    "6016": "ыu",
    "6017": "ыv",
    "6018": "ыw",
    "6019": "ыx",
    "6020": "ыy",
    "6021": "ыz",
    "6022": "ыа",
    "6023": "ыб",
    "6024": "ыв",
    "6025": "ыг",
    "6026": "ыд",
    "6027": "ые",
    "6028": "ыё",
    "6029": "ыж",
    "6030": "ыз",
    "6031": "ыи",
    "6032": "ый",
    "6033": "ык",
    "6034": "ыл",
    "6035": "ым",
    "6036": "ын",
    "6037": "ыо",
    "6038": "ып",
    "6039": "ыр",
    "6040": "ыс",
    "6041": "ыт",
    "6042": "ыу",
    "6043": "ыф",
    "6044": "ых",
    "6045": "ыц",
    "6046": "ыч",
    "6047": "ыш",
    "6048": "ыщ",
    "6049": "ыъ",
    "6050": "ыы",
    "6051": "ыь",
    "6052": "ыэ",
    "6053": "ыю",
    "6054": "ыя",
    "6055": "ыә",
    "6056": "ыі",
    "6057": "ың",
    "6058": "ығ",
    "6059": "ыү",
    "6060": "ыұ",
    "6061": "ық",
    "6062": "ыө",
    "6063": "ыһ",
    "6064": "ы1",
    "6065": "ы2",
    "6066": "ы3",
    "6067": "ы4",
    "6068": "ы5",
    "6069": "ы6",
    "6070": "ы7",
    "6071": "ы8",
    "6072": "ы9",
    "6073": "ы0",
    "6074": "ы!",
    "6075": "ы@",
    "6076": "ы#",
    "6077": "ы$",
    "6078": "ы%",
    "6079": "ы^",
    "6080": "ы:",
    "6081": "ы&",
    "6082": "ы*",
    "6083": "ы(",
    "6084": "ы)",
    "6085": "ы_",
    "6086": "ы+",
    "6087": "ы=",
    "6088": "ы-",
    "6089": "ы?",
    "6090": "ы/",
    "6091": "ы>",
    "6092": "ы.",
    "6093": "ы<",
    "6094": "ы,",
    "6095": "ы`",
    "6096": "ы|",
    "6097": "ы\\",
    "6098": "ы'",
    "6099": "ы\"",
    "6100": "ы[",
    "6101": "ы]",
    "6102": "ы{",
    "6103": "ы}",
    "6104": "ы ",
    "6105": "ьa",
    "6106": "ьb",
    "6107": "ьc",
    "6108": "ьd",
    "6109": "ьe",
    "6110": "ьf",
    "6111": "ьg",
    "6112": "ьh",
    "6113": "ьi",
    "6114": "ьj",
    "6115": "ьk",
    "6116": "ьl",
    "6117": "ьm",
    "6118": "ьn",
    "6119": "ьo",
    "6120": "ьp",
    "6121": "ьq",
    "6122": "ьr",
    "6123": "ьs",
    "6124": "ьt",
    "6125": "ьu",
    "6126": "ьv",
    "6127": "ьw",
    "6128": "ьx",
    "6129": "ьy",
    "6130": "ьz",
    "6131": "ьа",
    "6132": "ьб",
    "6133": "ьв",
    "6134": "ьг",
    "6135": "ьд",
    "6136": "ье",
    "6137": "ьё",
    "6138": "ьж",
    "6139": "ьз",
    "6140": "ьи",
    "6141": "ьй",
    "6142": "ьк",
    "6143": "ьл",
    "6144": "ьм",
    "6145": "ьн",
    "6146": "ьо",
    "6147": "ьп",
    "6148": "ьр",
    "6149": "ьс",
    "6150": "ьт",
    "6151": "ьу",
    "6152": "ьф",
    "6153": "ьх",
    "6154": "ьц",
    "6155": "ьч",
    "6156": "ьш",
    "6157": "ьщ",
    "6158": "ьъ",
    "6159": "ьы",
    "6160": "ьь",
    "6161": "ьэ",
    "6162": "ью",
    "6163": "ья",
    "6164": "ьә",
    "6165": "ьі",
    "6166": "ьң",
    "6167": "ьғ",
    "6168": "ьү",
    "6169": "ьұ",
    "6170": "ьқ",
    "6171": "ьө",
    "6172": "ьһ",
    "6173": "ь1",
    "6174": "ь2",
    "6175": "ь3",
    "6176": "ь4",
    "6177": "ь5",
    "6178": "ь6",
    "6179": "ь7",
    "6180": "ь8",
    "6181": "ь9",
    "6182": "ь0",
    "6183": "ь!",
    "6184": "ь@",
    "6185": "ь#",
    "6186": "ь$",
    "6187": "ь%",
    "6188": "ь^",
    "6189": "ь:",
    "6190": "ь&",
    "6191": "ь*",
    "6192": "ь(",
    "6193": "ь)",
    "6194": "ь_",
    "6195": "ь+",
    "6196": "ь=",
    "6197": "ь-",
    "6198": "ь?",
    "6199": "ь/",
    "6200": "ь>",
    "6201": "ь.",
    "6202": "ь<",
    "6203": "ь,",
    "6204": "ь`",
    "6205": "ь|",
    "6206": "ь\\",
    "6207": "ь'",
    "6208": "ь\"",
    "6209": "ь[",
    "6210": "ь]",
    "6211": "ь{",
    "6212": "ь}",
    "6213": "ь ",
    "6214": "эa",
    "6215": "эb",
    "6216": "эc",
    "6217": "эd",
    "6218": "эe",
    "6219": "эf",
    "6220": "эg",
    "6221": "эh",
    "6222": "эi",
    "6223": "эj",
    "6224": "эk",
    "6225": "эl",
    "6226": "эm",
    "6227": "эn",
    "6228": "эo",
    "6229": "эp",
    "6230": "эq",
    "6231": "эr",
    "6232": "эs",
    "6233": "эt",
    "6234": "эu",
    "6235": "эv",
    "6236": "эw",
    "6237": "эx",
    "6238": "эy",
    "6239": "эz",
    "6240": "эа",
    "6241": "эб",
    "6242": "эв",
    "6243": "эг",
    "6244": "эд",
    "6245": "эе",
    "6246": "эё",
    "6247": "эж",
    "6248": "эз",
    "6249": "эи",
    "6250": "эй",
    "6251": "эк",
    "6252": "эл",
    "6253": "эм",
    "6254": "эн",
    "6255": "эо",
    "6256": "эп",
    "6257": "эр",
    "6258": "эс",
    "6259": "эт",
    "6260": "эу",
    "6261": "эф",
    "6262": "эх",
    "6263": "эц",
    "6264": "эч",
    "6265": "эш",
    "6266": "эщ",
    "6267": "эъ",
    "6268": "эы",
    "6269": "эь",
    "6270": "ээ",
    "6271": "эю",
    "6272": "эя",
    "6273": "эә",
    "6274": "эі",
    "6275": "эң",
    "6276": "эғ",
    "6277": "эү",
    "6278": "эұ",
    "6279": "эқ",
    "6280": "эө",
    "6281": "эһ",
    "6282": "э1",
    "6283": "э2",
    "6284": "э3",
    "6285": "э4",
    "6286": "э5",
    "6287": "э6",
    "6288": "э7",
    "6289": "э8",
    "6290": "э9",
    "6291": "э0",
    "6292": "э!",
    "6293": "э@",
    "6294": "э#",
    "6295": "э$",
    "6296": "э%",
    "6297": "э^",
    "6298": "э:",
    "6299": "э&",
    "6300": "э*",
    "6301": "э(",
    "6302": "э)",
    "6303": "э_",
    "6304": "э+",
    "6305": "э=",
    "6306": "э-",
    "6307": "э?",
    "6308": "э/",
    "6309": "э>",
    "6310": "э.",
    "6311": "э<",
    "6312": "э,",
    "6313": "э`",
    "6314": "э|",
    "6315": "э\\",
    "6316": "э'",
    "6317": "э\"",
    "6318": "э[",
    "6319": "э]",
    "6320": "э{",
    "6321": "э}",
    "6322": "э ",
    "6323": "юa",
    "6324": "юb",
    "6325": "юc",
    "6326": "юd",
    "6327": "юe",
    "6328": "юf",
    "6329": "юg",
    "6330": "юh",
    "6331": "юi",
    "6332": "юj",
    "6333": "юk",
    "6334": "юl",
    "6335": "юm",
    "6336": "юn",
    "6337": "юo",
    "6338": "юp",
    "6339": "юq",
    "6340": "юr",
    "6341": "юs",
    "6342": "юt",
    "6343": "юu",
    "6344": "юv",
    "6345": "юw",
    "6346": "юx",
    "6347": "юy",
    "6348": "юz",
    "6349": "юа",
    "6350": "юб",
    "6351": "юв",
    "6352": "юг",
    "6353": "юд",
    "6354": "юе",
    "6355": "юё",
    "6356": "юж",
    "6357": "юз",
    "6358": "юи",
    "6359": "юй",
    "6360": "юк",
    "6361": "юл",
    "6362": "юм",
    "6363": "юн",
    "6364": "юо",
    "6365": "юп",
    "6366": "юр",
    "6367": "юс",
    "6368": "ют",
    "6369": "юу",
    "6370": "юф",
    "6371": "юх",
    "6372": "юц",
    "6373": "юч",
    "6374": "юш",
    "6375": "ющ",
    "6376": "юъ",
    "6377": "юы",
    "6378": "юь",
    "6379": "юэ",
    "6380": "юю",
    "6381": "юя",
    "6382": "юә",
    "6383": "юі",
    "6384": "юң",
    "6385": "юғ",
    "6386": "юү",
    "6387": "юұ",
    "6388": "юқ",
    "6389": "юө",
    "6390": "юһ",
    "6391": "ю1",
    "6392": "ю2",
    "6393": "ю3",
    "6394": "ю4",
    "6395": "ю5",
    "6396": "ю6",
    "6397": "ю7",
    "6398": "ю8",
    "6399": "ю9",
    "6400": "ю0",
    "6401": "ю!",
    "6402": "ю@",
    "6403": "ю#",
    "6404": "ю$",
    "6405": "ю%",
    "6406": "ю^",
    "6407": "ю:",
    "6408": "ю&",
    "6409": "ю*",
    "6410": "ю(",
    "6411": "ю)",
    "6412": "ю_",
    "6413": "ю+",
    "6414": "ю=",
    "6415": "ю-",
    "6416": "ю?",
    "6417": "ю/",
    "6418": "ю>",
    "6419": "ю.",
    "6420": "ю<",
    "6421": "ю,",
    "6422": "ю`",
    "6423": "ю|",
    "6424": "ю\\",
    "6425": "ю'",
    "6426": "ю\"",
    "6427": "ю[",
    "6428": "ю]",
    "6429": "ю{",
    "6430": "ю}",
    "6431": "ю ",
    "6432": "яa",
    "6433": "яb",
    "6434": "яc",
    "6435": "яd",
    "6436": "яe",
    "6437": "яf",
    "6438": "яg",
    "6439": "яh",
    "6440": "яi",
    "6441": "яj",
    "6442": "яk",
    "6443": "яl",
    "6444": "яm",
    "6445": "яn",
    "6446": "яo",
    "6447": "яp",
    "6448": "яq",
    "6449": "яr",
    "6450": "яs",
    "6451": "яt",
    "6452": "яu",
    "6453": "яv",
    "6454": "яw",
    "6455": "яx",
    "6456": "яy",
    "6457": "яz",
    "6458": "яа",
    "6459": "яб",
    "6460": "яв",
    "6461": "яг",
    "6462": "яд",
    "6463": "яе",
    "6464": "яё",
    "6465": "яж",
    "6466": "яз",
    "6467": "яи",
    "6468": "яй",
    "6469": "як",
    "6470": "ял",
    "6471": "ям",
    "6472": "ян",
    "6473": "яо",
    "6474": "яп",
    "6475": "яр",
    "6476": "яс",
    "6477": "ят",
    "6478": "яу",
    "6479": "яф",
    "6480": "ях",
    "6481": "яц",
    "6482": "яч",
    "6483": "яш",
    "6484": "ящ",
    "6485": "яъ",
    "6486": "яы",
    "6487": "яь",
    "6488": "яэ",
    "6489": "яю",
    "6490": "яя",
    "6491": "яә",
    "6492": "яі",
    "6493": "яң",
    "6494": "яғ",
    "6495": "яү",
    "6496": "яұ",
    "6497": "яқ",
    "6498": "яө",
    "6499": "яһ",
    "6500": "я1",
    "6501": "я2",
    "6502": "я3",
    "6503": "я4",
    "6504": "я5",
    "6505": "я6",
    "6506": "я7",
    "6507": "я8",
    "6508": "я9",
    "6509": "я0",
    "6510": "я!",
    "6511": "я@",
    "6512": "я#",
    "6513": "я$",
    "6514": "я%",
    "6515": "я^",
    "6516": "я:",
    "6517": "я&",
    "6518": "я*",
    "6519": "я(",
    "6520": "я)",
    "6521": "я_",
    "6522": "я+",
    "6523": "я=",
    "6524": "я-",
    "6525": "я?",
    "6526": "я/",
    "6527": "я>",
    "6528": "я.",
    "6529": "я<",
    "6530": "я,",
    "6531": "я`",
    "6532": "я|",
    "6533": "я\\",
    "6534": "я'",
    "6535": "я\"",
    "6536": "я[",
    "6537": "я]",
    "6538": "я{",
    "6539": "я}",
    "6540": "я ",
    "6541": "әa",
    "6542": "әb",
    "6543": "әc",
    "6544": "әd",
    "6545": "әe",
    "6546": "әf",
    "6547": "әg",
    "6548": "әh",
    "6549": "әi",
    "6550": "әj",
    "6551": "әk",
    "6552": "әl",
    "6553": "әm",
    "6554": "әn",
    "6555": "әo",
    "6556": "әp",
    "6557": "әq",
    "6558": "әr",
    "6559": "әs",
    "6560": "әt",
    "6561": "әu",
    "6562": "әv",
    "6563": "әw",
    "6564": "әx",
    "6565": "әy",
    "6566": "әz",
    "6567": "әа",
    "6568": "әб",
    "6569": "әв",
    "6570": "әг",
    "6571": "әд",
    "6572": "әе",
    "6573": "әё",
    "6574": "әж",
    "6575": "әз",
    "6576": "әи",
    "6577": "әй",
    "6578": "әк",
    "6579": "әл",
    "6580": "әм",
    "6581": "ән",
    "6582": "әо",
    "6583": "әп",
    "6584": "әр",
    "6585": "әс",
    "6586": "әт",
    "6587": "әу",
    "6588": "әф",
    "6589": "әх",
    "6590": "әц",
    "6591": "әч",
    "6592": "әш",
    "6593": "әщ",
    "6594": "әъ",
    "6595": "әы",
    "6596": "әь",
    "6597": "әэ",
    "6598": "әю",
    "6599": "әя",
    "6600": "әә",
    "6601": "әі",
    "6602": "әң",
    "6603": "әғ",
    "6604": "әү",
    "6605": "әұ",
    "6606": "әқ",
    "6607": "әө",
    "6608": "әһ",
    "6609": "ә1",
    "6610": "ә2",
    "6611": "ә3",
    "6612": "ә4",
    "6613": "ә5",
    "6614": "ә6",
    "6615": "ә7",
    "6616": "ә8",
    "6617": "ә9",
    "6618": "ә0",
    "6619": "ә!",
    "6620": "ә@",
    "6621": "ә#",
    "6622": "ә$",
    "6623": "ә%",
    "6624": "ә^",
    "6625": "ә:",
    "6626": "ә&",
    "6627": "ә*",
    "6628": "ә(",
    "6629": "ә)",
    "6630": "ә_",
    "6631": "ә+",
    "6632": "ә=",
    "6633": "ә-",
    "6634": "ә?",
    "6635": "ә/",
    "6636": "ә>",
    "6637": "ә.",
    "6638": "ә<",
    "6639": "ә,",
    "6640": "ә`",
    "6641": "ә|",
    "6642": "ә\\",
    "6643": "ә'",
    "6644": "ә\"",
    "6645": "ә[",
    "6646": "ә]",
    "6647": "ә{",
    "6648": "ә}",
    "6649": "ә ",
    "6650": "іa",
    "6651": "іb",
    "6652": "іc",
    "6653": "іd",
    "6654": "іe",
    "6655": "іf",
    "6656": "іg",
    "6657": "іh",
    "6658": "іi",
    "6659": "іj",
    "6660": "іk",
    "6661": "іl",
    "6662": "іm",
    "6663": "іn",
    "6664": "іo",
    "6665": "іp",
    "6666": "іq",
    "6667": "іr",
    "6668": "іs",
    "6669": "іt",
    "6670": "іu",
    "6671": "іv",
    "6672": "іw",
    "6673": "іx",
    "6674": "іy",
    "6675": "іz",
    "6676": "іа",
    "6677": "іб",
    "6678": "ів",
    "6679": "іг",
    "6680": "ід",
    "6681": "іе",
    "6682": "іё",
    "6683": "іж",
    "6684": "із",
    "6685": "іи",
    "6686": "ій",
    "6687": "ік",
    "6688": "іл",
    "6689": "ім",
    "6690": "ін",
    "6691": "іо",
    "6692": "іп",
    "6693": "ір",
    "6694": "іс",
    "6695": "іт",
    "6696": "іу",
    "6697": "іф",
    "6698": "іх",
    "6699": "іц",
    "6700": "іч",
    "6701": "іш",
    "6702": "іщ",
    "6703": "іъ",
    "6704": "іы",
    "6705": "іь",
    "6706": "іэ",
    "6707": "ію",
    "6708": "ія",
    "6709": "іә",
    "6710": "іі",
    "6711": "ің",
    "6712": "іғ",
    "6713": "іү",
    "6714": "іұ",
    "6715": "іқ",
    "6716": "іө",
    "6717": "іһ",
    "6718": "і1",
    "6719": "і2",
    "6720": "і3",
    "6721": "і4",
    "6722": "і5",
    "6723": "і6",
    "6724": "і7",
    "6725": "і8",
    "6726": "і9",
    "6727": "і0",
    "6728": "і!",
    "6729": "і@",
    "6730": "і#",
    "6731": "і$",
    "6732": "і%",
    "6733": "і^",
    "6734": "і:",
    "6735": "і&",
    "6736": "і*",
    "6737": "і(",
    "6738": "і)",
    "6739": "і_",
    "6740": "і+",
    "6741": "і=",
    "6742": "і-",
    "6743": "і?",
    "6744": "і/",
    "6745": "і>",
    "6746": "і.",
    "6747": "і<",
    "6748": "і,",
    "6749": "і`",
    "6750": "і|",
    "6751": "і\\",
    "6752": "і'",
    "6753": "і\"",
    "6754": "і[",
    "6755": "і]",
    "6756": "і{",
    "6757": "і}",
    "6758": "і ",
    "6759": "ңa",
    "6760": "ңb",
    "6761": "ңc",
    "6762": "ңd",
    "6763": "ңe",
    "6764": "ңf",
    "6765": "ңg",
    "6766": "ңh",
    "6767": "ңi",
    "6768": "ңj",
    "6769": "ңk",
    "6770": "ңl",
    "6771": "ңm",
    "6772": "ңn",
    "6773": "ңo",
    "6774": "ңp",
    "6775": "ңq",
    "6776": "ңr",
    "6777": "ңs",
    "6778": "ңt",
    "6779": "ңu",
    "6780": "ңv",
    "6781": "ңw",
    "6782": "ңx",
    "6783": "ңy",
    "6784": "ңz",
    "6785": "ңа",
    "6786": "ңб",
    "6787": "ңв",
    "6788": "ңг",
    "6789": "ңд",
    "6790": "ңе",
    "6791": "ңё",
    "6792": "ңж",
    "6793": "ңз",
    "6794": "ңи",
    "6795": "ңй",
    "6796": "ңк",
    "6797": "ңл",
    "6798": "ңм",
    "6799": "ңн",
    "6800": "ңо",
    "6801": "ңп",
    "6802": "ңр",
    "6803": "ңс",
    "6804": "ңт",
    "6805": "ңу",
    "6806": "ңф",
    "6807": "ңх",
    "6808": "ңц",
    "6809": "ңч",
    "6810": "ңш",
    "6811": "ңщ",
    "6812": "ңъ",
    "6813": "ңы",
    "6814": "ңь",
    "6815": "ңэ",
    "6816": "ңю",
    "6817": "ңя",
    "6818": "ңә",
    "6819": "ңі",
    "6820": "ңң",
    "6821": "ңғ",
    "6822": "ңү",
    "6823": "ңұ",
    "6824": "ңқ",
    "6825": "ңө",
    "6826": "ңһ",
    "6827": "ң1",
    "6828": "ң2",
    "6829": "ң3",
    "6830": "ң4",
    "6831": "ң5",
    "6832": "ң6",
    "6833": "ң7",
    "6834": "ң8",
    "6835": "ң9",
    "6836": "ң0",
    "6837": "ң!",
    "6838": "ң@",
    "6839": "ң#",
    "6840": "ң$",
    "6841": "ң%",
    "6842": "ң^",
    "6843": "ң:",
    "6844": "ң&",
    "6845": "ң*",
    "6846": "ң(",
    "6847": "ң)",
    "6848": "ң_",
    "6849": "ң+",
    "6850": "ң=",
    "6851": "ң-",
    "6852": "ң?",
    "6853": "ң/",
    "6854": "ң>",
    "6855": "ң.",
    "6856": "ң<",
    "6857": "ң,",
    "6858": "ң`",
    "6859": "ң|",
    "6860": "ң\\",
    "6861": "ң'",
    "6862": "ң\"",
    "6863": "ң[",
    "6864": "ң]",
    "6865": "ң{",
    "6866": "ң}",
    "6867": "ң ",
    "6868": "ғa",
    "6869": "ғb",
    "6870": "ғc",
    "6871": "ғd",
    "6872": "ғe",
    "6873": "ғf",
    "6874": "ғg",
    "6875": "ғh",
    "6876": "ғi",
    "6877": "ғj",
    "6878": "ғk",
    "6879": "ғl",
    "6880": "ғm",
    "6881": "ғn",
    "6882": "ғo",
    "6883": "ғp",
    "6884": "ғq",
    "6885": "ғr",
    "6886": "ғs",
    "6887": "ғt",
    "6888": "ғu",
    "6889": "ғv",
    "6890": "ғw",
    "6891": "ғx",
    "6892": "ғy",
    "6893": "ғz",
    "6894": "ға",
    "6895": "ғб",
    "6896": "ғв",
    "6897": "ғг",
    "6898": "ғд",
    "6899": "ғе",
    "6900": "ғё",
    "6901": "ғж",
    "6902": "ғз",
    "6903": "ғи",
    "6904": "ғй",
    "6905": "ғк",
    "6906": "ғл",
    "6907": "ғм",
    "6908": "ғн",
    "6909": "ғо",
    "6910": "ғп",
    "6911": "ғр",
    "6912": "ғс",
    "6913": "ғт",
    "6914": "ғу",
    "6915": "ғф",
    "6916": "ғх",
    "6917": "ғц",
    "6918": "ғч",
    "6919": "ғш",
    "6920": "ғщ",
    "6921": "ғъ",
    "6922": "ғы",
    "6923": "ғь",
    "6924": "ғэ",
    "6925": "ғю",
    "6926": "ғя",
    "6927": "ғә",
    "6928": "ғі",
    "6929": "ғң",
    "6930": "ғғ",
    "6931": "ғү",
    "6932": "ғұ",
    "6933": "ғқ",
    "6934": "ғө",
    "6935": "ғһ",
    "6936": "ғ1",
    "6937": "ғ2",
    "6938": "ғ3",
    "6939": "ғ4",
    "6940": "ғ5",
    "6941": "ғ6",
    "6942": "ғ7",
    "6943": "ғ8",
    "6944": "ғ9",
    "6945": "ғ0",
    "6946": "ғ!",
    "6947": "ғ@",
    "6948": "ғ#",
    "6949": "ғ$",
    "6950": "ғ%",
    "6951": "ғ^",
    "6952": "ғ:",
    "6953": "ғ&",
    "6954": "ғ*",
    "6955": "ғ(",
    "6956": "ғ)",
    "6957": "ғ_",
    "6958": "ғ+",
    "6959": "ғ=",
    "6960": "ғ-",
    "6961": "ғ?",
    "6962": "ғ/",
    "6963": "ғ>",
    "6964": "ғ.",
    "6965": "ғ<",
    "6966": "ғ,",
    "6967": "ғ`",
    "6968": "ғ|",
    "6969": "ғ\\",
    "6970": "ғ'",
    "6971": "ғ\"",
    "6972": "ғ[",
    "6973": "ғ]",
    "6974": "ғ{",
    "6975": "ғ}",
    "6976": "ғ ",
    "6977": "үa",
    "6978": "үb",
    "6979": "үc",
    "6980": "үd",
    "6981": "үe",
    "6982": "үf",
    "6983": "үg",
    "6984": "үh",
    "6985": "үi",
    "6986": "үj",
    "6987": "үk",
    "6988": "үl",
    "6989": "үm",
    "6990": "үn",
    "6991": "үo",
    "6992": "үp",
    "6993": "үq",
    "6994": "үr",
    "6995": "үs",
    "6996": "үt",
    "6997": "үu",
    "6998": "үv",
    "6999": "үw",
    "7000": "үx",
    "7001": "үy",
    "7002": "үz",
    "7003": "үа",
    "7004": "үб",
    "7005": "үв",
    "7006": "үг",
    "7007": "үд",
    "7008": "үе",
    "7009": "үё",
    "7010": "үж",
    "7011": "үз",
    "7012": "үи",
    "7013": "үй",
    "7014": "үк",
    "7015": "үл",
    "7016": "үм",
    "7017": "үн",
    "7018": "үо",
    "7019": "үп",
    "7020": "үр",
    "7021": "үс",
    "7022": "үт",
    "7023": "үу",
    "7024": "үф",
    "7025": "үх",
    "7026": "үц",
    "7027": "үч",
    "7028": "үш",
    "7029": "үщ",
    "7030": "үъ",
    "7031": "үы",
    "7032": "үь",
    "7033": "үэ",
    "7034": "үю",
    "7035": "үя",
    "7036": "үә",
    "7037": "үі",
    "7038": "үң",
    "7039": "үғ",
    "7040": "үү",
    "7041": "үұ",
    "7042": "үқ",
    "7043": "үө",
    "7044": "үһ",
    "7045": "ү1",
    "7046": "ү2",
    "7047": "ү3",
    "7048": "ү4",
    "7049": "ү5",
    "7050": "ү6",
    "7051": "ү7",
    "7052": "ү8",
    "7053": "ү9",
    "7054": "ү0",
    "7055": "ү!",
    "7056": "ү@",
    "7057": "ү#",
    "7058": "ү$",
    "7059": "ү%",
    "7060": "ү^",
    "7061": "ү:",
    "7062": "ү&",
    "7063": "ү*",
    "7064": "ү(",
    "7065": "ү)",
    "7066": "ү_",
    "7067": "ү+",
    "7068": "ү=",
    "7069": "ү-",
    "7070": "ү?",
    "7071": "ү/",
    "7072": "ү>",
    "7073": "ү.",
    "7074": "ү<",
    "7075": "ү,",
    "7076": "ү`",
    "7077": "ү|",
    "7078": "ү\\",
    "7079": "ү'",
    "7080": "ү\"",
    "7081": "ү[",
    "7082": "ү]",
    "7083": "ү{",
    "7084": "ү}",
    "7085": "ү ",
    "7086": "ұa",
    "7087": "ұb",
    "7088": "ұc",
    "7089": "ұd",
    "7090": "ұe",
    "7091": "ұf",
    "7092": "ұg",
    "7093": "ұh",
    "7094": "ұi",
    "7095": "ұj",
    "7096": "ұk",
    "7097": "ұl",
    "7098": "ұm",
    "7099": "ұn",
    "7100": "ұo",
    "7101": "ұp",
    "7102": "ұq",
    "7103": "ұr",
    "7104": "ұs",
    "7105": "ұt",
    "7106": "ұu",
    "7107": "ұv",
    "7108": "ұw",
    "7109": "ұx",
    "7110": "ұy",
    "7111": "ұz",
    "7112": "ұа",
    "7113": "ұб",
    "7114": "ұв",
    "7115": "ұг",
    "7116": "ұд",
    "7117": "ұе",
    "7118": "ұё",
    "7119": "ұж",
    "7120": "ұз",
    "7121": "ұи",
    "7122": "ұй",
    "7123": "ұк",
    "7124": "ұл",
    "7125": "ұм",
    "7126": "ұн",
    "7127": "ұо",
    "7128": "ұп",
    "7129": "ұр",
    "7130": "ұс",
    "7131": "ұт",
    "7132": "ұу",
    "7133": "ұф",
    "7134": "ұх",
    "7135": "ұц",
    "7136": "ұч",
    "7137": "ұш",
    "7138": "ұщ",
    "7139": "ұъ",
    "7140": "ұы",
    "7141": "ұь",
    "7142": "ұэ",
    "7143": "ұю",
    "7144": "ұя",
    "7145": "ұә",
    "7146": "ұі",
    "7147": "ұң",
    "7148": "ұғ",
    "7149": "ұү",
    "7150": "ұұ",
    "7151": "ұқ",
    "7152": "ұө",
    "7153": "ұһ",
    "7154": "ұ1",
    "7155": "ұ2",
    "7156": "ұ3",
    "7157": "ұ4",
    "7158": "ұ5",
    "7159": "ұ6",
    "7160": "ұ7",
    "7161": "ұ8",
    "7162": "ұ9",
    "7163": "ұ0",
    "7164": "ұ!",
    "7165": "ұ@",
    "7166": "ұ#",
    "7167": "ұ$",
    "7168": "ұ%",
    "7169": "ұ^",
    "7170": "ұ:",
    "7171": "ұ&",
    "7172": "ұ*",
    "7173": "ұ(",
    "7174": "ұ)",
    "7175": "ұ_",
    "7176": "ұ+",
    "7177": "ұ=",
    "7178": "ұ-",
    "7179": "ұ?",
    "7180": "ұ/",
    "7181": "ұ>",
    "7182": "ұ.",
    "7183": "ұ<",
    "7184": "ұ,",
    "7185": "ұ`",
    "7186": "ұ|",
    "7187": "ұ\\",
    "7188": "ұ'",
    "7189": "ұ\"",
    "7190": "ұ[",
    "7191": "ұ]",
    "7192": "ұ{",
    "7193": "ұ}",
    "7194": "ұ ",
    "7195": "қa",
    "7196": "қb",
    "7197": "қc",
    "7198": "қd",
    "7199": "қe",
    "7200": "қf",
    "7201": "қg",
    "7202": "қh",
    "7203": "қi",
    "7204": "қj",
    "7205": "қk",
    "7206": "қl",
    "7207": "қm",
    "7208": "қn",
    "7209": "қo",
    "7210": "қp",
    "7211": "қq",
    "7212": "қr",
    "7213": "қs",
    "7214": "қt",
    "7215": "қu",
    "7216": "қv",
    "7217": "қw",
    "7218": "қx",
    "7219": "қy",
    "7220": "қz",
    "7221": "қа",
    "7222": "қб",
    "7223": "қв",
    "7224": "қг",
    "7225": "қд",
    "7226": "қе",
    "7227": "қё",
    "7228": "қж",
    "7229": "қз",
    "7230": "қи",
    "7231": "қй",
    "7232": "қк",
    "7233": "қл",
    "7234": "қм",
    "7235": "қн",
    "7236": "қо",
    "7237": "қп",
    "7238": "қр",
    "7239": "қс",
    "7240": "қт",
    "7241": "қу",
    "7242": "қф",
    "7243": "қх",
    "7244": "қц",
    "7245": "қч",
    "7246": "қш",
    "7247": "қщ",
    "7248": "қъ",
    "7249": "қы",
    "7250": "қь",
    "7251": "қэ",
    "7252": "қю",
    "7253": "қя",
    "7254": "қә",
    "7255": "қі",
    "7256": "қң",
    "7257": "қғ",
    "7258": "қү",
    "7259": "құ",
    "7260": "ққ",
    "7261": "қө",
    "7262": "қһ",
    "7263": "қ1",
    "7264": "қ2",
    "7265": "қ3",
    "7266": "қ4",
    "7267": "қ5",
    "7268": "қ6",
    "7269": "қ7",
    "7270": "қ8",
    "7271": "қ9",
    "7272": "қ0",
    "7273": "қ!",
    "7274": "қ@",
    "7275": "қ#",
    "7276": "қ$",
    "7277": "қ%",
    "7278": "қ^",
    "7279": "қ:",
    "7280": "қ&",
    "7281": "қ*",
    "7282": "қ(",
    "7283": "қ)",
    "7284": "қ_",
    "7285": "қ+",
    "7286": "қ=",
    "7287": "қ-",
    "7288": "қ?",
    "7289": "қ/",
    "7290": "қ>",
    "7291": "қ.",
    "7292": "қ<",
    "7293": "қ,",
    "7294": "қ`",
    "7295": "қ|",
    "7296": "қ\\",
    "7297": "қ'",
    "7298": "қ\"",
    "7299": "қ[",
    "7300": "қ]",
    "7301": "қ{",
    "7302": "қ}",
    "7303": "қ ",
    "7304": "өa",
    "7305": "өb",
    "7306": "өc",
    "7307": "өd",
    "7308": "өe",
    "7309": "өf",
    "7310": "өg",
    "7311": "өh",
    "7312": "өi",
    "7313": "өj",
    "7314": "өk",
    "7315": "өl",
    "7316": "өm",
    "7317": "өn",
    "7318": "өo",
    "7319": "өp",
    "7320": "өq",
    "7321": "өr",
    "7322": "өs",
    "7323": "өt",
    "7324": "өu",
    "7325": "өv",
    "7326": "өw",
    "7327": "өx",
    "7328": "өy",
    "7329": "өz",
    "7330": "өа",
    "7331": "өб",
    "7332": "өв",
    "7333": "өг",
    "7334": "өд",
    "7335": "өе",
    "7336": "өё",
    "7337": "өж",
    "7338": "өз",
    "7339": "өи",
    "7340": "өй",
    "7341": "өк",
    "7342": "өл",
    "7343": "өм",
    "7344": "өн",
    "7345": "өо",
    "7346": "өп",
    "7347": "өр",
    "7348": "өс",
    "7349": "өт",
    "7350": "өу",
    "7351": "өф",
    "7352": "өх",
    "7353": "өц",
    "7354": "өч",
    "7355": "өш",
    "7356": "өщ",
    "7357": "өъ",
    "7358": "өы",
    "7359": "өь",
    "7360": "өэ",
    "7361": "өю",
    "7362": "өя",
    "7363": "өә",
    "7364": "өі",
    "7365": "өң",
    "7366": "өғ",
    "7367": "өү",
    "7368": "өұ",
    "7369": "өқ",
    "7370": "өө",
    "7371": "өһ",
    "7372": "ө1",
    "7373": "ө2",
    "7374": "ө3",
    "7375": "ө4",
    "7376": "ө5",
    "7377": "ө6",
    "7378": "ө7",
    "7379": "ө8",
    "7380": "ө9",
    "7381": "ө0",
    "7382": "ө!",
    "7383": "ө@",
    "7384": "ө#",
    "7385": "ө$",
    "7386": "ө%",
    "7387": "ө^",
    "7388": "ө:",
    "7389": "ө&",
    "7390": "ө*",
    "7391": "ө(",
    "7392": "ө)",
    "7393": "ө_",
    "7394": "ө+",
    "7395": "ө=",
    "7396": "ө-",
    "7397": "ө?",
    "7398": "ө/",
    "7399": "ө>",
    "7400": "ө.",
    "7401": "ө<",
    "7402": "ө,",
    "7403": "ө`",
    "7404": "ө|",
    "7405": "ө\\",
    "7406": "ө'",
    "7407": "ө\"",
    "7408": "ө[",
    "7409": "ө]",
    "7410": "ө{",
    "7411": "ө}",
    "7412": "ө ",
    "7413": "һa",
    "7414": "һb",
    "7415": "һc",
    "7416": "һd",
    "7417": "һe",
    "7418": "һf",
    "7419": "һg",
    "7420": "һh",
    "7421": "һi",
    "7422": "һj",
    "7423": "һk",
    "7424": "һl",
    "7425": "һm",
    "7426": "һn",
    "7427": "һo",
    "7428": "һp",
    "7429": "һq",
    "7430": "һr",
    "7431": "һs",
    "7432": "һt",
    "7433": "һu",
    "7434": "һv",
    "7435": "һw",
    "7436": "һx",
    "7437": "һy",
    "7438": "һz",
    "7439": "һа",
    "7440": "һб",
    "7441": "һв",
    "7442": "һг",
    "7443": "һд",
    "7444": "һе",
    "7445": "һё",
    "7446": "һж",
    "7447": "һз",
    "7448": "һи",
    "7449": "һй",
    "7450": "һк",
    "7451": "һл",
    "7452": "һм",
    "7453": "һн",
    "7454": "һо",
    "7455": "һп",
    "7456": "һр",
    "7457": "һс",
    "7458": "һт",
    "7459": "һу",
    "7460": "һф",
    "7461": "һх",
    "7462": "һц",
    "7463": "һч",
    "7464": "һш",
    "7465": "һщ",
    "7466": "һъ",
    "7467": "һы",
    "7468": "һь",
    "7469": "һэ",
    "7470": "һю",
    "7471": "һя",
    "7472": "һә",
    "7473": "һі",
    "7474": "һң",
    "7475": "һғ",
    "7476": "һү",
    "7477": "һұ",
    "7478": "һқ",
    "7479": "һө",
    "7480": "һһ",
    "7481": "һ1",
    "7482": "һ2",
    "7483": "һ3",
    "7484": "һ4",
    "7485": "һ5",
    "7486": "һ6",
    "7487": "һ7",
    "7488": "һ8",
    "7489": "һ9",
    "7490": "һ0",
    "7491": "һ!",
    "7492": "һ@",
    "7493": "һ#",
    "7494": "һ$",
    "7495": "һ%",
    "7496": "һ^",
    "7497": "һ:",
    "7498": "һ&",
    "7499": "һ*",
    "7500": "һ(",
    "7501": "һ)",
    "7502": "һ_",
    "7503": "һ+",
    "7504": "һ=",
    "7505": "һ-",
    "7506": "һ?",
    "7507": "һ/",
    "7508": "һ>",
    "7509": "һ.",
    "7510": "һ<",
    "7511": "һ,",
    "7512": "һ`",
    "7513": "һ|",
    "7514": "һ\\",
    "7515": "һ'",
    "7516": "һ\"",
    "7517": "һ[",
    "7518": "һ]",
    "7519": "һ{",
    "7520": "һ}",
    "7521": "һ ",
    "7522": "1a",
    "7523": "1b",
    "7524": "1c",
    "7525": "1d",
    "7526": "1e",
    "7527": "1f",
    "7528": "1g",
    "7529": "1h",
    "7530": "1i",
    "7531": "1j",
    "7532": "1k",
    "7533": "1l",
    "7534": "1m",
    "7535": "1n",
    "7536": "1o",
    "7537": "1p",
    "7538": "1q",
    "7539": "1r",
    "7540": "1s",
    "7541": "1t",
    "7542": "1u",
    "7543": "1v",
    "7544": "1w",
    "7545": "1x",
    "7546": "1y",
    "7547": "1z",
    "7548": "1а",
    "7549": "1б",
    "7550": "1в",
    "7551": "1г",
    "7552": "1д",
    "7553": "1е",
    "7554": "1ё",
    "7555": "1ж",
    "7556": "1з",
    "7557": "1и",
    "7558": "1й",
    "7559": "1к",
    "7560": "1л",
    "7561": "1м",
    "7562": "1н",
    "7563": "1о",
    "7564": "1п",
    "7565": "1р",
    "7566": "1с",
    "7567": "1т",
    "7568": "1у",
    "7569": "1ф",
    "7570": "1х",
    "7571": "1ц",
    "7572": "1ч",
    "7573": "1ш",
    "7574": "1щ",
    "7575": "1ъ",
    "7576": "1ы",
    "7577": "1ь",
    "7578": "1э",
    "7579": "1ю",
    "7580": "1я",
    "7581": "1ә",
    "7582": "1і",
    "7583": "1ң",
    "7584": "1ғ",
    "7585": "1ү",
    "7586": "1ұ",
    "7587": "1қ",
    "7588": "1ө",
    "7589": "1һ",
    "7590": "11",
    "7591": "12",
    "7592": "13",
    "7593": "14",
    "7594": "15",
    "7595": "16",
    "7596": "17",
    "7597": "18",
    "7598": "19",
    "7599": "10",
    "7600": "1!",
    "7601": "1@",
    "7602": "1#",
    "7603": "1$",
    "7604": "1%",
    "7605": "1^",
    "7606": "1:",
    "7607": "1&",
    "7608": "1*",
    "7609": "1(",
    "7610": "1)",
    "7611": "1_",
    "7612": "1+",
    "7613": "1=",
    "7614": "1-",
    "7615": "1?",
    "7616": "1/",
    "7617": "1>",
    "7618": "1.",
    "7619": "1<",
    "7620": "1,",
    "7621": "1`",
    "7622": "1|",
    "7623": "1\\",
    "7624": "1'",
    "7625": "1\"",
    "7626": "1[",
    "7627": "1]",
    "7628": "1{",
    "7629": "1}",
    "7630": "1 ",
    "7631": "2a",
    "7632": "2b",
    "7633": "2c",
    "7634": "2d",
    "7635": "2e",
    "7636": "2f",
    "7637": "2g",
    "7638": "2h",
    "7639": "2i",
    "7640": "2j",
    "7641": "2k",
    "7642": "2l",
    "7643": "2m",
    "7644": "2n",
    "7645": "2o",
    "7646": "2p",
    "7647": "2q",
    "7648": "2r",
    "7649": "2s",
    "7650": "2t",
    "7651": "2u",
    "7652": "2v",
    "7653": "2w",
    "7654": "2x",
    "7655": "2y",
    "7656": "2z",
    "7657": "2а",
    "7658": "2б",
    "7659": "2в",
    "7660": "2г",
    "7661": "2д",
    "7662": "2е",
    "7663": "2ё",
    "7664": "2ж",
    "7665": "2з",
    "7666": "2и",
    "7667": "2й",
    "7668": "2к",
    "7669": "2л",
    "7670": "2м",
    "7671": "2н",
    "7672": "2о",
    "7673": "2п",
    "7674": "2р",
    "7675": "2с",
    "7676": "2т",
    "7677": "2у",
    "7678": "2ф",
    "7679": "2х",
    "7680": "2ц",
    "7681": "2ч",
    "7682": "2ш",
    "7683": "2щ",
    "7684": "2ъ",
    "7685": "2ы",
    "7686": "2ь",
    "7687": "2э",
    "7688": "2ю",
    "7689": "2я",
    "7690": "2ә",
    "7691": "2і",
    "7692": "2ң",
    "7693": "2ғ",
    "7694": "2ү",
    "7695": "2ұ",
    "7696": "2қ",
    "7697": "2ө",
    "7698": "2һ",
    "7699": "21",
    "7700": "22",
    "7701": "23",
    "7702": "24",
    "7703": "25",
    "7704": "26",
    "7705": "27",
    "7706": "28",
    "7707": "29",
    "7708": "20",
    "7709": "2!",
    "7710": "2@",
    "7711": "2#",
    "7712": "2$",
    "7713": "2%",
    "7714": "2^",
    "7715": "2:",
    "7716": "2&",
    "7717": "2*",
    "7718": "2(",
    "7719": "2)",
    "7720": "2_",
    "7721": "2+",
    "7722": "2=",
    "7723": "2-",
    "7724": "2?",
    "7725": "2/",
    "7726": "2>",
    "7727": "2.",
    "7728": "2<",
    "7729": "2,",
    "7730": "2`",
    "7731": "2|",
    "7732": "2\\",
    "7733": "2'",
    "7734": "2\"",
    "7735": "2[",
    "7736": "2]",
    "7737": "2{",
    "7738": "2}",
    "7739": "2 ",
    "7740": "3a",
    "7741": "3b",
    "7742": "3c",
    "7743": "3d",
    "7744": "3e",
    "7745": "3f",
    "7746": "3g",
    "7747": "3h",
    "7748": "3i",
    "7749": "3j",
    "7750": "3k",
    "7751": "3l",
    "7752": "3m",
    "7753": "3n",
    "7754": "3o",
    "7755": "3p",
    "7756": "3q",
    "7757": "3r",
    "7758": "3s",
    "7759": "3t",
    "7760": "3u",
    "7761": "3v",
    "7762": "3w",
    "7763": "3x",
    "7764": "3y",
    "7765": "3z",
    "7766": "3а",
    "7767": "3б",
    "7768": "3в",
    "7769": "3г",
    "7770": "3д",
    "7771": "3е",
    "7772": "3ё",
    "7773": "3ж",
    "7774": "3з",
    "7775": "3и",
    "7776": "3й",
    "7777": "3к",
    "7778": "3л",
    "7779": "3м",
    "7780": "3н",
    "7781": "3о",
    "7782": "3п",
    "7783": "3р",
    "7784": "3с",
    "7785": "3т",
    "7786": "3у",
    "7787": "3ф",
    "7788": "3х",
    "7789": "3ц",
    "7790": "3ч",
    "7791": "3ш",
    "7792": "3щ",
    "7793": "3ъ",
    "7794": "3ы",
    "7795": "3ь",
    "7796": "3э",
    "7797": "3ю",
    "7798": "3я",
    "7799": "3ә",
    "7800": "3і",
    "7801": "3ң",
    "7802": "3ғ",
    "7803": "3ү",
    "7804": "3ұ",
    "7805": "3қ",
    "7806": "3ө",
    "7807": "3һ",
    "7808": "31",
    "7809": "32",
    "7810": "33",
    "7811": "34",
    "7812": "35",
    "7813": "36",
    "7814": "37",
    "7815": "38",
    "7816": "39",
    "7817": "30",
    "7818": "3!",
    "7819": "3@",
    "7820": "3#",
    "7821": "3$",
    "7822": "3%",
    "7823": "3^",
    "7824": "3:",
    "7825": "3&",
    "7826": "3*",
    "7827": "3(",
    "7828": "3)",
    "7829": "3_",
    "7830": "3+",
    "7831": "3=",
    "7832": "3-",
    "7833": "3?",
    "7834": "3/",
    "7835": "3>",
    "7836": "3.",
    "7837": "3<",
    "7838": "3,",
    "7839": "3`",
    "7840": "3|",
    "7841": "3\\",
    "7842": "3'",
    "7843": "3\"",
    "7844": "3[",
    "7845": "3]",
    "7846": "3{",
    "7847": "3}",
    "7848": "3 ",
    "7849": "4a",
    "7850": "4b",
    "7851": "4c",
    "7852": "4d",
    "7853": "4e",
    "7854": "4f",
    "7855": "4g",
    "7856": "4h",
    "7857": "4i",
    "7858": "4j",
    "7859": "4k",
    "7860": "4l",
    "7861": "4m",
    "7862": "4n",
    "7863": "4o",
    "7864": "4p",
    "7865": "4q",
    "7866": "4r",
    "7867": "4s",
    "7868": "4t",
    "7869": "4u",
    "7870": "4v",
    "7871": "4w",
    "7872": "4x",
    "7873": "4y",
    "7874": "4z",
    "7875": "4а",
    "7876": "4б",
    "7877": "4в",
    "7878": "4г",
    "7879": "4д",
    "7880": "4е",
    "7881": "4ё",
    "7882": "4ж",
    "7883": "4з",
    "7884": "4и",
    "7885": "4й",
    "7886": "4к",
    "7887": "4л",
    "7888": "4м",
    "7889": "4н",
    "7890": "4о",
    "7891": "4п",
    "7892": "4р",
    "7893": "4с",
    "7894": "4т",
    "7895": "4у",
    "7896": "4ф",
    "7897": "4х",
    "7898": "4ц",
    "7899": "4ч",
    "7900": "4ш",
    "7901": "4щ",
    "7902": "4ъ",
    "7903": "4ы",
    "7904": "4ь",
    "7905": "4э",
    "7906": "4ю",
    "7907": "4я",
    "7908": "4ә",
    "7909": "4і",
    "7910": "4ң",
    "7911": "4ғ",
    "7912": "4ү",
    "7913": "4ұ",
    "7914": "4қ",
    "7915": "4ө",
    "7916": "4һ",
    "7917": "41",
    "7918": "42",
    "7919": "43",
    "7920": "44",
    "7921": "45",
    "7922": "46",
    "7923": "47",
    "7924": "48",
    "7925": "49",
    "7926": "40",
    "7927": "4!",
    "7928": "4@",
    "7929": "4#",
    "7930": "4$",
    "7931": "4%",
    "7932": "4^",
    "7933": "4:",
    "7934": "4&",
    "7935": "4*",
    "7936": "4(",
    "7937": "4)",
    "7938": "4_",
    "7939": "4+",
    "7940": "4=",
    "7941": "4-",
    "7942": "4?",
    "7943": "4/",
    "7944": "4>",
    "7945": "4.",
    "7946": "4<",
    "7947": "4,",
    "7948": "4`",
    "7949": "4|",
    "7950": "4\\",
    "7951": "4'",
    "7952": "4\"",
    "7953": "4[",
    "7954": "4]",
    "7955": "4{",
    "7956": "4}",
    "7957": "4 ",
    "7958": "5a",
    "7959": "5b",
    "7960": "5c",
    "7961": "5d",
    "7962": "5e",
    "7963": "5f",
    "7964": "5g",
    "7965": "5h",
    "7966": "5i",
    "7967": "5j",
    "7968": "5k",
    "7969": "5l",
    "7970": "5m",
    "7971": "5n",
    "7972": "5o",
    "7973": "5p",
    "7974": "5q",
    "7975": "5r",
    "7976": "5s",
    "7977": "5t",
    "7978": "5u",
    "7979": "5v",
    "7980": "5w",
    "7981": "5x",
    "7982": "5y",
    "7983": "5z",
    "7984": "5а",
    "7985": "5б",
    "7986": "5в",
    "7987": "5г",
    "7988": "5д",
    "7989": "5е",
    "7990": "5ё",
    "7991": "5ж",
    "7992": "5з",
    "7993": "5и",
    "7994": "5й",
    "7995": "5к",
    "7996": "5л",
    "7997": "5м",
    "7998": "5н",
    "7999": "5о",
    "8000": "5п",
    "8001": "5р",
    "8002": "5с",
    "8003": "5т",
    "8004": "5у",
    "8005": "5ф",
    "8006": "5х",
    "8007": "5ц",
    "8008": "5ч",
    "8009": "5ш",
    "8010": "5щ",
    "8011": "5ъ",
    "8012": "5ы",
    "8013": "5ь",
    "8014": "5э",
    "8015": "5ю",
    "8016": "5я",
    "8017": "5ә",
    "8018": "5і",
    "8019": "5ң",
    "8020": "5ғ",
    "8021": "5ү",
    "8022": "5ұ",
    "8023": "5қ",
    "8024": "5ө",
    "8025": "5һ",
    "8026": "51",
    "8027": "52",
    "8028": "53",
    "8029": "54",
    "8030": "55",
    "8031": "56",
    "8032": "57",
    "8033": "58",
    "8034": "59",
    "8035": "50",
    "8036": "5!",
    "8037": "5@",
    "8038": "5#",
    "8039": "5$",
    "8040": "5%",
    "8041": "5^",
    "8042": "5:",
    "8043": "5&",
    "8044": "5*",
    "8045": "5(",
    "8046": "5)",
    "8047": "5_",
    "8048": "5+",
    "8049": "5=",
    "8050": "5-",
    "8051": "5?",
    "8052": "5/",
    "8053": "5>",
    "8054": "5.",
    "8055": "5<",
    "8056": "5,",
    "8057": "5`",
    "8058": "5|",
    "8059": "5\\",
    "8060": "5'",
    "8061": "5\"",
    "8062": "5[",
    "8063": "5]",
    "8064": "5{",
    "8065": "5}",
    "8066": "5 ",
    "8067": "6a",
    "8068": "6b",
    "8069": "6c",
    "8070": "6d",
    "8071": "6e",
    "8072": "6f",
    "8073": "6g",
    "8074": "6h",
    "8075": "6i",
    "8076": "6j",
    "8077": "6k",
    "8078": "6l",
    "8079": "6m",
    "8080": "6n",
    "8081": "6o",
    "8082": "6p",
    "8083": "6q",
    "8084": "6r",
    "8085": "6s",
    "8086": "6t",
    "8087": "6u",
    "8088": "6v",
    "8089": "6w",
    "8090": "6x",
    "8091": "6y",
    "8092": "6z",
    "8093": "6а",
    "8094": "6б",
    "8095": "6в",
    "8096": "6г",
    "8097": "6д",
    "8098": "6е",
    "8099": "6ё",
    "8100": "6ж",
    "8101": "6з",
    "8102": "6и",
    "8103": "6й",
    "8104": "6к",
    "8105": "6л",
    "8106": "6м",
    "8107": "6н",
    "8108": "6о",
    "8109": "6п",
    "8110": "6р",
    "8111": "6с",
    "8112": "6т",
    "8113": "6у",
    "8114": "6ф",
    "8115": "6х",
    "8116": "6ц",
    "8117": "6ч",
    "8118": "6ш",
    "8119": "6щ",
    "8120": "6ъ",
    "8121": "6ы",
    "8122": "6ь",
    "8123": "6э",
    "8124": "6ю",
    "8125": "6я",
    "8126": "6ә",
    "8127": "6і",
    "8128": "6ң",
    "8129": "6ғ",
    "8130": "6ү",
    "8131": "6ұ",
    "8132": "6қ",
    "8133": "6ө",
    "8134": "6һ",
    "8135": "61",
    "8136": "62",
    "8137": "63",
    "8138": "64",
    "8139": "65",
    "8140": "66",
    "8141": "67",
    "8142": "68",
    "8143": "69",
    "8144": "60",
    "8145": "6!",
    "8146": "6@",
    "8147": "6#",
    "8148": "6$",
    "8149": "6%",
    "8150": "6^",
    "8151": "6:",
    "8152": "6&",
    "8153": "6*",
    "8154": "6(",
    "8155": "6)",
    "8156": "6_",
    "8157": "6+",
    "8158": "6=",
    "8159": "6-",
    "8160": "6?",
    "8161": "6/",
    "8162": "6>",
    "8163": "6.",
    "8164": "6<",
    "8165": "6,",
    "8166": "6`",
    "8167": "6|",
    "8168": "6\\",
    "8169": "6'",
    "8170": "6\"",
    "8171": "6[",
    "8172": "6]",
    "8173": "6{",
    "8174": "6}",
    "8175": "6 ",
    "8176": "7a",
    "8177": "7b",
    "8178": "7c",
    "8179": "7d",
    "8180": "7e",
    "8181": "7f",
    "8182": "7g",
    "8183": "7h",
    "8184": "7i",
    "8185": "7j",
    "8186": "7k",
    "8187": "7l",
    "8188": "7m",
    "8189": "7n",
    "8190": "7o",
    "8191": "7p",
    "8192": "7q",
    "8193": "7r",
    "8194": "7s",
    "8195": "7t",
    "8196": "7u",
    "8197": "7v",
    "8198": "7w",
    "8199": "7x",
    "8200": "7y",
    "8201": "7z",
    "8202": "7а",
    "8203": "7б",
    "8204": "7в",
    "8205": "7г",
    "8206": "7д",
    "8207": "7е",
    "8208": "7ё",
    "8209": "7ж",
    "8210": "7з",
    "8211": "7и",
    "8212": "7й",
    "8213": "7к",
    "8214": "7л",
    "8215": "7м",
    "8216": "7н",
    "8217": "7о",
    "8218": "7п",
    "8219": "7р",
    "8220": "7с",
    "8221": "7т",
    "8222": "7у",
    "8223": "7ф",
    "8224": "7х",
    "8225": "7ц",
    "8226": "7ч",
    "8227": "7ш",
    "8228": "7щ",
    "8229": "7ъ",
    "8230": "7ы",
    "8231": "7ь",
    "8232": "7э",
    "8233": "7ю",
    "8234": "7я",
    "8235": "7ә",
    "8236": "7і",
    "8237": "7ң",
    "8238": "7ғ",
    "8239": "7ү",
    "8240": "7ұ",
    "8241": "7қ",
    "8242": "7ө",
    "8243": "7һ",
    "8244": "71",
    "8245": "72",
    "8246": "73",
    "8247": "74",
    "8248": "75",
    "8249": "76",
    "8250": "77",
    "8251": "78",
    "8252": "79",
    "8253": "70",
    "8254": "7!",
    "8255": "7@",
    "8256": "7#",
    "8257": "7$",
    "8258": "7%",
    "8259": "7^",
    "8260": "7:",
    "8261": "7&",
    "8262": "7*",
    "8263": "7(",
    "8264": "7)",
    "8265": "7_",
    "8266": "7+",
    "8267": "7=",
    "8268": "7-",
    "8269": "7?",
    "8270": "7/",
    "8271": "7>",
    "8272": "7.",
    "8273": "7<",
    "8274": "7,",
    "8275": "7`",
    "8276": "7|",
    "8277": "7\\",
    "8278": "7'",
    "8279": "7\"",
    "8280": "7[",
    "8281": "7]",
    "8282": "7{",
    "8283": "7}",
    "8284": "7 ",
    "8285": "8a",
    "8286": "8b",
    "8287": "8c",
    "8288": "8d",
    "8289": "8e",
    "8290": "8f",
    "8291": "8g",
    "8292": "8h",
    "8293": "8i",
    "8294": "8j",
    "8295": "8k",
    "8296": "8l",
    "8297": "8m",
    "8298": "8n",
    "8299": "8o",
    "8300": "8p",
    "8301": "8q",
    "8302": "8r",
    "8303": "8s",
    "8304": "8t",
    "8305": "8u",
    "8306": "8v",
    "8307": "8w",
    "8308": "8x",
    "8309": "8y",
    "8310": "8z",
    "8311": "8а",
    "8312": "8б",
    "8313": "8в",
    "8314": "8г",
    "8315": "8д",
    "8316": "8е",
    "8317": "8ё",
    "8318": "8ж",
    "8319": "8з",
    "8320": "8и",
    "8321": "8й",
    "8322": "8к",
    "8323": "8л",
    "8324": "8м",
    "8325": "8н",
    "8326": "8о",
    "8327": "8п",
    "8328": "8р",
    "8329": "8с",
    "8330": "8т",
    "8331": "8у",
    "8332": "8ф",
    "8333": "8х",
    "8334": "8ц",
    "8335": "8ч",
    "8336": "8ш",
    "8337": "8щ",
    "8338": "8ъ",
    "8339": "8ы",
    "8340": "8ь",
    "8341": "8э",
    "8342": "8ю",
    "8343": "8я",
    "8344": "8ә",
    "8345": "8і",
    "8346": "8ң",
    "8347": "8ғ",
    "8348": "8ү",
    "8349": "8ұ",
    "8350": "8қ",
    "8351": "8ө",
    "8352": "8һ",
    "8353": "81",
    "8354": "82",
    "8355": "83",
    "8356": "84",
    "8357": "85",
    "8358": "86",
    "8359": "87",
    "8360": "88",
    "8361": "89",
    "8362": "80",
    "8363": "8!",
    "8364": "8@",
    "8365": "8#",
    "8366": "8$",
    "8367": "8%",
    "8368": "8^",
    "8369": "8:",
    "8370": "8&",
    "8371": "8*",
    "8372": "8(",
    "8373": "8)",
    "8374": "8_",
    "8375": "8+",
    "8376": "8=",
    "8377": "8-",
    "8378": "8?",
    "8379": "8/",
    "8380": "8>",
    "8381": "8.",
    "8382": "8<",
    "8383": "8,",
    "8384": "8`",
    "8385": "8|",
    "8386": "8\\",
    "8387": "8'",
    "8388": "8\"",
    "8389": "8[",
    "8390": "8]",
    "8391": "8{",
    "8392": "8}",
    "8393": "8 ",
    "8394": "9a",
    "8395": "9b",
    "8396": "9c",
    "8397": "9d",
    "8398": "9e",
    "8399": "9f",
    "8400": "9g",
    "8401": "9h",
    "8402": "9i",
    "8403": "9j",
    "8404": "9k",
    "8405": "9l",
    "8406": "9m",
    "8407": "9n",
    "8408": "9o",
    "8409": "9p",
    "8410": "9q",
    "8411": "9r",
    "8412": "9s",
    "8413": "9t",
    "8414": "9u",
    "8415": "9v",
    "8416": "9w",
    "8417": "9x",
    "8418": "9y",
    "8419": "9z",
    "8420": "9а",
    "8421": "9б",
    "8422": "9в",
    "8423": "9г",
    "8424": "9д",
    "8425": "9е",
    "8426": "9ё",
    "8427": "9ж",
    "8428": "9з",
    "8429": "9и",
    "8430": "9й",
    "8431": "9к",
    "8432": "9л",
    "8433": "9м",
    "8434": "9н",
    "8435": "9о",
    "8436": "9п",
    "8437": "9р",
    "8438": "9с",
    "8439": "9т",
    "8440": "9у",
    "8441": "9ф",
    "8442": "9х",
    "8443": "9ц",
    "8444": "9ч",
    "8445": "9ш",
    "8446": "9щ",
    "8447": "9ъ",
    "8448": "9ы",
    "8449": "9ь",
    "8450": "9э",
    "8451": "9ю",
    "8452": "9я",
    "8453": "9ә",
    "8454": "9і",
    "8455": "9ң",
    "8456": "9ғ",
    "8457": "9ү",
    "8458": "9ұ",
    "8459": "9қ",
    "8460": "9ө",
    "8461": "9һ",
    "8462": "91",
    "8463": "92",
    "8464": "93",
    "8465": "94",
    "8466": "95",
    "8467": "96",
    "8468": "97",
    "8469": "98",
    "8470": "99",
    "8471": "90",
    "8472": "9!",
    "8473": "9@",
    "8474": "9#",
    "8475": "9$",
    "8476": "9%",
    "8477": "9^",
    "8478": "9:",
    "8479": "9&",
    "8480": "9*",
    "8481": "9(",
    "8482": "9)",
    "8483": "9_",
    "8484": "9+",
    "8485": "9=",
    "8486": "9-",
    "8487": "9?",
    "8488": "9/",
    "8489": "9>",
    "8490": "9.",
    "8491": "9<",
    "8492": "9,",
    "8493": "9`",
    "8494": "9|",
    "8495": "9\\",
    "8496": "9'",
    "8497": "9\"",
    "8498": "9[",
    "8499": "9]",
    "8500": "9{",
    "8501": "9}",
    "8502": "9 ",
    "8503": "0a",
    "8504": "0b",
    "8505": "0c",
    "8506": "0d",
    "8507": "0e",
    "8508": "0f",
    "8509": "0g",
    "8510": "0h",
    "8511": "0i",
    "8512": "0j",
    "8513": "0k",
    "8514": "0l",
    "8515": "0m",
    "8516": "0n",
    "8517": "0o",
    "8518": "0p",
    "8519": "0q",
    "8520": "0r",
    "8521": "0s",
    "8522": "0t",
    "8523": "0u",
    "8524": "0v",
    "8525": "0w",
    "8526": "0x",
    "8527": "0y",
    "8528": "0z",
    "8529": "0а",
    "8530": "0б",
    "8531": "0в",
    "8532": "0г",
    "8533": "0д",
    "8534": "0е",
    "8535": "0ё",
    "8536": "0ж",
    "8537": "0з",
    "8538": "0и",
    "8539": "0й",
    "8540": "0к",
    "8541": "0л",
    "8542": "0м",
    "8543": "0н",
    "8544": "0о",
    "8545": "0п",
    "8546": "0р",
    "8547": "0с",
    "8548": "0т",
    "8549": "0у",
    "8550": "0ф",
    "8551": "0х",
    "8552": "0ц",
    "8553": "0ч",
    "8554": "0ш",
    "8555": "0щ",
    "8556": "0ъ",
    "8557": "0ы",
    "8558": "0ь",
    "8559": "0э",
    "8560": "0ю",
    "8561": "0я",
    "8562": "0ә",
    "8563": "0і",
    "8564": "0ң",
    "8565": "0ғ",
    "8566": "0ү",
    "8567": "0ұ",
    "8568": "0қ",
    "8569": "0ө",
    "8570": "0һ",
    "8571": "01",
    "8572": "02",
    "8573": "03",
    "8574": "04",
    "8575": "05",
    "8576": "06",
    "8577": "07",
    "8578": "08",
    "8579": "09",
    "8580": "00",
    "8581": "0!",
    "8582": "0@",
    "8583": "0#",
    "8584": "0$",
    "8585": "0%",
    "8586": "0^",
    "8587": "0:",
    "8588": "0&",
    "8589": "0*",
    "8590": "0(",
    "8591": "0)",
    "8592": "0_",
    "8593": "0+",
    "8594": "0=",
    "8595": "0-",
    "8596": "0?",
    "8597": "0/",
    "8598": "0>",
    "8599": "0.",
    "8600": "0<",
    "8601": "0,",
    "8602": "0`",
    "8603": "0|",
    "8604": "0\\",
    "8605": "0'",
    "8606": "0\"",
    "8607": "0[",
    "8608": "0]",
    "8609": "0{",
    "8610": "0}",
    "8611": "0 ",
    "8612": "!a",
    "8613": "!b",
    "8614": "!c",
    "8615": "!d",
    "8616": "!e",
    "8617": "!f",
    "8618": "!g",
    "8619": "!h",
    "8620": "!i",
    "8621": "!j",
    "8622": "!k",
    "8623": "!l",
    "8624": "!m",
    "8625": "!n",
    "8626": "!o",
    "8627": "!p",
    "8628": "!q",
    "8629": "!r",
    "8630": "!s",
    "8631": "!t",
    "8632": "!u",
    "8633": "!v",
    "8634": "!w",
    "8635": "!x",
    "8636": "!y",
    "8637": "!z",
    "8638": "!а",
    "8639": "!б",
    "8640": "!в",
    "8641": "!г",
    "8642": "!д",
    "8643": "!е",
    "8644": "!ё",
    "8645": "!ж",
    "8646": "!з",
    "8647": "!и",
    "8648": "!й",
    "8649": "!к",
    "8650": "!л",
    "8651": "!м",
    "8652": "!н",
    "8653": "!о",
    "8654": "!п",
    "8655": "!р",
    "8656": "!с",
    "8657": "!т",
    "8658": "!у",
    "8659": "!ф",
    "8660": "!х",
    "8661": "!ц",
    "8662": "!ч",
    "8663": "!ш",
    "8664": "!щ",
    "8665": "!ъ",
    "8666": "!ы",
    "8667": "!ь",
    "8668": "!э",
    "8669": "!ю",
    "8670": "!я",
    "8671": "!ә",
    "8672": "!і",
    "8673": "!ң",
    "8674": "!ғ",
    "8675": "!ү",
    "8676": "!ұ",
    "8677": "!қ",
    "8678": "!ө",
    "8679": "!һ",
    "8680": "!1",
    "8681": "!2",
    "8682": "!3",
    "8683": "!4",
    "8684": "!5",
    "8685": "!6",
    "8686": "!7",
    "8687": "!8",
    "8688": "!9",
    "8689": "!0",
    "8690": "!!",
    "8691": "!@",
    "8692": "!#",
    "8693": "!$",
    "8694": "!%",
    "8695": "!^",
    "8696": "!:",
    "8697": "!&",
    "8698": "!*",
    "8699": "!(",
    "8700": "!)",
    "8701": "!_",
    "8702": "!+",
    "8703": "!=",
    "8704": "!-",
    "8705": "!?",
    "8706": "!/",
    "8707": "!>",
    "8708": "!.",
    "8709": "!<",
    "8710": "!,",
    "8711": "!`",
    "8712": "!|",
    "8713": "!\\",
    "8714": "!'",
    "8715": "!\"",
    "8716": "![",
    "8717": "!]",
    "8718": "!{",
    "8719": "!}",
    "8720": "! ",
    "8721": "@a",
    "8722": "@b",
    "8723": "@c",
    "8724": "@d",
    "8725": "@e",
    "8726": "@f",
    "8727": "@g",
    "8728": "@h",
    "8729": "@i",
    "8730": "@j",
    "8731": "@k",
    "8732": "@l",
    "8733": "@m",
    "8734": "@n",
    "8735": "@o",
    "8736": "@p",
    "8737": "@q",
    "8738": "@r",
    "8739": "@s",
    "8740": "@t",
    "8741": "@u",
    "8742": "@v",
    "8743": "@w",
    "8744": "@x",
    "8745": "@y",
    "8746": "@z",
    "8747": "@а",
    "8748": "@б",
    "8749": "@в",
    "8750": "@г",
    "8751": "@д",
    "8752": "@е",
    "8753": "@ё",
    "8754": "@ж",
    "8755": "@з",
    "8756": "@и",
    "8757": "@й",
    "8758": "@к",
    "8759": "@л",
    "8760": "@м",
    "8761": "@н",
    "8762": "@о",
    "8763": "@п",
    "8764": "@р",
    "8765": "@с",
    "8766": "@т",
    "8767": "@у",
    "8768": "@ф",
    "8769": "@х",
    "8770": "@ц",
    "8771": "@ч",
    "8772": "@ш",
    "8773": "@щ",
    "8774": "@ъ",
    "8775": "@ы",
    "8776": "@ь",
    "8777": "@э",
    "8778": "@ю",
    "8779": "@я",
    "8780": "@ә",
    "8781": "@і",
    "8782": "@ң",
    "8783": "@ғ",
    "8784": "@ү",
    "8785": "@ұ",
    "8786": "@қ",
    "8787": "@ө",
    "8788": "@һ",
    "8789": "@1",
    "8790": "@2",
    "8791": "@3",
    "8792": "@4",
    "8793": "@5",
    "8794": "@6",
    "8795": "@7",
    "8796": "@8",
    "8797": "@9",
    "8798": "@0",
    "8799": "@!",
    "8800": "@@",
    "8801": "@#",
    "8802": "@$",
    "8803": "@%",
    "8804": "@^",
    "8805": "@:",
    "8806": "@&",
    "8807": "@*",
    "8808": "@(",
    "8809": "@)",
    "8810": "@_",
    "8811": "@+",
    "8812": "@=",
    "8813": "@-",
    "8814": "@?",
    "8815": "@/",
    "8816": "@>",
    "8817": "@.",
    "8818": "@<",
    "8819": "@,",
    "8820": "@`",
    "8821": "@|",
    "8822": "@\\",
    "8823": "@'",
    "8824": "@\"",
    "8825": "@[",
    "8826": "@]",
    "8827": "@{",
    "8828": "@}",
    "8829": "@ ",
    "8830": "#a",
    "8831": "#b",
    "8832": "#c",
    "8833": "#d",
    "8834": "#e",
    "8835": "#f",
    "8836": "#g",
    "8837": "#h",
    "8838": "#i",
    "8839": "#j",
    "8840": "#k",
    "8841": "#l",
    "8842": "#m",
    "8843": "#n",
    "8844": "#o",
    "8845": "#p",
    "8846": "#q",
    "8847": "#r",
    "8848": "#s",
    "8849": "#t",
    "8850": "#u",
    "8851": "#v",
    "8852": "#w",
    "8853": "#x",
    "8854": "#y",
    "8855": "#z",
    "8856": "#а",
    "8857": "#б",
    "8858": "#в",
    "8859": "#г",
    "8860": "#д",
    "8861": "#е",
    "8862": "#ё",
    "8863": "#ж",
    "8864": "#з",
    "8865": "#и",
    "8866": "#й",
    "8867": "#к",
    "8868": "#л",
    "8869": "#м",
    "8870": "#н",
    "8871": "#о",
    "8872": "#п",
    "8873": "#р",
    "8874": "#с",
    "8875": "#т",
    "8876": "#у",
    "8877": "#ф",
    "8878": "#х",
    "8879": "#ц",
    "8880": "#ч",
    "8881": "#ш",
    "8882": "#щ",
    "8883": "#ъ",
    "8884": "#ы",
    "8885": "#ь",
    "8886": "#э",
    "8887": "#ю",
    "8888": "#я",
    "8889": "#ә",
    "8890": "#і",
    "8891": "#ң",
    "8892": "#ғ",
    "8893": "#ү",
    "8894": "#ұ",
    "8895": "#қ",
    "8896": "#ө",
    "8897": "#һ",
    "8898": "#1",
    "8899": "#2",
    "8900": "#3",
    "8901": "#4",
    "8902": "#5",
    "8903": "#6",
    "8904": "#7",
    "8905": "#8",
    "8906": "#9",
    "8907": "#0",
    "8908": "#!",
    "8909": "#@",
    "8910": "##",
    "8911": "#$",
    "8912": "#%",
    "8913": "#^",
    "8914": "#:",
    "8915": "#&",
    "8916": "#*",
    "8917": "#(",
    "8918": "#)",
    "8919": "#_",
    "8920": "#+",
    "8921": "#=",
    "8922": "#-",
    "8923": "#?",
    "8924": "#/",
    "8925": "#>",
    "8926": "#.",
    "8927": "#<",
    "8928": "#,",
    "8929": "#`",
    "8930": "#|",
    "8931": "#\\",
    "8932": "#'",
    "8933": "#\"",
    "8934": "#[",
    "8935": "#]",
    "8936": "#{",
    "8937": "#}",
    "8938": "# ",
    "8939": "$a",
    "8940": "$b",
    "8941": "$c",
    "8942": "$d",
    "8943": "$e",
    "8944": "$f",
    "8945": "$g",
    "8946": "$h",
    "8947": "$i",
    "8948": "$j",
    "8949": "$k",
    "8950": "$l",
    "8951": "$m",
    "8952": "$n",
    "8953": "$o",
    "8954": "$p",
    "8955": "$q",
    "8956": "$r",
    "8957": "$s",
    "8958": "$t",
    "8959": "$u",
    "8960": "$v",
    "8961": "$w",
    "8962": "$x",
    "8963": "$y",
    "8964": "$z",
    "8965": "$а",
    "8966": "$б",
    "8967": "$в",
    "8968": "$г",
    "8969": "$д",
    "8970": "$е",
    "8971": "$ё",
    "8972": "$ж",
    "8973": "$з",
    "8974": "$и",
    "8975": "$й",
    "8976": "$к",
    "8977": "$л",
    "8978": "$м",
    "8979": "$н",
    "8980": "$о",
    "8981": "$п",
    "8982": "$р",
    "8983": "$с",
    "8984": "$т",
    "8985": "$у",
    "8986": "$ф",
    "8987": "$х",
    "8988": "$ц",
    "8989": "$ч",
    "8990": "$ш",
    "8991": "$щ",
    "8992": "$ъ",
    "8993": "$ы",
    "8994": "$ь",
    "8995": "$э",
    "8996": "$ю",
    "8997": "$я",
    "8998": "$ә",
    "8999": "$і",
    "9000": "$ң",
    "9001": "$ғ",
    "9002": "$ү",
    "9003": "$ұ",
    "9004": "$қ",
    "9005": "$ө",
    "9006": "$һ",
    "9007": "$1",
    "9008": "$2",
    "9009": "$3",
    "9010": "$4",
    "9011": "$5",
    "9012": "$6",
    "9013": "$7",
    "9014": "$8",
    "9015": "$9",
    "9016": "$0",
    "9017": "$!",
    "9018": "$@",
    "9019": "$#",
    "9020": "$$",
    "9021": "$%",
    "9022": "$^",
    "9023": "$:",
    "9024": "$&",
    "9025": "$*",
    "9026": "$(",
    "9027": "$)",
    "9028": "$_",
    "9029": "$+",
    "9030": "$=",
    "9031": "$-",
    "9032": "$?",
    "9033": "$/",
    "9034": "$>",
    "9035": "$.",
    "9036": "$<",
    "9037": "$,",
    "9038": "$`",
    "9039": "$|",
    "9040": "$\\",
    "9041": "$'",
    "9042": "$\"",
    "9043": "$[",
    "9044": "$]",
    "9045": "${",
    "9046": "$}",
    "9047": "$ ",
    "9048": "%a",
    "9049": "%b",
    "9050": "%c",
    "9051": "%d",
    "9052": "%e",
    "9053": "%f",
    "9054": "%g",
    "9055": "%h",
    "9056": "%i",
    "9057": "%j",
    "9058": "%k",
    "9059": "%l",
    "9060": "%m",
    "9061": "%n",
    "9062": "%o",
    "9063": "%p",
    "9064": "%q",
    "9065": "%r",
    "9066": "%s",
    "9067": "%t",
    "9068": "%u",
    "9069": "%v",
    "9070": "%w",
    "9071": "%x",
    "9072": "%y",
    "9073": "%z",
    "9074": "%а",
    "9075": "%б",
    "9076": "%в",
    "9077": "%г",
    "9078": "%д",
    "9079": "%е",
    "9080": "%ё",
    "9081": "%ж",
    "9082": "%з",
    "9083": "%и",
    "9084": "%й",
    "9085": "%к",
    "9086": "%л",
    "9087": "%м",
    "9088": "%н",
    "9089": "%о",
    "9090": "%п",
    "9091": "%р",
    "9092": "%с",
    "9093": "%т",
    "9094": "%у",
    "9095": "%ф",
    "9096": "%х",
    "9097": "%ц",
    "9098": "%ч",
    "9099": "%ш",
    "9100": "%щ",
    "9101": "%ъ",
    "9102": "%ы",
    "9103": "%ь",
    "9104": "%э",
    "9105": "%ю",
    "9106": "%я",
    "9107": "%ә",
    "9108": "%і",
    "9109": "%ң",
    "9110": "%ғ",
    "9111": "%ү",
    "9112": "%ұ",
    "9113": "%қ",
    "9114": "%ө",
    "9115": "%һ",
    "9116": "%1",
    "9117": "%2",
    "9118": "%3",
    "9119": "%4",
    "9120": "%5",
    "9121": "%6",
    "9122": "%7",
    "9123": "%8",
    "9124": "%9",
    "9125": "%0",
    "9126": "%!",
    "9127": "%@",
    "9128": "%#",
    "9129": "%$",
    "9130": "%%",
    "9131": "%^",
    "9132": "%:",
    "9133": "%&",
    "9134": "%*",
    "9135": "%(",
    "9136": "%)",
    "9137": "%_",
    "9138": "%+",
    "9139": "%=",
    "9140": "%-",
    "9141": "%?",
    "9142": "%/",
    "9143": "%>",
    "9144": "%.",
    "9145": "%<",
    "9146": "%,",
    "9147": "%`",
    "9148": "%|",
    "9149": "%\\",
    "9150": "%'",
    "9151": "%\"",
    "9152": "%[",
    "9153": "%]",
    "9154": "%{",
    "9155": "%}",
    "9156": "% ",
    "9157": "^a",
    "9158": "^b",
    "9159": "^c",
    "9160": "^d",
    "9161": "^e",
    "9162": "^f",
    "9163": "^g",
    "9164": "^h",
    "9165": "^i",
    "9166": "^j",
    "9167": "^k",
    "9168": "^l",
    "9169": "^m",
    "9170": "^n",
    "9171": "^o",
    "9172": "^p",
    "9173": "^q",
    "9174": "^r",
    "9175": "^s",
    "9176": "^t",
    "9177": "^u",
    "9178": "^v",
    "9179": "^w",
    "9180": "^x",
    "9181": "^y",
    "9182": "^z",
    "9183": "^а",
    "9184": "^б",
    "9185": "^в",
    "9186": "^г",
    "9187": "^д",
    "9188": "^е",
    "9189": "^ё",
    "9190": "^ж",
    "9191": "^з",
    "9192": "^и",
    "9193": "^й",
    "9194": "^к",
    "9195": "^л",
    "9196": "^м",
    "9197": "^н",
    "9198": "^о",
    "9199": "^п",
    "9200": "^р",
    "9201": "^с",
    "9202": "^т",
    "9203": "^у",
    "9204": "^ф",
    "9205": "^х",
    "9206": "^ц",
    "9207": "^ч",
    "9208": "^ш",
    "9209": "^щ",
    "9210": "^ъ",
    "9211": "^ы",
    "9212": "^ь",
    "9213": "^э",
    "9214": "^ю",
    "9215": "^я",
    "9216": "^ә",
    "9217": "^і",
    "9218": "^ң",
    "9219": "^ғ",
    "9220": "^ү",
    "9221": "^ұ",
    "9222": "^қ",
    "9223": "^ө",
    "9224": "^һ",
    "9225": "^1",
    "9226": "^2",
    "9227": "^3",
    "9228": "^4",
    "9229": "^5",
    "9230": "^6",
    "9231": "^7",
    "9232": "^8",
    "9233": "^9",
    "9234": "^0",
    "9235": "^!",
    "9236": "^@",
    "9237": "^#",
    "9238": "^$",
    "9239": "^%",
    "9240": "^^",
    "9241": "^:",
    "9242": "^&",
    "9243": "^*",
    "9244": "^(",
    "9245": "^)",
    "9246": "^_",
    "9247": "^+",
    "9248": "^=",
    "9249": "^-",
    "9250": "^?",
    "9251": "^/",
    "9252": "^>",
    "9253": "^.",
    "9254": "^<",
    "9255": "^,",
    "9256": "^`",
    "9257": "^|",
    "9258": "^\\",
    "9259": "^'",
    "9260": "^\"",
    "9261": "^[",
    "9262": "^]",
    "9263": "^{",
    "9264": "^}",
    "9265": "^ ",
    "9266": ":a",
    "9267": ":b",
    "9268": ":c",
    "9269": ":d",
    "9270": ":e",
    "9271": ":f",
    "9272": ":g",
    "9273": ":h",
    "9274": ":i",
    "9275": ":j",
    "9276": ":k",
    "9277": ":l",
    "9278": ":m",
    "9279": ":n",
    "9280": ":o",
    "9281": ":p",
    "9282": ":q",
    "9283": ":r",
    "9284": ":s",
    "9285": ":t",
    "9286": ":u",
    "9287": ":v",
    "9288": ":w",
    "9289": ":x",
    "9290": ":y",
    "9291": ":z",
    "9292": ":а",
    "9293": ":б",
    "9294": ":в",
    "9295": ":г",
    "9296": ":д",
    "9297": ":е",
    "9298": ":ё",
    "9299": ":ж",
    "9300": ":з",
    "9301": ":и",
    "9302": ":й",
    "9303": ":к",
    "9304": ":л",
    "9305": ":м",
    "9306": ":н",
    "9307": ":о",
    "9308": ":п",
    "9309": ":р",
    "9310": ":с",
    "9311": ":т",
    "9312": ":у",
    "9313": ":ф",
    "9314": ":х",
    "9315": ":ц",
    "9316": ":ч",
    "9317": ":ш",
    "9318": ":щ",
    "9319": ":ъ",
    "9320": ":ы",
    "9321": ":ь",
    "9322": ":э",
    "9323": ":ю",
    "9324": ":я",
    "9325": ":ә",
    "9326": ":і",
    "9327": ":ң",
    "9328": ":ғ",
    "9329": ":ү",
    "9330": ":ұ",
    "9331": ":қ",
    "9332": ":ө",
    "9333": ":һ",
    "9334": ":1",
    "9335": ":2",
    "9336": ":3",
    "9337": ":4",
    "9338": ":5",
    "9339": ":6",
    "9340": ":7",
    "9341": ":8",
    "9342": ":9",
    "9343": ":0",
    "9344": ":!",
    "9345": ":@",
    "9346": ":#",
    "9347": ":$",
    "9348": ":%",
    "9349": ":^",
    "9350": "::",
    "9351": ":&",
    "9352": ":*",
    "9353": ":(",
    "9354": ":)",
    "9355": ":_",
    "9356": ":+",
    "9357": ":=",
    "9358": ":-",
    "9359": ":?",
    "9360": ":/",
    "9361": ":>",
    "9362": ":.",
    "9363": ":<",
    "9364": ":,",
    "9365": ":`",
    "9366": ":|",
    "9367": ":\\",
    "9368": ":'",
    "9369": ":\"",
    "9370": ":[",
    "9371": ":]",
    "9372": ":{",
    "9373": ":}",
    "9374": ": ",
    "9375": "&a",
    "9376": "&b",
    "9377": "&c",
    "9378": "&d",
    "9379": "&e",
    "9380": "&f",
    "9381": "&g",
    "9382": "&h",
    "9383": "&i",
    "9384": "&j",
    "9385": "&k",
    "9386": "&l",
    "9387": "&m",
    "9388": "&n",
    "9389": "&o",
    "9390": "&p",
    "9391": "&q",
    "9392": "&r",
    "9393": "&s",
    "9394": "&t",
    "9395": "&u",
    "9396": "&v",
    "9397": "&w",
    "9398": "&x",
    "9399": "&y",
    "9400": "&z",
    "9401": "&а",
    "9402": "&б",
    "9403": "&в",
    "9404": "&г",
    "9405": "&д",
    "9406": "&е",
    "9407": "&ё",
    "9408": "&ж",
    "9409": "&з",
    "9410": "&и",
    "9411": "&й",
    "9412": "&к",
    "9413": "&л",
    "9414": "&м",
    "9415": "&н",
    "9416": "&о",
    "9417": "&п",
    "9418": "&р",
    "9419": "&с",
    "9420": "&т",
    "9421": "&у",
    "9422": "&ф",
    "9423": "&х",
    "9424": "&ц",
    "9425": "&ч",
    "9426": "&ш",
    "9427": "&щ",
    "9428": "&ъ",
    "9429": "&ы",
    "9430": "&ь",
    "9431": "&э",
    "9432": "&ю",
    "9433": "&я",
    "9434": "&ә",
    "9435": "&і",
    "9436": "&ң",
    "9437": "&ғ",
    "9438": "&ү",
    "9439": "&ұ",
    "9440": "&қ",
    "9441": "&ө",
    "9442": "&һ",
    "9443": "&1",
    "9444": "&2",
    "9445": "&3",
    "9446": "&4",
    "9447": "&5",
    "9448": "&6",
    "9449": "&7",
    "9450": "&8",
    "9451": "&9",
    "9452": "&0",
    "9453": "&!",
    "9454": "&@",
    "9455": "&#",
    "9456": "&$",
    "9457": "&%",
    "9458": "&^",
    "9459": "&:",
    "9460": "&&",
    "9461": "&*",
    "9462": "&(",
    "9463": "&)",
    "9464": "&_",
    "9465": "&+",
    "9466": "&=",
    "9467": "&-",
    "9468": "&?",
    "9469": "&/",
    "9470": "&>",
    "9471": "&.",
    "9472": "&<",
    "9473": "&,",
    "9474": "&`",
    "9475": "&|",
    "9476": "&\\",
    "9477": "&'",
    "9478": "&\"",
    "9479": "&[",
    "9480": "&]",
    "9481": "&{",
    "9482": "&}",
    "9483": "& ",
    "9484": "*a",
    "9485": "*b",
    "9486": "*c",
    "9487": "*d",
    "9488": "*e",
    "9489": "*f",
    "9490": "*g",
    "9491": "*h",
    "9492": "*i",
    "9493": "*j",
    "9494": "*k",
    "9495": "*l",
    "9496": "*m",
    "9497": "*n",
    "9498": "*o",
    "9499": "*p",
    "9500": "*q",
    "9501": "*r",
    "9502": "*s",
    "9503": "*t",
    "9504": "*u",
    "9505": "*v",
    "9506": "*w",
    "9507": "*x",
    "9508": "*y",
    "9509": "*z",
    "9510": "*а",
    "9511": "*б",
    "9512": "*в",
    "9513": "*г",
    "9514": "*д",
    "9515": "*е",
    "9516": "*ё",
    "9517": "*ж",
    "9518": "*з",
    "9519": "*и",
    "9520": "*й",
    "9521": "*к",
    "9522": "*л",
    "9523": "*м",
    "9524": "*н",
    "9525": "*о",
    "9526": "*п",
    "9527": "*р",
    "9528": "*с",
    "9529": "*т",
    "9530": "*у",
    "9531": "*ф",
    "9532": "*х",
    "9533": "*ц",
    "9534": "*ч",
    "9535": "*ш",
    "9536": "*щ",
    "9537": "*ъ",
    "9538": "*ы",
    "9539": "*ь",
    "9540": "*э",
    "9541": "*ю",
    "9542": "*я",
    "9543": "*ә",
    "9544": "*і",
    "9545": "*ң",
    "9546": "*ғ",
    "9547": "*ү",
    "9548": "*ұ",
    "9549": "*қ",
    "9550": "*ө",
    "9551": "*һ",
    "9552": "*1",
    "9553": "*2",
    "9554": "*3",
    "9555": "*4",
    "9556": "*5",
    "9557": "*6",
    "9558": "*7",
    "9559": "*8",
    "9560": "*9",
    "9561": "*0",
    "9562": "*!",
    "9563": "*@",
    "9564": "*#",
    "9565": "*$",
    "9566": "*%",
    "9567": "*^",
    "9568": "*:",
    "9569": "*&",
    "9570": "**",
    "9571": "*(",
    "9572": "*)",
    "9573": "*_",
    "9574": "*+",
    "9575": "*=",
    "9576": "*-",
    "9577": "*?",
    "9578": "*/",
    "9579": "*>",
    "9580": "*.",
    "9581": "*<",
    "9582": "*,",
    "9583": "*`",
    "9584": "*|",
    "9585": "*\\",
    "9586": "*'",
    "9587": "*\"",
    "9588": "*[",
    "9589": "*]",
    "9590": "*{",
    "9591": "*}",
    "9592": "* ",
    "9593": "(a",
    "9594": "(b",
    "9595": "(c",
    "9596": "(d",
    "9597": "(e",
    "9598": "(f",
    "9599": "(g",
    "9600": "(h",
    "9601": "(i",
    "9602": "(j",
    "9603": "(k",
    "9604": "(l",
    "9605": "(m",
    "9606": "(n",
    "9607": "(o",
    "9608": "(p",
    "9609": "(q",
    "9610": "(r",
    "9611": "(s",
    "9612": "(t",
    "9613": "(u",
    "9614": "(v",
    "9615": "(w",
    "9616": "(x",
    "9617": "(y",
    "9618": "(z",
    "9619": "(а",
    "9620": "(б",
    "9621": "(в",
    "9622": "(г",
    "9623": "(д",
    "9624": "(е",
    "9625": "(ё",
    "9626": "(ж",
    "9627": "(з",
    "9628": "(и",
    "9629": "(й",
    "9630": "(к",
    "9631": "(л",
    "9632": "(м",
    "9633": "(н",
    "9634": "(о",
    "9635": "(п",
    "9636": "(р",
    "9637": "(с",
    "9638": "(т",
    "9639": "(у",
    "9640": "(ф",
    "9641": "(х",
    "9642": "(ц",
    "9643": "(ч",
    "9644": "(ш",
    "9645": "(щ",
    "9646": "(ъ",
    "9647": "(ы",
    "9648": "(ь",
    "9649": "(э",
    "9650": "(ю",
    "9651": "(я",
    "9652": "(ә",
    "9653": "(і",
    "9654": "(ң",
    "9655": "(ғ",
    "9656": "(ү",
    "9657": "(ұ",
    "9658": "(қ",
    "9659": "(ө",
    "9660": "(һ",
    "9661": "(1",
    "9662": "(2",
    "9663": "(3",
    "9664": "(4",
    "9665": "(5",
    "9666": "(6",
    "9667": "(7",
    "9668": "(8",
    "9669": "(9",
    "9670": "(0",
    "9671": "(!",
    "9672": "(@",
    "9673": "(#",
    "9674": "($",
    "9675": "(%",
    "9676": "(^",
    "9677": "(:",
    "9678": "(&",
    "9679": "(*",
    "9680": "((",
    "9681": "()",
    "9682": "(_",
    "9683": "(+",
    "9684": "(=",
    "9685": "(-",
    "9686": "(?",
    "9687": "(/",
    "9688": "(>",
    "9689": "(.",
    "9690": "(<",
    "9691": "(,",
    "9692": "(`",
    "9693": "(|",
    "9694": "(\\",
    "9695": "('",
    "9696": "(\"",
    "9697": "([",
    "9698": "(]",
    "9699": "({",
    "9700": "(}",
    "9701": "( ",
    "9702": ")a",
    "9703": ")b",
    "9704": ")c",
    "9705": ")d",
    "9706": ")e",
    "9707": ")f",
    "9708": ")g",
    "9709": ")h",
    "9710": ")i",
    "9711": ")j",
    "9712": ")k",
    "9713": ")l",
    "9714": ")m",
    "9715": ")n",
    "9716": ")o",
    "9717": ")p",
    "9718": ")q",
    "9719": ")r",
    "9720": ")s",
    "9721": ")t",
    "9722": ")u",
    "9723": ")v",
    "9724": ")w",
    "9725": ")x",
    "9726": ")y",
    "9727": ")z",
    "9728": ")а",
    "9729": ")б",
    "9730": ")в",
    "9731": ")г",
    "9732": ")д",
    "9733": ")е",
    "9734": ")ё",
    "9735": ")ж",
    "9736": ")з",
    "9737": ")и",
    "9738": ")й",
    "9739": ")к",
    "9740": ")л",
    "9741": ")м",
    "9742": ")н",
    "9743": ")о",
    "9744": ")п",
    "9745": ")р",
    "9746": ")с",
    "9747": ")т",
    "9748": ")у",
    "9749": ")ф",
    "9750": ")х",
    "9751": ")ц",
    "9752": ")ч",
    "9753": ")ш",
    "9754": ")щ",
    "9755": ")ъ",
    "9756": ")ы",
    "9757": ")ь",
    "9758": ")э",
    "9759": ")ю",
    "9760": ")я",
    "9761": ")ә",
    "9762": ")і",
    "9763": ")ң",
    "9764": ")ғ",
    "9765": ")ү",
    "9766": ")ұ",
    "9767": ")қ",
    "9768": ")ө",
    "9769": ")һ",
    "9770": ")1",
    "9771": ")2",
    "9772": ")3",
    "9773": ")4",
    "9774": ")5",
    "9775": ")6",
    "9776": ")7",
    "9777": ")8",
    "9778": ")9",
    "9779": ")0",
    "9780": ")!",
    "9781": ")@",
    "9782": ")#",
    "9783": ")$",
    "9784": ")%",
    "9785": ")^",
    "9786": "):",
    "9787": ")&",
    "9788": ")*",
    "9789": ")(",
    "9790": "))",
    "9791": ")_",
    "9792": ")+",
    "9793": ")=",
    "9794": ")-",
    "9795": ")?",
    "9796": ")/",
    "9797": ")>",
    "9798": ").",
    "9799": ")<",
    "9800": "),",
    "9801": ")`",
    "9802": ")|",
    "9803": ")\\",
    "9804": ")'",
    "9805": ")\"",
    "9806": ")[",
    "9807": ")]",
    "9808": "){",
    "9809": ")}",
    "9810": ") ",
    "9811": "_a",
    "9812": "_b",
    "9813": "_c",
    "9814": "_d",
    "9815": "_e",
    "9816": "_f",
    "9817": "_g",
    "9818": "_h",
    "9819": "_i",
    "9820": "_j",
    "9821": "_k",
    "9822": "_l",
    "9823": "_m",
    "9824": "_n",
    "9825": "_o",
    "9826": "_p",
    "9827": "_q",
    "9828": "_r",
    "9829": "_s",
    "9830": "_t",
    "9831": "_u",
    "9832": "_v",
    "9833": "_w",
    "9834": "_x",
    "9835": "_y",
    "9836": "_z",
    "9837": "_а",
    "9838": "_б",
    "9839": "_в",
    "9840": "_г",
    "9841": "_д",
    "9842": "_е",
    "9843": "_ё",
    "9844": "_ж",
    "9845": "_з",
    "9846": "_и",
    "9847": "_й",
    "9848": "_к",
    "9849": "_л",
    "9850": "_м",
    "9851": "_н",
    "9852": "_о",
    "9853": "_п",
    "9854": "_р",
    "9855": "_с",
    "9856": "_т",
    "9857": "_у",
    "9858": "_ф",
    "9859": "_х",
    "9860": "_ц",
    "9861": "_ч",
    "9862": "_ш",
    "9863": "_щ",
    "9864": "_ъ",
    "9865": "_ы",
    "9866": "_ь",
    "9867": "_э",
    "9868": "_ю",
    "9869": "_я",
    "9870": "_ә",
    "9871": "_і",
    "9872": "_ң",
    "9873": "_ғ",
    "9874": "_ү",
    "9875": "_ұ",
    "9876": "_қ",
    "9877": "_ө",
    "9878": "_һ",
    "9879": "_1",
    "9880": "_2",
    "9881": "_3",
    "9882": "_4",
    "9883": "_5",
    "9884": "_6",
    "9885": "_7",
    "9886": "_8",
    "9887": "_9",
    "9888": "_0",
    "9889": "_!",
    "9890": "_@",
    "9891": "_#",
    "9892": "_$",
    "9893": "_%",
    "9894": "_^",
    "9895": "_:",
    "9896": "_&",
    "9897": "_*",
    "9898": "_(",
    "9899": "_)",
    "9900": "__",
    "9901": "_+",
    "9902": "_=",
    "9903": "_-",
    "9904": "_?",
    "9905": "_/",
    "9906": "_>",
    "9907": "_.",
    "9908": "_<",
    "9909": "_,",
    "9910": "_`",
    "9911": "_|",
    "9912": "_\\",
    "9913": "_'",
    "9914": "_\"",
    "9915": "_[",
    "9916": "_]",
    "9917": "_{",
    "9918": "_}",
    "9919": "_ ",
    "9920": "+a",
    "9921": "+b",
    "9922": "+c",
    "9923": "+d",
    "9924": "+e",
    "9925": "+f",
    "9926": "+g",
    "9927": "+h",
    "9928": "+i",
    "9929": "+j",
    "9930": "+k",
    "9931": "+l",
    "9932": "+m",
    "9933": "+n",
    "9934": "+o",
    "9935": "+p",
    "9936": "+q",
    "9937": "+r",
    "9938": "+s",
    "9939": "+t",
    "9940": "+u",
    "9941": "+v",
    "9942": "+w",
    "9943": "+x",
    "9944": "+y",
    "9945": "+z",
    "9946": "+а",
    "9947": "+б",
    "9948": "+в",
    "9949": "+г",
    "9950": "+д",
    "9951": "+е",
    "9952": "+ё",
    "9953": "+ж",
    "9954": "+з",
    "9955": "+и",
    "9956": "+й",
    "9957": "+к",
    "9958": "+л",
    "9959": "+м",
    "9960": "+н",
    "9961": "+о",
    "9962": "+п",
    "9963": "+р",
    "9964": "+с",
    "9965": "+т",
    "9966": "+у",
    "9967": "+ф",
    "9968": "+х",
    "9969": "+ц",
    "9970": "+ч",
    "9971": "+ш",
    "9972": "+щ",
    "9973": "+ъ",
    "9974": "+ы",
    "9975": "+ь",
    "9976": "+э",
    "9977": "+ю",
    "9978": "+я",
    "9979": "+ә",
    "9980": "+і",
    "9981": "+ң",
    "9982": "+ғ",
    "9983": "+ү",
    "9984": "+ұ",
    "9985": "+қ",
    "9986": "+ө",
    "9987": "+һ",
    "9988": "+1",
    "9989": "+2",
    "9990": "+3",
    "9991": "+4",
    "9992": "+5",
    "9993": "+6",
    "9994": "+7",
    "9995": "+8",
    "9996": "+9",
    "9997": "+0",
    "9998": "+!",
    "9999": "+@",
    "10000": "+#",
    "10001": "+$",
    "10002": "+%",
    "10003": "+^",
    "10004": "+:",
    "10005": "+&",
    "10006": "+*",
    "10007": "+(",
    "10008": "+)",
    "10009": "+_",
    "10010": "++",
    "10011": "+=",
    "10012": "+-",
    "10013": "+?",
    "10014": "+/",
    "10015": "+>",
    "10016": "+.",
    "10017": "+<",
    "10018": "+,",
    "10019": "+`",
    "10020": "+|",
    "10021": "+\\",
    "10022": "+'",
    "10023": "+\"",
    "10024": "+[",
    "10025": "+]",
    "10026": "+{",
    "10027": "+}",
    "10028": "+ ",
    "10029": "=a",
    "10030": "=b",
    "10031": "=c",
    "10032": "=d",
    "10033": "=e",
    "10034": "=f",
    "10035": "=g",
    "10036": "=h",
    "10037": "=i",
    "10038": "=j",
    "10039": "=k",
    "10040": "=l",
    "10041": "=m",
    "10042": "=n",
    "10043": "=o",
    "10044": "=p",
    "10045": "=q",
    "10046": "=r",
    "10047": "=s",
    "10048": "=t",
    "10049": "=u",
    "10050": "=v",
    "10051": "=w",
    "10052": "=x",
    "10053": "=y",
    "10054": "=z",
    "10055": "=а",
    "10056": "=б",
    "10057": "=в",
    "10058": "=г",
    "10059": "=д",
    "10060": "=е",
    "10061": "=ё",
    "10062": "=ж",
    "10063": "=з",
    "10064": "=и",
    "10065": "=й",
    "10066": "=к",
    "10067": "=л",
    "10068": "=м",
    "10069": "=н",
    "10070": "=о",
    "10071": "=п",
    "10072": "=р",
    "10073": "=с",
    "10074": "=т",
    "10075": "=у",
    "10076": "=ф",
    "10077": "=х",
    "10078": "=ц",
    "10079": "=ч",
    "10080": "=ш",
    "10081": "=щ",
    "10082": "=ъ",
    "10083": "=ы",
    "10084": "=ь",
    "10085": "=э",
    "10086": "=ю",
    "10087": "=я",
    "10088": "=ә",
    "10089": "=і",
    "10090": "=ң",
    "10091": "=ғ",
    "10092": "=ү",
    "10093": "=ұ",
    "10094": "=қ",
    "10095": "=ө",
    "10096": "=һ",
    "10097": "=1",
    "10098": "=2",
    "10099": "=3",
    "10100": "=4",
    "10101": "=5",
    "10102": "=6",
    "10103": "=7",
    "10104": "=8",
    "10105": "=9",
    "10106": "=0",
    "10107": "=!",
    "10108": "=@",
    "10109": "=#",
    "10110": "=$",
    "10111": "=%",
    "10112": "=^",
    "10113": "=:",
    "10114": "=&",
    "10115": "=*",
    "10116": "=(",
    "10117": "=)",
    "10118": "=_",
    "10119": "=+",
    "10120": "==",
    "10121": "=-",
    "10122": "=?",
    "10123": "=/",
    "10124": "=>",
    "10125": "=.",
    "10126": "=<",
    "10127": "=,",
    "10128": "=`",
    "10129": "=|",
    "10130": "=\\",
    "10131": "='",
    "10132": "=\"",
    "10133": "=[",
    "10134": "=]",
    "10135": "={",
    "10136": "=}",
    "10137": "= ",
    "10138": "-a",
    "10139": "-b",
    "10140": "-c",
    "10141": "-d",
    "10142": "-e",
    "10143": "-f",
    "10144": "-g",
    "10145": "-h",
    "10146": "-i",
    "10147": "-j",
    "10148": "-k",
    "10149": "-l",
    "10150": "-m",
    "10151": "-n",
    "10152": "-o",
    "10153": "-p",
    "10154": "-q",
    "10155": "-r",
    "10156": "-s",
    "10157": "-t",
    "10158": "-u",
    "10159": "-v",
    "10160": "-w",
    "10161": "-x",
    "10162": "-y",
    "10163": "-z",
    "10164": "-а",
    "10165": "-б",
    "10166": "-в",
    "10167": "-г",
    "10168": "-д",
    "10169": "-е",
    "10170": "-ё",
    "10171": "-ж",
    "10172": "-з",
    "10173": "-и",
    "10174": "-й",
    "10175": "-к",
    "10176": "-л",
    "10177": "-м",
    "10178": "-н",
    "10179": "-о",
    "10180": "-п",
    "10181": "-р",
    "10182": "-с",
    "10183": "-т",
    "10184": "-у",
    "10185": "-ф",
    "10186": "-х",
    "10187": "-ц",
    "10188": "-ч",
    "10189": "-ш",
    "10190": "-щ",
    "10191": "-ъ",
    "10192": "-ы",
    "10193": "-ь",
    "10194": "-э",
    "10195": "-ю",
    "10196": "-я",
    "10197": "-ә",
    "10198": "-і",
    "10199": "-ң",
    "10200": "-ғ",
    "10201": "-ү",
    "10202": "-ұ",
    "10203": "-қ",
    "10204": "-ө",
    "10205": "-һ",
    "10206": "-1",
    "10207": "-2",
    "10208": "-3",
    "10209": "-4",
    "10210": "-5",
    "10211": "-6",
    "10212": "-7",
    "10213": "-8",
    "10214": "-9",
    "10215": "-0",
    "10216": "-!",
    "10217": "-@",
    "10218": "-#",
    "10219": "-$",
    "10220": "-%",
    "10221": "-^",
    "10222": "-:",
    "10223": "-&",
    "10224": "-*",
    "10225": "-(",
    "10226": "-)",
    "10227": "-_",
    "10228": "-+",
    "10229": "-=",
    "10230": "--",
    "10231": "-?",
    "10232": "-/",
    "10233": "->",
    "10234": "-.",
    "10235": "-<",
    "10236": "-,",
    "10237": "-`",
    "10238": "-|",
    "10239": "-\\",
    "10240": "-'",
    "10241": "-\"",
    "10242": "-[",
    "10243": "-]",
    "10244": "-{",
    "10245": "-}",
    "10246": "- ",
    "10247": "?a",
    "10248": "?b",
    "10249": "?c",
    "10250": "?d",
    "10251": "?e",
    "10252": "?f",
    "10253": "?g",
    "10254": "?h",
    "10255": "?i",
    "10256": "?j",
    "10257": "?k",
    "10258": "?l",
    "10259": "?m",
    "10260": "?n",
    "10261": "?o",
    "10262": "?p",
    "10263": "?q",
    "10264": "?r",
    "10265": "?s",
    "10266": "?t",
    "10267": "?u",
    "10268": "?v",
    "10269": "?w",
    "10270": "?x",
    "10271": "?y",
    "10272": "?z",
    "10273": "?а",
    "10274": "?б",
    "10275": "?в",
    "10276": "?г",
    "10277": "?д",
    "10278": "?е",
    "10279": "?ё",
    "10280": "?ж",
    "10281": "?з",
    "10282": "?и",
    "10283": "?й",
    "10284": "?к",
    "10285": "?л",
    "10286": "?м",
    "10287": "?н",
    "10288": "?о",
    "10289": "?п",
    "10290": "?р",
    "10291": "?с",
    "10292": "?т",
    "10293": "?у",
    "10294": "?ф",
    "10295": "?х",
    "10296": "?ц",
    "10297": "?ч",
    "10298": "?ш",
    "10299": "?щ",
    "10300": "?ъ",
    "10301": "?ы",
    "10302": "?ь",
    "10303": "?э",
    "10304": "?ю",
    "10305": "?я",
    "10306": "?ә",
    "10307": "?і",
    "10308": "?ң",
    "10309": "?ғ",
    "10310": "?ү",
    "10311": "?ұ",
    "10312": "?қ",
    "10313": "?ө",
    "10314": "?һ",
    "10315": "?1",
    "10316": "?2",
    "10317": "?3",
    "10318": "?4",
    "10319": "?5",
    "10320": "?6",
    "10321": "?7",
    "10322": "?8",
    "10323": "?9",
    "10324": "?0",
    "10325": "?!",
    "10326": "?@",
    "10327": "?#",
    "10328": "?$",
    "10329": "?%",
    "10330": "?^",
    "10331": "?:",
    "10332": "?&",
    "10333": "?*",
    "10334": "?(",
    "10335": "?)",
    "10336": "?_",
    "10337": "?+",
    "10338": "?=",
    "10339": "?-",
    "10340": "??",
    "10341": "?/",
    "10342": "?>",
    "10343": "?.",
    "10344": "?<",
    "10345": "?,",
    "10346": "?`",
    "10347": "?|",
    "10348": "?\\",
    "10349": "?'",
    "10350": "?\"",
    "10351": "?[",
    "10352": "?]",
    "10353": "?{",
    "10354": "?}",
    "10355": "? ",
    "10356": "/a",
    "10357": "/b",
    "10358": "/c",
    "10359": "/d",
    "10360": "/e",
    "10361": "/f",
    "10362": "/g",
    "10363": "/h",
    "10364": "/i",
    "10365": "/j",
    "10366": "/k",
    "10367": "/l",
    "10368": "/m",
    "10369": "/n",
    "10370": "/o",
    "10371": "/p",
    "10372": "/q",
    "10373": "/r",
    "10374": "/s",
    "10375": "/t",
    "10376": "/u",
    "10377": "/v",
    "10378": "/w",
    "10379": "/x",
    "10380": "/y",
    "10381": "/z",
    "10382": "/а",
    "10383": "/б",
    "10384": "/в",
    "10385": "/г",
    "10386": "/д",
    "10387": "/е",
    "10388": "/ё",
    "10389": "/ж",
    "10390": "/з",
    "10391": "/и",
    "10392": "/й",
    "10393": "/к",
    "10394": "/л",
    "10395": "/м",
    "10396": "/н",
    "10397": "/о",
    "10398": "/п",
    "10399": "/р",
    "10400": "/с",
    "10401": "/т",
    "10402": "/у",
    "10403": "/ф",
    "10404": "/х",
    "10405": "/ц",
    "10406": "/ч",
    "10407": "/ш",
    "10408": "/щ",
    "10409": "/ъ",
    "10410": "/ы",
    "10411": "/ь",
    "10412": "/э",
    "10413": "/ю",
    "10414": "/я",
    "10415": "/ә",
    "10416": "/і",
    "10417": "/ң",
    "10418": "/ғ",
    "10419": "/ү",
    "10420": "/ұ",
    "10421": "/қ",
    "10422": "/ө",
    "10423": "/һ",
    "10424": "/1",
    "10425": "/2",
    "10426": "/3",
    "10427": "/4",
    "10428": "/5",
    "10429": "/6",
    "10430": "/7",
    "10431": "/8",
    "10432": "/9",
    "10433": "/0",
    "10434": "/!",
    "10435": "/@",
    "10436": "/#",
    "10437": "/$",
    "10438": "/%",
    "10439": "/^",
    "10440": "/:",
    "10441": "/&",
    "10442": "/*",
    "10443": "/(",
    "10444": "/)",
    "10445": "/_",
    "10446": "/+",
    "10447": "/=",
    "10448": "/-",
    "10449": "/?",
    "10450": "//",
    "10451": "/>",
    "10452": "/.",
    "10453": "/<",
    "10454": "/,",
    "10455": "/`",
    "10456": "/|",
    "10457": "/\\",
    "10458": "/'",
    "10459": "/\"",
    "10460": "/[",
    "10461": "/]",
    "10462": "/{",
    "10463": "/}",
    "10464": "/ ",
    "10465": ">a",
    "10466": ">b",
    "10467": ">c",
    "10468": ">d",
    "10469": ">e",
    "10470": ">f",
    "10471": ">g",
    "10472": ">h",
    "10473": ">i",
    "10474": ">j",
    "10475": ">k",
    "10476": ">l",
    "10477": ">m",
    "10478": ">n",
    "10479": ">o",
    "10480": ">p",
    "10481": ">q",
    "10482": ">r",
    "10483": ">s",
    "10484": ">t",
    "10485": ">u",
    "10486": ">v",
    "10487": ">w",
    "10488": ">x",
    "10489": ">y",
    "10490": ">z",
    "10491": ">а",
    "10492": ">б",
    "10493": ">в",
    "10494": ">г",
    "10495": ">д",
    "10496": ">е",
    "10497": ">ё",
    "10498": ">ж",
    "10499": ">з",
    "10500": ">и",
    "10501": ">й",
    "10502": ">к",
    "10503": ">л",
    "10504": ">м",
    "10505": ">н",
    "10506": ">о",
    "10507": ">п",
    "10508": ">р",
    "10509": ">с",
    "10510": ">т",
    "10511": ">у",
    "10512": ">ф",
    "10513": ">х",
    "10514": ">ц",
    "10515": ">ч",
    "10516": ">ш",
    "10517": ">щ",
    "10518": ">ъ",
    "10519": ">ы",
    "10520": ">ь",
    "10521": ">э",
    "10522": ">ю",
    "10523": ">я",
    "10524": ">ә",
    "10525": ">і",
    "10526": ">ң",
    "10527": ">ғ",
    "10528": ">ү",
    "10529": ">ұ",
    "10530": ">қ",
    "10531": ">ө",
    "10532": ">һ",
    "10533": ">1",
    "10534": ">2",
    "10535": ">3",
    "10536": ">4",
    "10537": ">5",
    "10538": ">6",
    "10539": ">7",
    "10540": ">8",
    "10541": ">9",
    "10542": ">0",
    "10543": ">!",
    "10544": ">@",
    "10545": ">#",
    "10546": ">$",
    "10547": ">%",
    "10548": ">^",
    "10549": ">:",
    "10550": ">&",
    "10551": ">*",
    "10552": ">(",
    "10553": ">)",
    "10554": ">_",
    "10555": ">+",
    "10556": ">=",
    "10557": ">-",
    "10558": ">?",
    "10559": ">/",
    "10560": ">>",
    "10561": ">.",
    "10562": "><",
    "10563": ">,",
    "10564": ">`",
    "10565": ">|",
    "10566": ">\\",
    "10567": ">'",
    "10568": ">\"",
    "10569": ">[",
    "10570": ">]",
    "10571": ">{",
    "10572": ">}",
    "10573": "> ",
    "10574": ".a",
    "10575": ".b",
    "10576": ".c",
    "10577": ".d",
    "10578": ".e",
    "10579": ".f",
    "10580": ".g",
    "10581": ".h",
    "10582": ".i",
    "10583": ".j",
    "10584": ".k",
    "10585": ".l",
    "10586": ".m",
    "10587": ".n",
    "10588": ".o",
    "10589": ".p",
    "10590": ".q",
    "10591": ".r",
    "10592": ".s",
    "10593": ".t",
    "10594": ".u",
    "10595": ".v",
    "10596": ".w",
    "10597": ".x",
    "10598": ".y",
    "10599": ".z",
    "10600": ".а",
    "10601": ".б",
    "10602": ".в",
    "10603": ".г",
    "10604": ".д",
    "10605": ".е",
    "10606": ".ё",
    "10607": ".ж",
    "10608": ".з",
    "10609": ".и",
    "10610": ".й",
    "10611": ".к",
    "10612": ".л",
    "10613": ".м",
    "10614": ".н",
    "10615": ".о",
    "10616": ".п",
    "10617": ".р",
    "10618": ".с",
    "10619": ".т",
    "10620": ".у",
    "10621": ".ф",
    "10622": ".х",
    "10623": ".ц",
    "10624": ".ч",
    "10625": ".ш",
    "10626": ".щ",
    "10627": ".ъ",
    "10628": ".ы",
    "10629": ".ь",
    "10630": ".э",
    "10631": ".ю",
    "10632": ".я",
    "10633": ".ә",
    "10634": ".і",
    "10635": ".ң",
    "10636": ".ғ",
    "10637": ".ү",
    "10638": ".ұ",
    "10639": ".қ",
    "10640": ".ө",
    "10641": ".һ",
    "10642": ".1",
    "10643": ".2",
    "10644": ".3",
    "10645": ".4",
    "10646": ".5",
    "10647": ".6",
    "10648": ".7",
    "10649": ".8",
    "10650": ".9",
    "10651": ".0",
    "10652": ".!",
    "10653": ".@",
    "10654": ".#",
    "10655": ".$",
    "10656": ".%",
    "10657": ".^",
    "10658": ".:",
    "10659": ".&",
    "10660": ".*",
    "10661": ".(",
    "10662": ".)",
    "10663": "._",
    "10664": ".+",
    "10665": ".=",
    "10666": ".-",
    "10667": ".?",
    "10668": "./",
    "10669": ".>",
    "10670": "..",
    "10671": ".<",
    "10672": ".,",
    "10673": ".`",
    "10674": ".|",
    "10675": ".\\",
    "10676": ".'",
    "10677": ".\"",
    "10678": ".[",
    "10679": ".]",
    "10680": ".{",
    "10681": ".}",
    "10682": ". ",
    "10683": "<a",
    "10684": "<b",
    "10685": "<c",
    "10686": "<d",
    "10687": "<e",
    "10688": "<f",
    "10689": "<g",
    "10690": "<h",
    "10691": "<i",
    "10692": "<j",
    "10693": "<k",
    "10694": "<l",
    "10695": "<m",
    "10696": "<n",
    "10697": "<o",
    "10698": "<p",
    "10699": "<q",
    "10700": "<r",
    "10701": "<s",
    "10702": "<t",
    "10703": "<u",
    "10704": "<v",
    "10705": "<w",
    "10706": "<x",
    "10707": "<y",
    "10708": "<z",
    "10709": "<а",
    "10710": "<б",
    "10711": "<в",
    "10712": "<г",
    "10713": "<д",
    "10714": "<е",
    "10715": "<ё",
    "10716": "<ж",
    "10717": "<з",
    "10718": "<и",
    "10719": "<й",
    "10720": "<к",
    "10721": "<л",
    "10722": "<м",
    "10723": "<н",
    "10724": "<о",
    "10725": "<п",
    "10726": "<р",
    "10727": "<с",
    "10728": "<т",
    "10729": "<у",
    "10730": "<ф",
    "10731": "<х",
    "10732": "<ц",
    "10733": "<ч",
    "10734": "<ш",
    "10735": "<щ",
    "10736": "<ъ",
    "10737": "<ы",
    "10738": "<ь",
    "10739": "<э",
    "10740": "<ю",
    "10741": "<я",
    "10742": "<ә",
    "10743": "<і",
    "10744": "<ң",
    "10745": "<ғ",
    "10746": "<ү",
    "10747": "<ұ",
    "10748": "<қ",
    "10749": "<ө",
    "10750": "<һ",
    "10751": "<1",
    "10752": "<2",
    "10753": "<3",
    "10754": "<4",
    "10755": "<5",
    "10756": "<6",
    "10757": "<7",
    "10758": "<8",
    "10759": "<9",
    "10760": "<0",
    "10761": "<!",
    "10762": "<@",
    "10763": "<#",
    "10764": "<$",
    "10765": "<%",
    "10766": "<^",
    "10767": "<:",
    "10768": "<&",
    "10769": "<*",
    "10770": "<(",
    "10771": "<)",
    "10772": "<_",
    "10773": "<+",
    "10774": "<=",
    "10775": "<-",
    "10776": "<?",
    "10777": "</",
    "10778": "<>",
    "10779": "<.",
    "10780": "<<",
    "10781": "<,",
    "10782": "<`",
    "10783": "<|",
    "10784": "<\\",
    "10785": "<'",
    "10786": "<\"",
    "10787": "<[",
    "10788": "<]",
    "10789": "<{",
    "10790": "<}",
    "10791": "< ",
    "10792": ",a",
    "10793": ",b",
    "10794": ",c",
    "10795": ",d",
    "10796": ",e",
    "10797": ",f",
    "10798": ",g",
    "10799": ",h",
    "10800": ",i",
    "10801": ",j",
    "10802": ",k",
    "10803": ",l",
    "10804": ",m",
    "10805": ",n",
    "10806": ",o",
    "10807": ",p",
    "10808": ",q",
    "10809": ",r",
    "10810": ",s",
    "10811": ",t",
    "10812": ",u",
    "10813": ",v",
    "10814": ",w",
    "10815": ",x",
    "10816": ",y",
    "10817": ",z",
    "10818": ",а",
    "10819": ",б",
    "10820": ",в",
    "10821": ",г",
    "10822": ",д",
    "10823": ",е",
    "10824": ",ё",
    "10825": ",ж",
    "10826": ",з",
    "10827": ",и",
    "10828": ",й",
    "10829": ",к",
    "10830": ",л",
    "10831": ",м",
    "10832": ",н",
    "10833": ",о",
    "10834": ",п",
    "10835": ",р",
    "10836": ",с",
    "10837": ",т",
    "10838": ",у",
    "10839": ",ф",
    "10840": ",х",
    "10841": ",ц",
    "10842": ",ч",
    "10843": ",ш",
    "10844": ",щ",
    "10845": ",ъ",
    "10846": ",ы",
    "10847": ",ь",
    "10848": ",э",
    "10849": ",ю",
    "10850": ",я",
    "10851": ",ә",
    "10852": ",і",
    "10853": ",ң",
    "10854": ",ғ",
    "10855": ",ү",
    "10856": ",ұ",
    "10857": ",қ",
    "10858": ",ө",
    "10859": ",һ",
    "10860": ",1",
    "10861": ",2",
    "10862": ",3",
    "10863": ",4",
    "10864": ",5",
    "10865": ",6",
    "10866": ",7",
    "10867": ",8",
    "10868": ",9",
    "10869": ",0",
    "10870": ",!",
    "10871": ",@",
    "10872": ",#",
    "10873": ",$",
    "10874": ",%",
    "10875": ",^",
    "10876": ",:",
    "10877": ",&",
    "10878": ",*",
    "10879": ",(",
    "10880": ",)",
    "10881": ",_",
    "10882": ",+",
    "10883": ",=",
    "10884": ",-",
    "10885": ",?",
    "10886": ",/",
    "10887": ",>",
    "10888": ",.",
    "10889": ",<",
    "10890": ",,",
    "10891": ",`",
    "10892": ",|",
    "10893": ",\\",
    "10894": ",'",
    "10895": ",\"",
    "10896": ",[",
    "10897": ",]",
    "10898": ",{",
    "10899": ",}",
    "10900": ", ",
    "10901": "`a",
    "10902": "`b",
    "10903": "`c",
    "10904": "`d",
    "10905": "`e",
    "10906": "`f",
    "10907": "`g",
    "10908": "`h",
    "10909": "`i",
    "10910": "`j",
    "10911": "`k",
    "10912": "`l",
    "10913": "`m",
    "10914": "`n",
    "10915": "`o",
    "10916": "`p",
    "10917": "`q",
    "10918": "`r",
    "10919": "`s",
    "10920": "`t",
    "10921": "`u",
    "10922": "`v",
    "10923": "`w",
    "10924": "`x",
    "10925": "`y",
    "10926": "`z",
    "10927": "`а",
    "10928": "`б",
    "10929": "`в",
    "10930": "`г",
    "10931": "`д",
    "10932": "`е",
    "10933": "`ё",
    "10934": "`ж",
    "10935": "`з",
    "10936": "`и",
    "10937": "`й",
    "10938": "`к",
    "10939": "`л",
    "10940": "`м",
    "10941": "`н",
    "10942": "`о",
    "10943": "`п",
    "10944": "`р",
    "10945": "`с",
    "10946": "`т",
    "10947": "`у",
    "10948": "`ф",
    "10949": "`х",
    "10950": "`ц",
    "10951": "`ч",
    "10952": "`ш",
    "10953": "`щ",
    "10954": "`ъ",
    "10955": "`ы",
    "10956": "`ь",
    "10957": "`э",
    "10958": "`ю",
    "10959": "`я",
    "10960": "`ә",
    "10961": "`і",
    "10962": "`ң",
    "10963": "`ғ",
    "10964": "`ү",
    "10965": "`ұ",
    "10966": "`қ",
    "10967": "`ө",
    "10968": "`һ",
    "10969": "`1",
    "10970": "`2",
    "10971": "`3",
    "10972": "`4",
    "10973": "`5",
    "10974": "`6",
    "10975": "`7",
    "10976": "`8",
    "10977": "`9",
    "10978": "`0",
    "10979": "`!",
    "10980": "`@",
    "10981": "`#",
    "10982": "`$",
    "10983": "`%",
    "10984": "`^",
    "10985": "`:",
    "10986": "`&",
    "10987": "`*",
    "10988": "`(",
    "10989": "`)",
    "10990": "`_",
    "10991": "`+",
    "10992": "`=",
    "10993": "`-",
    "10994": "`?",
    "10995": "`/",
    "10996": "`>",
    "10997": "`.",
    "10998": "`<",
    "10999": "`,",
    "11000": "``",
    "11001": "`|",
    "11002": "`\\",
    "11003": "`'",
    "11004": "`\"",
    "11005": "`[",
    "11006": "`]",
    "11007": "`{",
    "11008": "`}",
    "11009": "` ",
    "11010": "|a",
    "11011": "|b",
    "11012": "|c",
    "11013": "|d",
    "11014": "|e",
    "11015": "|f",
    "11016": "|g",
    "11017": "|h",
    "11018": "|i",
    "11019": "|j",
    "11020": "|k",
    "11021": "|l",
    "11022": "|m",
    "11023": "|n",
    "11024": "|o",
    "11025": "|p",
    "11026": "|q",
    "11027": "|r",
    "11028": "|s",
    "11029": "|t",
    "11030": "|u",
    "11031": "|v",
    "11032": "|w",
    "11033": "|x",
    "11034": "|y",
    "11035": "|z",
    "11036": "|а",
    "11037": "|б",
    "11038": "|в",
    "11039": "|г",
    "11040": "|д",
    "11041": "|е",
    "11042": "|ё",
    "11043": "|ж",
    "11044": "|з",
    "11045": "|и",
    "11046": "|й",
    "11047": "|к",
    "11048": "|л",
    "11049": "|м",
    "11050": "|н",
    "11051": "|о",
    "11052": "|п",
    "11053": "|р",
    "11054": "|с",
    "11055": "|т",
    "11056": "|у",
    "11057": "|ф",
    "11058": "|х",
    "11059": "|ц",
    "11060": "|ч",
    "11061": "|ш",
    "11062": "|щ",
    "11063": "|ъ",
    "11064": "|ы",
    "11065": "|ь",
    "11066": "|э",
    "11067": "|ю",
    "11068": "|я",
    "11069": "|ә",
    "11070": "|і",
    "11071": "|ң",
    "11072": "|ғ",
    "11073": "|ү",
    "11074": "|ұ",
    "11075": "|қ",
    "11076": "|ө",
    "11077": "|һ",
    "11078": "|1",
    "11079": "|2",
    "11080": "|3",
    "11081": "|4",
    "11082": "|5",
    "11083": "|6",
    "11084": "|7",
    "11085": "|8",
    "11086": "|9",
    "11087": "|0",
    "11088": "|!",
    "11089": "|@",
    "11090": "|#",
    "11091": "|$",
    "11092": "|%",
    "11093": "|^",
    "11094": "|:",
    "11095": "|&",
    "11096": "|*",
    "11097": "|(",
    "11098": "|)",
    "11099": "|_",
    "11100": "|+",
    "11101": "|=",
    "11102": "|-",
    "11103": "|?",
    "11104": "|/",
    "11105": "|>",
[...]
