{
    "a": 1,
    "b": 2,
    "c": 3,
    "d": 4,
    "e": 5,
    "f": 6,
    "g": 7,
    "h": 8,
    "i": 9,
    "j": 10,
    "k": 11,
    "l": 12,
    "m": 13,
    "n": 14,
    "o": 15,
    "p": 16,
    "q": 17,
    "r": 18,
    "s": 19,
    "t": 20,
    "u": 21,
    "v": 22,
    "w": 23,
    "x": 24,
    "y": 25,
    "z": 26,
    "а": 27,
    "б": 28,
    "в": 29,
    "г": 30,
    "д": 31,
    "е": 32,
    "ё": 33,
    "ж": 34,
    "з": 35,
    "и": 36,
    "й": 37,
    "к": 38,
    "л": 39,
    "м": 40,
    "н": 41,
    "о": 42,
    "п": 43,
    "р": 44,
    "с": 45,
    "т": 46,
    "у": 47,
    "ф": 48,
    "х": 49,
    "ц": 50,
    "ч": 51,
    "ш": 52,
    "щ": 53,
    "ъ": 54,
    "ы": 55,
    "ь": 56,
    "э": 57,
    "ю": 58,
    "я": 59,
    "ә": 60,
    "і": 61,
    "ң": 62,
    "ғ": 63,
    "ү": 64,
    "ұ": 65,
    "қ": 66,
    "ө": 67,
    "һ": 68,
    "1": 69,
    "2": 70,
    "3": 71,
    "4": 72,
    "5": 73,
    "6": 74,
    "7": 75,
    "8": 76,
    "9": 77,
    "0": 78,
    "!": 79,
    "@": 80,
    "#": 81,
    "$": 82,
    "%": 83,
    "^": 84,
    "&": 85,
    "*": 86,
    "(": 87,
    ")": 88,
    "_": 89,
    "+": 90,
    "=": 91,
    "-": 92,
    "?": 93,
    "/": 94,
    ">": 95,
    ".": 96,
    "<": 97,
    ",": 98,
    "`": 99,
    "|": 100,
    "\\": 101,
    "'": 102,
    "\"": 103,
    "[": 104,
    "]": 105,
    "{": 106,
    "}": 107,
    " ": 108,
    "aa": 109,
    "ab": 110,
    "ac": 111,
    "ad": 112,
    "ae": 113,
    "af": 114,
    "ag": 115,
    "ah": 116,
    "ai": 117,
    "aj": 118,
    "ak": 119,
    "al": 120,
    "am": 121,
    "an": 122,
    "ao": 123,
    "ap": 124,
    "aq": 125,
    "ar": 126,
    "as": 127,
    "at": 128,
    "au": 129,
    "av": 130,
    "aw": 131,
    "ax": 132,
    "ay": 133,
    "az": 134,
    "aа": 135,
    "aб": 136,
    "aв": 137,
    "aг": 138,
    "aд": 139,
    "aе": 140,
    "aё": 141,
    "aж": 142,
    "aз": 143,
    "aи": 144,
    "aй": 145,
    "aк": 146,
    "aл": 147,
    "aм": 148,
    "aн": 149,
    "aо": 150,
    "aп": 151,
    "aр": 152,
    "aс": 153,
    "aт": 154,
    "aу": 155,
    "aф": 156,
    "aх": 157,
    "aц": 158,
    "aч": 159,
    "aш": 160,
    "aщ": 161,
    "aъ": 162,
    "aы": 163,
    "aь": 164,
    "aэ": 165,
    "aю": 166,
    "aя": 167,
    "aә": 168,
    "aі": 169,
    "aң": 170,
    "aғ": 171,
    "aү": 172,
    "aұ": 173,
    "aқ": 174,
    "aө": 175,
    "aһ": 176,
    "a1": 177,
    "a2": 178,
    "a3": 179,
    "a4": 180,
    "a5": 181,
    "a6": 182,
    "a7": 183,
    "a8": 184,
    "a9": 185,
    "a0": 186,
    "a!": 187,
    "a@": 188,
    "a#": 189,
    "a$": 190,
    "a%": 191,
    "a^": 192,
    "a&": 193,
    "a*": 194,
    "a(": 195,
    "a)": 196,
    "a_": 197,
    "a+": 198,
    "a=": 199,
    "a-": 200,
    "a?": 201,
    "a/": 202,
    "a>": 203,
    "a.": 204,
    "a<": 205,
    "a,": 206,
    "a`": 207,
    "a|": 208,
    "a\\": 209,
    "a'": 210,
    "a\"": 211,
    "a[": 212,
    "a]": 213,
    "a{": 214,
    "a}": 215,
    "a ": 216,
    "ba": 217,
    "bb": 218,
    "bc": 219,
    "bd": 220,
    "be": 221,
    "bf": 222,
    "bg": 223,
    "bh": 224,
    "bi": 225,
    "bj": 226,
    "bk": 227,
    "bl": 228,
    "bm": 229,
    "bn": 230,
    "bo": 231,
    "bp": 232,
    "bq": 233,
    "br": 234,
    "bs": 235,
    "bt": 236,
    "bu": 237,
    "bv": 238,
    "bw": 239,
    "bx": 240,
    "by": 241,
    "bz": 242,
    "bа": 243,
    "bб": 244,
    "bв": 245,
    "bг": 246,
    "bд": 247,
    "bе": 248,
    "bё": 249,
    "bж": 250,
    "bз": 251,
    "bи": 252,
    "bй": 253,
    "bк": 254,
    "bл": 255,
    "bм": 256,
    "bн": 257,
    "bо": 258,
    "bп": 259,
    "bр": 260,
    "bс": 261,
    "bт": 262,
    "bу": 263,
    "bф": 264,
    "bх": 265,
    "bц": 266,
    "bч": 267,
    "bш": 268,
    "bщ": 269,
    "bъ": 270,
    "bы": 271,
    "bь": 272,
    "bэ": 273,
    "bю": 274,
    "bя": 275,
    "bә": 276,
    "bі": 277,
    "bң": 278,
    "bғ": 279,
    "bү": 280,
    "bұ": 281,
    "bқ": 282,
    "bө": 283,
    "bһ": 284,
    "b1": 285,
    "b2": 286,
    "b3": 287,
    "b4": 288,
    "b5": 289,
    "b6": 290,
    "b7": 291,
    "b8": 292,
    "b9": 293,
    "b0": 294,
    "b!": 295,
    "b@": 296,
    "b#": 297,
    "b$": 298,
    "b%": 299,
    "b^": 300,
    "b&": 301,
    "b*": 302,
    "b(": 303,
    "b)": 304,
    "b_": 305,
    "b+": 306,
    "b=": 307,
    "b-": 308,
    "b?": 309,
    "b/": 310,
    "b>": 311,
    "b.": 312,
    "b<": 313,
    "b,": 314,
    "b`": 315,
    "b|": 316,
    "b\\": 317,
    "b'": 318,
    "b\"": 319,
    "b[": 320,
    "b]": 321,
    "b{": 322,
    "b}": 323,
    "b ": 324,
    "ca": 325,
    "cb": 326,
    "cc": 327,
    "cd": 328,
    "ce": 329,
    "cf": 330,
    "cg": 331,
    "ch": 332,
    "ci": 333,
    "cj": 334,
    "ck": 335,
    "cl": 336,
    "cm": 337,
    "cn": 338,
    "co": 339,
    "cp": 340,
    "cq": 341,
    "cr": 342,
    "cs": 343,
    "ct": 344,
    "cu": 345,
    "cv": 346,
    "cw": 347,
    "cx": 348,
    "cy": 349,
    "cz": 350,
    "cа": 351,
    "cб": 352,
    "cв": 353,
    "cг": 354,
    "cд": 355,
    "cе": 356,
    "cё": 357,
    "cж": 358,
    "cз": 359,
    "cи": 360,
    "cй": 361,
    "cк": 362,
    "cл": 363,
    "cм": 364,
    "cн": 365,
    "cо": 366,
    "cп": 367,
    "cр": 368,
    "cс": 369,
    "cт": 370,
    "cу": 371,
    "cф": 372,
    "cх": 373,
    "cц": 374,
    "cч": 375,
    "cш": 376,
    "cщ": 377,
    "cъ": 378,
    "cы": 379,
    "cь": 380,
    "cэ": 381,
    "cю": 382,
    "cя": 383,
    "cә": 384,
    "cі": 385,
    "cң": 386,
    "cғ": 387,
    "cү": 388,
    "cұ": 389,
    "cқ": 390,
    "cө": 391,
    "cһ": 392,
    "c1": 393,
    "c2": 394,
    "c3": 395,
    "c4": 396,
    "c5": 397,
    "c6": 398,
    "c7": 399,
    "c8": 400,
    "c9": 401,
    "c0": 402,
    "c!": 403,
    "c@": 404,
    "c#": 405,
    "c$": 406,
    "c%": 407,
    "c^": 408,
    "c&": 409,
    "c*": 410,
    "c(": 411,
    "c)": 412,
    "c_": 413,
    "c+": 414,
    "c=": 415,
    "c-": 416,
    "c?": 417,
    "c/": 418,
    "c>": 419,
    "c.": 420,
    "c<": 421,
    "c,": 422,
    "c`": 423,
    "c|": 424,
    "c\\": 425,
    "c'": 426,
    "c\"": 427,
    "c[": 428,
    "c]": 429,
    "c{": 430,
    "c}": 431,
    "c ": 432,
    "da": 433,
    "db": 434,
    "dc": 435,
    "dd": 436,
    "de": 437,
    "df": 438,
    "dg": 439,
    "dh": 440,
    "di": 441,
    "dj": 442,
    "dk": 443,
    "dl": 444,
    "dm": 445,
    "dn": 446,
    "do": 447,
    "dp": 448,
    "dq": 449,
    "dr": 450,
    "ds": 451,
    "dt": 452,
    "du": 453,
    "dv": 454,
    "dw": 455,
    "dx": 456,
    "dy": 457,
    "dz": 458,
    "dа": 459,
    "dб": 460,
    "dв": 461,
    "dг": 462,
    "dд": 463,
    "dе": 464,
    "dё": 465,
    "dж": 466,
    "dз": 467,
    "dи": 468,
    "dй": 469,
    "dк": 470,
    "dл": 471,
    "dм": 472,
    "dн": 473,
    "dо": 474,
    "dп": 475,
    "dр": 476,
    "dс": 477,
    "dт": 478,
    "dу": 479,
    "dф": 480,
    "dх": 481,
    "dц": 482,
    "dч": 483,
    "dш": 484,
    "dщ": 485,
    "dъ": 486,
    "dы": 487,
    "dь": 488,
    "dэ": 489,
    "dю": 490,
    "dя": 491,
    "dә": 492,
    "dі": 493,
    "dң": 494,
    "dғ": 495,
    "dү": 496,
    "dұ": 497,
    "dқ": 498,
    "dө": 499,
    "dһ": 500,
    "d1": 501,
    "d2": 502,
    "d3": 503,
    "d4": 504,
    "d5": 505,
    "d6": 506,
    "d7": 507,
    "d8": 508,
    "d9": 509,
    "d0": 510,
    "d!": 511,
    "d@": 512,
    "d#": 513,
    "d$": 514,
    "d%": 515,
    "d^": 516,
    "d&": 517,
    "d*": 518,
    "d(": 519,
    "d)": 520,
    "d_": 521,
    "d+": 522,
    "d=": 523,
    "d-": 524,
    "d?": 525,
    "d/": 526,
    "d>": 527,
    "d.": 528,
    "d<": 529,
    "d,": 530,
    "d`": 531,
    "d|": 532,
    "d\\": 533,
    "d'": 534,
    "d\"": 535,
    "d[": 536,
    "d]": 537,
    "d{": 538,
    "d}": 539,
    "d ": 540,
    "ea": 541,
    "eb": 542,
    "ec": 543,
    "ed": 544,
    "ee": 545,
    "ef": 546,
    "eg": 547,
    "eh": 548,
    "ei": 549,
    "ej": 550,
    "ek": 551,
    "el": 552,
    "em": 553,
    "en": 554,
    "eo": 555,
    "ep": 556,
    "eq": 557,
    "er": 558,
    "es": 559,
    "et": 560,
    "eu": 561,
    "ev": 562,
    "ew": 563,
    "ex": 564,
    "ey": 565,
    "ez": 566,
    "eа": 567,
    "eб": 568,
    "eв": 569,
    "eг": 570,
    "eд": 571,
    "eе": 572,
    "eё": 573,
    "eж": 574,
    "eз": 575,
    "eи": 576,
    "eй": 577,
    "eк": 578,
    "eл": 579,
    "eм": 580,
    "eн": 581,
    "eо": 582,
    "eп": 583,
    "eр": 584,
    "eс": 585,
    "eт": 586,
    "eу": 587,
    "eф": 588,
    "eх": 589,
    "eц": 590,
    "eч": 591,
    "eш": 592,
    "eщ": 593,
    "eъ": 594,
    "eы": 595,
    "eь": 596,
    "eэ": 597,
    "eю": 598,
    "eя": 599,
    "eә": 600,
    "eі": 601,
    "eң": 602,
    "eғ": 603,
    "eү": 604,
    "eұ": 605,
    "eқ": 606,
    "eө": 607,
    "eһ": 608,
    "e1": 609,
    "e2": 610,
    "e3": 611,
    "e4": 612,
    "e5": 613,
    "e6": 614,
    "e7": 615,
    "e8": 616,
    "e9": 617,
    "e0": 618,
    "e!": 619,
    "e@": 620,
    "e#": 621,
    "e$": 622,
    "e%": 623,
    "e^": 624,
    "e&": 625,
    "e*": 626,
    "e(": 627,
    "e)": 628,
    "e_": 629,
    "e+": 630,
    "e=": 631,
    "e-": 632,
    "e?": 633,
    "e/": 634,
    "e>": 635,
    "e.": 636,
    "e<": 637,
    "e,": 638,
    "e`": 639,
    "e|": 640,
    "e\\": 641,
    "e'": 642,
    "e\"": 643,
    "e[": 644,
    "e]": 645,
    "e{": 646,
    "e}": 647,
    "e ": 648,
    "fa": 649,
    "fb": 650,
    "fc": 651,
    "fd": 652,
    "fe": 653,
    "ff": 654,
    "fg": 655,
    "fh": 656,
    "fi": 657,
    "fj": 658,
    "fk": 659,
    "fl": 660,
    "fm": 661,
    "fn": 662,
    "fo": 663,
    "fp": 664,
    "fq": 665,
    "fr": 666,
    "fs": 667,
    "ft": 668,
    "fu": 669,
    "fv": 670,
    "fw": 671,
    "fx": 672,
    "fy": 673,
    "fz": 674,
    "fа": 675,
    "fб": 676,
    "fв": 677,
    "fг": 678,
    "fд": 679,
    "fе": 680,
    "fё": 681,
    "fж": 682,
    "fз": 683,
    "fи": 684,
    "fй": 685,
    "fк": 686,
    "fл": 687,
    "fм": 688,
    "fн": 689,
    "fо": 690,
    "fп": 691,
    "fр": 692,
    "fс": 693,
    "fт": 694,
    "fу": 695,
    "fф": 696,
    "fх": 697,
    "fц": 698,
    "fч": 699,
    "fш": 700,
    "fщ": 701,
    "fъ": 702,
    "fы": 703,
    "fь": 704,
    "fэ": 705,
    "fю": 706,
    "fя": 707,
    "fә": 708,
    "fі": 709,
    "fң": 710,
    "fғ": 711,
    "fү": 712,
    "fұ": 713,
    "fқ": 714,
    "fө": 715,
    "fһ": 716,
    "f1": 717,
    "f2": 718,
    "f3": 719,
    "f4": 720,
    "f5": 721,
    "f6": 722,
    "f7": 723,
    "f8": 724,
    "f9": 725,
    "f0": 726,
    "f!": 727,
    "f@": 728,
    "f#": 729,
    "f$": 730,
    "f%": 731,
    "f^": 732,
    "f&": 733,
    "f*": 734,
    "f(": 735,
    "f)": 736,
    "f_": 737,
    "f+": 738,
    "f=": 739,
    "f-": 740,
    "f?": 741,
    "f/": 742,
    "f>": 743,
    "f.": 744,
    "f<": 745,
    "f,": 746,
    "f`": 747,
    "f|": 748,
    "f\\": 749,
    "f'": 750,
    "f\"": 751,
    "f[": 752,
    "f]": 753,
    "f{": 754,
    "f}": 755,
    "f ": 756,
    "ga": 757,
    "gb": 758,
    "gc": 759,
    "gd": 760,
    "ge": 761,
    "gf": 762,
    "gg": 763,
    "gh": 764,
    "gi": 765,
    "gj": 766,
    "gk": 767,
    "gl": 768,
    "gm": 769,
    "gn": 770,
    "go": 771,
    "gp": 772,
    "gq": 773,
    "gr": 774,
    "gs": 775,
    "gt": 776,
    "gu": 777,
    "gv": 778,
    "gw": 779,
    "gx": 780,
    "gy": 781,
    "gz": 782,
    "gа": 783,
    "gб": 784,
    "gв": 785,
    "gг": 786,
    "gд": 787,
    "gе": 788,
    "gё": 789,
    "gж": 790,
    "gз": 791,
    "gи": 792,
    "gй": 793,
    "gк": 794,
    "gл": 795,
    "gм": 796,
    "gн": 797,
    "gо": 798,
    "gп": 799,
    "gр": 800,
    "gс": 801,
    "gт": 802,
    "gу": 803,
    "gф": 804,
    "gх": 805,
    "gц": 806,
    "gч": 807,
    "gш": 808,
    "gщ": 809,
    "gъ": 810,
    "gы": 811,
    "gь": 812,
    "gэ": 813,
    "gю": 814,
    "gя": 815,
    "gә": 816,
    "gі": 817,
    "gң": 818,
    "gғ": 819,
    "gү": 820,
    "gұ": 821,
    "gқ": 822,
    "gө": 823,
    "gһ": 824,
    "g1": 825,
    "g2": 826,
    "g3": 827,
    "g4": 828,
    "g5": 829,
    "g6": 830,
    "g7": 831,
    "g8": 832,
    "g9": 833,
    "g0": 834,
    "g!": 835,
    "g@": 836,
    "g#": 837,
    "g$": 838,
    "g%": 839,
    "g^": 840,
    "g&": 841,
    "g*": 842,
    "g(": 843,
    "g)": 844,
    "g_": 845,
    "g+": 846,
    "g=": 847,
    "g-": 848,
    "g?": 849,
    "g/": 850,
    "g>": 851,
    "g.": 852,
    "g<": 853,
    "g,": 854,
    "g`": 855,
    "g|": 856,
    "g\\": 857,
    "g'": 858,
    "g\"": 859,
    "g[": 860,
    "g]": 861,
    "g{": 862,
    "g}": 863,
    "g ": 864,
    "ha": 865,
    "hb": 866,
    "hc": 867,
    "hd": 868,
    "he": 869,
    "hf": 870,
    "hg": 871,
    "hh": 872,
    "hi": 873,
    "hj": 874,
    "hk": 875,
    "hl": 876,
    "hm": 877,
    "hn": 878,
    "ho": 879,
    "hp": 880,
    "hq": 881,
    "hr": 882,
    "hs": 883,
    "ht": 884,
    "hu": 885,
    "hv": 886,
    "hw": 887,
    "hx": 888,
    "hy": 889,
    "hz": 890,
    "hа": 891,
    "hб": 892,
    "hв": 893,
    "hг": 894,
    "hд": 895,
    "hе": 896,
    "hё": 897,
    "hж": 898,
    "hз": 899,
    "hи": 900,
    "hй": 901,
    "hк": 902,
    "hл": 903,
    "hм": 904,
    "hн": 905,
    "hо": 906,
    "hп": 907,
    "hр": 908,
    "hс": 909,
    "hт": 910,
    "hу": 911,
    "hф": 912,
    "hх": 913,
    "hц": 914,
    "hч": 915,
    "hш": 916,
    "hщ": 917,
    "hъ": 918,
    "hы": 919,
    "hь": 920,
    "hэ": 921,
    "hю": 922,
    "hя": 923,
    "hә": 924,
    "hі": 925,
    "hң": 926,
    "hғ": 927,
    "hү": 928,
    "hұ": 929,
    "hқ": 930,
    "hө": 931,
    "hһ": 932,
    "h1": 933,
    "h2": 934,
    "h3": 935,
    "h4": 936,
    "h5": 937,
    "h6": 938,
    "h7": 939,
    "h8": 940,
    "h9": 941,
    "h0": 942,
    "h!": 943,
    "h@": 944,
    "h#": 945,
    "h$": 946,
    "h%": 947,
    "h^": 948,
    "h&": 949,
    "h*": 950,
    "h(": 951,
    "h)": 952,
    "h_": 953,
    "h+": 954,
    "h=": 955,
    "h-": 956,
    "h?": 957,
    "h/": 958,
    "h>": 959,
    "h.": 960,
    "h<": 961,
    "h,": 962,
    "h`": 963,
    "h|": 964,
    "h\\": 965,
    "h'": 966,
    "h\"": 967,
    "h[": 968,
    "h]": 969,
    "h{": 970,
    "h}": 971,
    "h ": 972,
    "ia": 973,
    "ib": 974,
    "ic": 975,
    "id": 976,
    "ie": 977,
    "if": 978,
    "ig": 979,
    "ih": 980,
    "ii": 981,
    "ij": 982,
    "ik": 983,
    "il": 984,
    "im": 985,
    "in": 986,
    "io": 987,
    "ip": 988,
    "iq": 989,
    "ir": 990,
    "is": 991,
    "it": 992,
    "iu": 993,
    "iv": 994,
    "iw": 995,
    "ix": 996,
    "iy": 997,
    "iz": 998,
    "iа": 999,
    "iб": 1000,
    "iв": 1001,
    "iг": 1002,
    "iд": 1003,
    "iе": 1004,
    "iё": 1005,
    "iж": 1006,
    "iз": 1007,
    "iи": 1008,
    "iй": 1009,
    "iк": 1010,
    "iл": 1011,
    "iм": 1012,
    "iн": 1013,
    "iо": 1014,
    "iп": 1015,
    "iр": 1016,
    "iс": 1017,
    "iт": 1018,
    "iу": 1019,
    "iф": 1020,
    "iх": 1021,
    "iц": 1022,
    "iч": 1023,
    "iш": 1024,
    "iщ": 1025,
    "iъ": 1026,
    "iы": 1027,
    "iь": 1028,
    "iэ": 1029,
    "iю": 1030,
    "iя": 1031,
    "iә": 1032,
    "iі": 1033,
    "iң": 1034,
    "iғ": 1035,
    "iү": 1036,
    "iұ": 1037,
    "iқ": 1038,
    "iө": 1039,
    "iһ": 1040,
    "i1": 1041,
    "i2": 1042,
    "i3": 1043,
    "i4": 1044,
    "i5": 1045,
    "i6": 1046,
    "i7": 1047,
    "i8": 1048,
    "i9": 1049,
    "i0": 1050,
    "i!": 1051,
    "i@": 1052,
    "i#": 1053,
    "i$": 1054,
    "i%": 1055,
    "i^": 1056,
    "i&": 1057,
    "i*": 1058,
    "i(": 1059,
    "i)": 1060,
    "i_": 1061,
    "i+": 1062,
    "i=": 1063,
    "i-": 1064,
    "i?": 1065,
    "i/": 1066,
    "i>": 1067,
    "i.": 1068,
    "i<": 1069,
    "i,": 1070,
    "i`": 1071,
    "i|": 1072,
    "i\\": 1073,
    "i'": 1074,
    "i\"": 1075,
    "i[": 1076,
    "i]": 1077,
    "i{": 1078,
    "i}": 1079,
    "i ": 1080,
    "ja": 1081,
    "jb": 1082,
    "jc": 1083,
    "jd": 1084,
    "je": 1085,
    "jf": 1086,
    "jg": 1087,
    "jh": 1088,
    "ji": 1089,
    "jj": 1090,
    "jk": 1091,
    "jl": 1092,
    "jm": 1093,
    "jn": 1094,
    "jo": 1095,
    "jp": 1096,
    "jq": 1097,
    "jr": 1098,
    "js": 1099,
    "jt": 1100,
    "ju": 1101,
    "jv": 1102,
    "jw": 1103,
    "jx": 1104,
    "jy": 1105,
    "jz": 1106,
    "jа": 1107,
    "jб": 1108,
    "jв": 1109,
    "jг": 1110,
    "jд": 1111,
    "jе": 1112,
    "jё": 1113,
    "jж": 1114,
    "jз": 1115,
    "jи": 1116,
    "jй": 1117,
    "jк": 1118,
    "jл": 1119,
    "jм": 1120,
    "jн": 1121,
    "jо": 1122,
    "jп": 1123,
    "jр": 1124,
    "jс": 1125,
    "jт": 1126,
    "jу": 1127,
    "jф": 1128,
    "jх": 1129,
    "jц": 1130,
    "jч": 1131,
    "jш": 1132,
    "jщ": 1133,
    "jъ": 1134,
    "jы": 1135,
    "jь": 1136,
    "jэ": 1137,
    "jю": 1138,
    "jя": 1139,
    "jә": 1140,
    "jі": 1141,
    "jң": 1142,
    "jғ": 1143,
    "jү": 1144,
    "jұ": 1145,
    "jқ": 1146,
    "jө": 1147,
    "jһ": 1148,
    "j1": 1149,
    "j2": 1150,
    "j3": 1151,
    "j4": 1152,
    "j5": 1153,
    "j6": 1154,
    "j7": 1155,
    "j8": 1156,
    "j9": 1157,
    "j0": 1158,
    "j!": 1159,
    "j@": 1160,
    "j#": 1161,
    "j$": 1162,
    "j%": 1163,
    "j^": 1164,
    "j&": 1165,
    "j*": 1166,
    "j(": 1167,
    "j)": 1168,
    "j_": 1169,
    "j+": 1170,
    "j=": 1171,
    "j-": 1172,
    "j?": 1173,
    "j/": 1174,
    "j>": 1175,
    "j.": 1176,
    "j<": 1177,
    "j,": 1178,
    "j`": 1179,
    "j|": 1180,
    "j\\": 1181,
    "j'": 1182,
    "j\"": 1183,
    "j[": 1184,
    "j]": 1185,
    "j{": 1186,
    "j}": 1187,
    "j ": 1188,
    "ka": 1189,
    "kb": 1190,
    "kc": 1191,
    "kd": 1192,
    "ke": 1193,
    "kf": 1194,
    "kg": 1195,
    "kh": 1196,
    "ki": 1197,
    "kj": 1198,
    "kk": 1199,
    "kl": 1200,
    "km": 1201,
    "kn": 1202,
    "ko": 1203,
    "kp": 1204,
    "kq": 1205,
    "kr": 1206,
    "ks": 1207,
    "kt": 1208,
    "ku": 1209,
    "kv": 1210,
    "kw": 1211,
    "kx": 1212,
    "ky": 1213,
    "kz": 1214,
    "kа": 1215,
    "kб": 1216,
    "kв": 1217,
    "kг": 1218,
    "kд": 1219,
    "kе": 1220,
    "kё": 1221,
    "kж": 1222,
    "kз": 1223,
    "kи": 1224,
    "kй": 1225,
    "kк": 1226,
    "kл": 1227,
    "kм": 1228,
    "kн": 1229,
    "kо": 1230,
    "kп": 1231,
    "kр": 1232,
    "kс": 1233,
    "kт": 1234,
    "kу": 1235,
    "kф": 1236,
    "kх": 1237,
    "kц": 1238,
    "kч": 1239,
    "kш": 1240,
    "kщ": 1241,
    "kъ": 1242,
    "kы": 1243,
    "kь": 1244,
    "kэ": 1245,
    "kю": 1246,
    "kя": 1247,
    "kә": 1248,
    "kі": 1249,
    "kң": 1250,
    "kғ": 1251,
    "kү": 1252,
    "kұ": 1253,
    "kқ": 1254,
    "kө": 1255,
    "kһ": 1256,
    "k1": 1257,
    "k2": 1258,
    "k3": 1259,
    "k4": 1260,
    "k5": 1261,
    "k6": 1262,
    "k7": 1263,
    "k8": 1264,
    "k9": 1265,
    "k0": 1266,
    "k!": 1267,
    "k@": 1268,
    "k#": 1269,
    "k$": 1270,
    "k%": 1271,
    "k^": 1272,
    "k&": 1273,
    "k*": 1274,
    "k(": 1275,
    "k)": 1276,
    "k_": 1277,
    "k+": 1278,
    "k=": 1279,
    "k-": 1280,
    "k?": 1281,
    "k/": 1282,
    "k>": 1283,
    "k.": 1284,
    "k<": 1285,
    "k,": 1286,
    "k`": 1287,
    "k|": 1288,
    "k\\": 1289,
    "k'": 1290,
    "k\"": 1291,
    "k[": 1292,
    "k]": 1293,
    "k{": 1294,
    "k}": 1295,
    "k ": 1296,
    "la": 1297,
    "lb": 1298,
    "lc": 1299,
    "ld": 1300,
    "le": 1301,
    "lf": 1302,
    "lg": 1303,
    "lh": 1304,
    "li": 1305,
    "lj": 1306,
    "lk": 1307,
    "ll": 1308,
    "lm": 1309,
    "ln": 1310,
    "lo": 1311,
    "lp": 1312,
    "lq": 1313,
    "lr": 1314,
    "ls": 1315,
    "lt": 1316,
    "lu": 1317,
    "lv": 1318,
    "lw": 1319,
    "lx": 1320,
    "ly": 1321,
    "lz": 1322,
    "lа": 1323,
    "lб": 1324,
    "lв": 1325,
    "lг": 1326,
    "lд": 1327,
    "lе": 1328,
    "lё": 1329,
    "lж": 1330,
    "lз": 1331,
    "lи": 1332,
    "lй": 1333,
    "lк": 1334,
    "lл": 1335,
    "lм": 1336,
    "lн": 1337,
    "lо": 1338,
    "lп": 1339,
    "lр": 1340,
    "lс": 1341,
    "lт": 1342,
    "lу": 1343,
    "lф": 1344,
    "lх": 1345,
    "lц": 1346,
    "lч": 1347,
    "lш": 1348,
    "lщ": 1349,
    "lъ": 1350,
    "lы": 1351,
    "lь": 1352,
    "lэ": 1353,
    "lю": 1354,
    "lя": 1355,
    "lә": 1356,
    "lі": 1357,
    "lң": 1358,
    "lғ": 1359,
    "lү": 1360,
    "lұ": 1361,
    "lқ": 1362,
    "lө": 1363,
    "lһ": 1364,
    "l1": 1365,
    "l2": 1366,
    "l3": 1367,
    "l4": 1368,
    "l5": 1369,
    "l6": 1370,
    "l7": 1371,
    "l8": 1372,
    "l9": 1373,
    "l0": 1374,
    "l!": 1375,
    "l@": 1376,
    "l#": 1377,
    "l$": 1378,
    "l%": 1379,
    "l^": 1380,
    "l&": 1381,
    "l*": 1382,
    "l(": 1383,
    "l)": 1384,
    "l_": 1385,
    "l+": 1386,
    "l=": 1387,
    "l-": 1388,
    "l?": 1389,
    "l/": 1390,
    "l>": 1391,
    "l.": 1392,
    "l<": 1393,
    "l,": 1394,
    "l`": 1395,
    "l|": 1396,
    "l\\": 1397,
    "l'": 1398,
    "l\"": 1399,
    "l[": 1400,
    "l]": 1401,
    "l{": 1402,
    "l}": 1403,
    "l ": 1404,
    "ma": 1405,
    "mb": 1406,
    "mc": 1407,
    "md": 1408,
    "me": 1409,
    "mf": 1410,
    "mg": 1411,
    "mh": 1412,
    "mi": 1413,
    "mj": 1414,
    "mk": 1415,
    "ml": 1416,
    "mm": 1417,
    "mn": 1418,
    "mo": 1419,
    "mp": 1420,
    "mq": 1421,
    "mr": 1422,
    "ms": 1423,
    "mt": 1424,
    "mu": 1425,
    "mv": 1426,
    "mw": 1427,
    "mx": 1428,
    "my": 1429,
    "mz": 1430,
    "mа": 1431,
    "mб": 1432,
    "mв": 1433,
    "mг": 1434,
    "mд": 1435,
    "mе": 1436,
    "mё": 1437,
    "mж": 1438,
    "mз": 1439,
    "mи": 1440,
    "mй": 1441,
    "mк": 1442,
    "mл": 1443,
    "mм": 1444,
    "mн": 1445,
    "mо": 1446,
    "mп": 1447,
    "mр": 1448,
    "mс": 1449,
    "mт": 1450,
    "mу": 1451,
    "mф": 1452,
    "mх": 1453,
    "mц": 1454,
    "mч": 1455,
    "mш": 1456,
    "mщ": 1457,
    "mъ": 1458,
    "mы": 1459,
    "mь": 1460,
    "mэ": 1461,
    "mю": 1462,
    "mя": 1463,
    "mә": 1464,
    "mі": 1465,
    "mң": 1466,
    "mғ": 1467,
    "mү": 1468,
    "mұ": 1469,
    "mқ": 1470,
    "mө": 1471,
    "mһ": 1472,
    "m1": 1473,
    "m2": 1474,
    "m3": 1475,
    "m4": 1476,
    "m5": 1477,
    "m6": 1478,
    "m7": 1479,
    "m8": 1480,
    "m9": 1481,
    "m0": 1482,
    "m!": 1483,
    "m@": 1484,
    "m#": 1485,
    "m$": 1486,
    "m%": 1487,
    "m^": 1488,
    "m&": 1489,
    "m*": 1490,
    "m(": 1491,
    "m)": 1492,
    "m_": 1493,
    "m+": 1494,
    "m=": 1495,
    "m-": 1496,
    "m?": 1497,
    "m/": 1498,
    "m>": 1499,
    "m.": 1500,
    "m<": 1501,
    "m,": 1502,
    "m`": 1503,
    "m|": 1504,
    "m\\": 1505,
    "m'": 1506,
    "m\"": 1507,
    "m[": 1508,
    "m]": 1509,
    "m{": 1510,
    "m}": 1511,
    "m ": 1512,
    "na": 1513,
    "nb": 1514,
    "nc": 1515,
    "nd": 1516,
    "ne": 1517,
    "nf": 1518,
    "ng": 1519,
    "nh": 1520,
    "ni": 1521,
    "nj": 1522,
    "nk": 1523,
    "nl": 1524,
    "nm": 1525,
    "nn": 1526,
    "no": 1527,
    "np": 1528,
    "nq": 1529,
    "nr": 1530,
    "ns": 1531,
    "nt": 1532,
    "nu": 1533,
    "nv": 1534,
    "nw": 1535,
    "nx": 1536,
    "ny": 1537,
    "nz": 1538,
    "nа": 1539,
    "nб": 1540,
    "nв": 1541,
    "nг": 1542,
    "nд": 1543,
    "nе": 1544,
    "nё": 1545,
    "nж": 1546,
    "nз": 1547,
    "nи": 1548,
    "nй": 1549,
    "nк": 1550,
    "nл": 1551,
    "nм": 1552,
    "nн": 1553,
    "nо": 1554,
    "nп": 1555,
    "nр": 1556,
    "nс": 1557,
    "nт": 1558,
    "nу": 1559,
    "nф": 1560,
    "nх": 1561,
    "nц": 1562,
    "nч": 1563,
    "nш": 1564,
    "nщ": 1565,
    "nъ": 1566,
    "nы": 1567,
    "nь": 1568,
    "nэ": 1569,
    "nю": 1570,
    "nя": 1571,
    "nә": 1572,
    "nі": 1573,
    "nң": 1574,
    "nғ": 1575,
    "nү": 1576,
    "nұ": 1577,
    "nқ": 1578,
    "nө": 1579,
    "nһ": 1580,
    "n1": 1581,
    "n2": 1582,
    "n3": 1583,
    "n4": 1584,
    "n5": 1585,
    "n6": 1586,
    "n7": 1587,
    "n8": 1588,
    "n9": 1589,
    "n0": 1590,
    "n!": 1591,
    "n@": 1592,
    "n#": 1593,
    "n$": 1594,
    "n%": 1595,
    "n^": 1596,
    "n&": 1597,
    "n*": 1598,
    "n(": 1599,
    "n)": 1600,
    "n_": 1601,
    "n+": 1602,
    "n=": 1603,
    "n-": 1604,
    "n?": 1605,
    "n/": 1606,
    "n>": 1607,
    "n.": 1608,
    "n<": 1609,
    "n,": 1610,
    "n`": 1611,
    "n|": 1612,
    "n\\": 1613,
    "n'": 1614,
    "n\"": 1615,
    "n[": 1616,
    "n]": 1617,
    "n{": 1618,
    "n}": 1619,
    "n ": 1620,
    "oa": 1621,
    "ob": 1622,
    "oc": 1623,
    "od": 1624,
    "oe": 1625,
    "of": 1626,
    "og": 1627,
    "oh": 1628,
    "oi": 1629,
    "oj": 1630,
    "ok": 1631,
    "ol": 1632,
    "om": 1633,
    "on": 1634,
    "oo": 1635,
    "op": 1636,
    "oq": 1637,
    "or": 1638,
    "os": 1639,
    "ot": 1640,
    "ou": 1641,
    "ov": 1642,
    "ow": 1643,
    "ox": 1644,
    "oy": 1645,
    "oz": 1646,
    "oа": 1647,
    "oб": 1648,
    "oв": 1649,
    "oг": 1650,
    "oд": 1651,
    "oе": 1652,
    "oё": 1653,
    "oж": 1654,
    "oз": 1655,
    "oи": 1656,
    "oй": 1657,
    "oк": 1658,
    "oл": 1659,
    "oм": 1660,
    "oн": 1661,
    "oо": 1662,
    "oп": 1663,
    "oр": 1664,
    "oс": 1665,
    "oт": 1666,
    "oу": 1667,
    "oф": 1668,
    "oх": 1669,
    "oц": 1670,
    "oч": 1671,
    "oш": 1672,
    "oщ": 1673,
    "oъ": 1674,
    "oы": 1675,
    "oь": 1676,
    "oэ": 1677,
    "oю": 1678,
    "oя": 1679,
    "oә": 1680,
    "oі": 1681,
    "oң": 1682,
    "oғ": 1683,
    "oү": 1684,
    "oұ": 1685,
    "oқ": 1686,
    "oө": 1687,
    "oһ": 1688,
    "o1": 1689,
    "o2": 1690,
    "o3": 1691,
    "o4": 1692,
    "o5": 1693,
    "o6": 1694,
    "o7": 1695,
    "o8": 1696,
    "o9": 1697,
    "o0": 1698,
    "o!": 1699,
    "o@": 1700,
    "o#": 1701,
    "o$": 1702,
    "o%": 1703,
    "o^": 1704,
    "o&": 1705,
    "o*": 1706,
    "o(": 1707,
    "o)": 1708,
    "o_": 1709,
    "o+": 1710,
    "o=": 1711,
    "o-": 1712,
    "o?": 1713,
    "o/": 1714,
    "o>": 1715,
    "o.": 1716,
    "o<": 1717,
    "o,": 1718,
    "o`": 1719,
    "o|": 1720,
    "o\\": 1721,
    "o'": 1722,
    "o\"": 1723,
    "o[": 1724,
    "o]": 1725,
    "o{": 1726,
    "o}": 1727,
    "o ": 1728,
    "pa": 1729,
    "pb": 1730,
    "pc": 1731,
    "pd": 1732,
    "pe": 1733,
    "pf": 1734,
    "pg": 1735,
    "ph": 1736,
    "pi": 1737,
    "pj": 1738,
    "pk": 1739,
    "pl": 1740,
    "pm": 1741,
    "pn": 1742,
    "po": 1743,
    "pp": 1744,
    "pq": 1745,
    "pr": 1746,
    "ps": 1747,
    "pt": 1748,
    "pu": 1749,
    "pv": 1750,
    "pw": 1751,
    "px": 1752,
    "py": 1753,
    "pz": 1754,
    "pа": 1755,
    "pб": 1756,
    "pв": 1757,
    "pг": 1758,
    "pд": 1759,
    "pе": 1760,
    "pё": 1761,
    "pж": 1762,
    "pз": 1763,
    "pи": 1764,
    "pй": 1765,
    "pк": 1766,
    "pл": 1767,
    "pм": 1768,
    "pн": 1769,
    "pо": 1770,
    "pп": 1771,
    "pр": 1772,
    "pс": 1773,
    "pт": 1774,
    "pу": 1775,
    "pф": 1776,
    "pх": 1777,
    "pц": 1778,
    "pч": 1779,
    "pш": 1780,
    "pщ": 1781,
    "pъ": 1782,
    "pы": 1783,
    "pь": 1784,
    "pэ": 1785,
    "pю": 1786,
    "pя": 1787,
    "pә": 1788,
    "pі": 1789,
    "pң": 1790,
    "pғ": 1791,
    "pү": 1792,
    "pұ": 1793,
    "pқ": 1794,
    "pө": 1795,
    "pһ": 1796,
    "p1": 1797,
    "p2": 1798,
    "p3": 1799,
    "p4": 1800,
    "p5": 1801,
    "p6": 1802,
    "p7": 1803,
    "p8": 1804,
    "p9": 1805,
    "p0": 1806,
    "p!": 1807,
    "p@": 1808,
    "p#": 1809,
    "p$": 1810,
    "p%": 1811,
    "p^": 1812,
    "p&": 1813,
    "p*": 1814,
    "p(": 1815,
    "p)": 1816,
    "p_": 1817,
    "p+": 1818,
    "p=": 1819,
    "p-": 1820,
    "p?": 1821,
    "p/": 1822,
    "p>": 1823,
    "p.": 1824,
    "p<": 1825,
    "p,": 1826,
    "p`": 1827,
    "p|": 1828,
    "p\\": 1829,
    "p'": 1830,
    "p\"": 1831,
    "p[": 1832,
    "p]": 1833,
    "p{": 1834,
    "p}": 1835,
    "p ": 1836,
    "qa": 1837,
    "qb": 1838,
    "qc": 1839,
    "qd": 1840,
    "qe": 1841,
    "qf": 1842,
    "qg": 1843,
    "qh": 1844,
    "qi": 1845,
    "qj": 1846,
    "qk": 1847,
    "ql": 1848,
    "qm": 1849,
    "qn": 1850,
    "qo": 1851,
    "qp": 1852,
    "qq": 1853,
    "qr": 1854,
    "qs": 1855,
    "qt": 1856,
    "qu": 1857,
    "qv": 1858,
    "qw": 1859,
    "qx": 1860,
    "qy": 1861,
    "qz": 1862,
    "qа": 1863,
    "qб": 1864,
    "qв": 1865,
    "qг": 1866,
    "qд": 1867,
    "qе": 1868,
    "qё": 1869,
    "qж": 1870,
    "qз": 1871,
    "qи": 1872,
    "qй": 1873,
    "qк": 1874,
    "qл": 1875,
    "qм": 1876,
    "qн": 1877,
    "qо": 1878,
    "qп": 1879,
    "qр": 1880,
    "qс": 1881,
    "qт": 1882,
    "qу": 1883,
    "qф": 1884,
    "qх": 1885,
    "qц": 1886,
    "qч": 1887,
    "qш": 1888,
    "qщ": 1889,
    "qъ": 1890,
    "qы": 1891,
    "qь": 1892,
    "qэ": 1893,
    "qю": 1894,
    "qя": 1895,
    "qә": 1896,
    "qі": 1897,
    "qң": 1898,
    "qғ": 1899,
    "qү": 1900,
    "qұ": 1901,
    "qқ": 1902,
    "qө": 1903,
    "qһ": 1904,
    "q1": 1905,
    "q2": 1906,
    "q3": 1907,
    "q4": 1908,
    "q5": 1909,
    "q6": 1910,
    "q7": 1911,
    "q8": 1912,
    "q9": 1913,
    "q0": 1914,
    "q!": 1915,
    "q@": 1916,
    "q#": 1917,
    "q$": 1918,
    "q%": 1919,
    "q^": 1920,
    "q&": 1921,
    "q*": 1922,
    "q(": 1923,
    "q)": 1924,
    "q_": 1925,
    "q+": 1926,
    "q=": 1927,
    "q-": 1928,
    "q?": 1929,
    "q/": 1930,
    "q>": 1931,
    "q.": 1932,
    "q<": 1933,
    "q,": 1934,
    "q`": 1935,
    "q|": 1936,
    "q\\": 1937,
    "q'": 1938,
    "q\"": 1939,
    "q[": 1940,
    "q]": 1941,
    "q{": 1942,
    "q}": 1943,
    "q ": 1944,
    "ra": 1945,
    "rb": 1946,
    "rc": 1947,
    "rd": 1948,
    "re": 1949,
    "rf": 1950,
    "rg": 1951,
    "rh": 1952,
    "ri": 1953,
    "rj": 1954,
    "rk": 1955,
    "rl": 1956,
    "rm": 1957,
    "rn": 1958,
    "ro": 1959,
    "rp": 1960,
    "rq": 1961,
    "rr": 1962,
    "rs": 1963,
    "rt": 1964,
    "ru": 1965,
    "rv": 1966,
    "rw": 1967,
    "rx": 1968,
    "ry": 1969,
    "rz": 1970,
    "rа": 1971,
    "rб": 1972,
    "rв": 1973,
    "rг": 1974,
    "rд": 1975,
    "rе": 1976,
    "rё": 1977,
    "rж": 1978,
    "rз": 1979,
    "rи": 1980,
    "rй": 1981,
    "rк": 1982,
    "rл": 1983,
    "rм": 1984,
    "rн": 1985,
    "rо": 1986,
    "rп": 1987,
    "rр": 1988,
    "rс": 1989,
    "rт": 1990,
    "rу": 1991,
    "rф": 1992,
    "rх": 1993,
    "rц": 1994,
    "rч": 1995,
    "rш": 1996,
    "rщ": 1997,
    "rъ": 1998,
    "rы": 1999,
    "rь": 2000,
    "rэ": 2001,
    "rю": 2002,
    "rя": 2003,
    "rә": 2004,
    "rі": 2005,
    "rң": 2006,
    "rғ": 2007,
    "rү": 2008,
    "rұ": 2009,
    "rқ": 2010,
    "rө": 2011,
    "rһ": 2012,
    "r1": 2013,
    "r2": 2014,
    "r3": 2015,
    "r4": 2016,
    "r5": 2017,
    "r6": 2018,
    "r7": 2019,
    "r8": 2020,
    "r9": 2021,
    "r0": 2022,
    "r!": 2023,
    "r@": 2024,
    "r#": 2025,
    "r$": 2026,
    "r%": 2027,
    "r^": 2028,
    "r&": 2029,
    "r*": 2030,
    "r(": 2031,
    "r)": 2032,
    "r_": 2033,
    "r+": 2034,
    "r=": 2035,
    "r-": 2036,
    "r?": 2037,
    "r/": 2038,
    "r>": 2039,
    "r.": 2040,
    "r<": 2041,
    "r,": 2042,
    "r`": 2043,
    "r|": 2044,
    "r\\": 2045,
    "r'": 2046,
    "r\"": 2047,
    "r[": 2048,
    "r]": 2049,
    "r{": 2050,
    "r}": 2051,
    "r ": 2052,
    "sa": 2053,
    "sb": 2054,
    "sc": 2055,
    "sd": 2056,
    "se": 2057,
    "sf": 2058,
    "sg": 2059,
    "sh": 2060,
    "si": 2061,
    "sj": 2062,
    "sk": 2063,
    "sl": 2064,
    "sm": 2065,
    "sn": 2066,
    "so": 2067,
    "sp": 2068,
    "sq": 2069,
    "sr": 2070,
    "ss": 2071,
    "st": 2072,
    "su": 2073,
    "sv": 2074,
    "sw": 2075,
    "sx": 2076,
    "sy": 2077,
    "sz": 2078,
    "sа": 2079,
    "sб": 2080,
    "sв": 2081,
    "sг": 2082,
    "sд": 2083,
    "sе": 2084,
    "sё": 2085,
    "sж": 2086,
    "sз": 2087,
    "sи": 2088,
    "sй": 2089,
    "sк": 2090,
    "sл": 2091,
    "sм": 2092,
    "sн": 2093,
    "sо": 2094,
    "sп": 2095,
    "sр": 2096,
    "sс": 2097,
    "sт": 2098,
    "sу": 2099,
    "sф": 2100,
    "sх": 2101,
    "sц": 2102,
    "sч": 2103,
    "sш": 2104,
    "sщ": 2105,
    "sъ": 2106,
    "sы": 2107,
    "sь": 2108,
    "sэ": 2109,
    "sю": 2110,
    "sя": 2111,
    "sә": 2112,
    "sі": 2113,
    "sң": 2114,
    "sғ": 2115,
    "sү": 2116,
    "sұ": 2117,
    "sқ": 2118,
    "sө": 2119,
    "sһ": 2120,
    "s1": 2121,
    "s2": 2122,
    "s3": 2123,
    "s4": 2124,
    "s5": 2125,
    "s6": 2126,
    "s7": 2127,
    "s8": 2128,
    "s9": 2129,
    "s0": 2130,
    "s!": 2131,
    "s@": 2132,
    "s#": 2133,
    "s$": 2134,
    "s%": 2135,
    "s^": 2136,
    "s&": 2137,
    "s*": 2138,
    "s(": 2139,
    "s)": 2140,
    "s_": 2141,
    "s+": 2142,
    "s=": 2143,
    "s-": 2144,
    "s?": 2145,
    "s/": 2146,
    "s>": 2147,
    "s.": 2148,
    "s<": 2149,
    "s,": 2150,
    "s`": 2151,
    "s|": 2152,
    "s\\": 2153,
    "s'": 2154,
    "s\"": 2155,
    "s[": 2156,
    "s]": 2157,
    "s{": 2158,
    "s}": 2159,
    "s ": 2160,
    "ta": 2161,
    "tb": 2162,
    "tc": 2163,
    "td": 2164,
    "te": 2165,
    "tf": 2166,
    "tg": 2167,
    "th": 2168,
    "ti": 2169,
    "tj": 2170,
    "tk": 2171,
    "tl": 2172,
    "tm": 2173,
    "tn": 2174,
    "to": 2175,
    "tp": 2176,
    "tq": 2177,
    "tr": 2178,
    "ts": 2179,
    "tt": 2180,
    "tu": 2181,
    "tv": 2182,
    "tw": 2183,
    "tx": 2184,
    "ty": 2185,
    "tz": 2186,
    "tа": 2187,
    "tб": 2188,
    "tв": 2189,
    "tг": 2190,
    "tд": 2191,
    "tе": 2192,
    "tё": 2193,
    "tж": 2194,
    "tз": 2195,
    "tи": 2196,
    "tй": 2197,
    "tк": 2198,
    "tл": 2199,
    "tм": 2200,
    "tн": 2201,
    "tо": 2202,
    "tп": 2203,
    "tр": 2204,
    "tс": 2205,
    "tт": 2206,
    "tу": 2207,
    "tф": 2208,
    "tх": 2209,
    "tц": 2210,
    "tч": 2211,
    "tш": 2212,
    "tщ": 2213,
    "tъ": 2214,
    "tы": 2215,
    "tь": 2216,
    "tэ": 2217,
    "tю": 2218,
    "tя": 2219,
    "tә": 2220,
    "tі": 2221,
    "tң": 2222,
    "tғ": 2223,
    "tү": 2224,
    "tұ": 2225,
    "tқ": 2226,
    "tө": 2227,
    "tһ": 2228,
    "t1": 2229,
    "t2": 2230,
    "t3": 2231,
    "t4": 2232,
    "t5": 2233,
    "t6": 2234,
    "t7": 2235,
    "t8": 2236,
    "t9": 2237,
    "t0": 2238,
    "t!": 2239,
    "t@": 2240,
    "t#": 2241,
    "t$": 2242,
    "t%": 2243,
    "t^": 2244,
    "t&": 2245,
    "t*": 2246,
    "t(": 2247,
    "t)": 2248,
    "t_": 2249,
    "t+": 2250,
    "t=": 2251,
    "t-": 2252,
    "t?": 2253,
    "t/": 2254,
    "t>": 2255,
    "t.": 2256,
    "t<": 2257,
    "t,": 2258,
    "t`": 2259,
    "t|": 2260,
    "t\\": 2261,
    "t'": 2262,
    "t\"": 2263,
    "t[": 2264,
    "t]": 2265,
    "t{": 2266,
    "t}": 2267,
    "t ": 2268,
    "ua": 2269,
    "ub": 2270,
    "uc": 2271,
    "ud": 2272,
    "ue": 2273,
    "uf": 2274,
    "ug": 2275,
    "uh": 2276,
    "ui": 2277,
    "uj": 2278,
    "uk": 2279,
    "ul": 2280,
    "um": 2281,
    "un": 2282,
    "uo": 2283,
    "up": 2284,
    "uq": 2285,
    "ur": 2286,
    "us": 2287,
    "ut": 2288,
    "uu": 2289,
    "uv": 2290,
    "uw": 2291,
    "ux": 2292,
    "uy": 2293,
    "uz": 2294,
    "uа": 2295,
    "uб": 2296,
    "uв": 2297,
    "uг": 2298,
    "uд": 2299,
    "uе": 2300,
    "uё": 2301,
    "uж": 2302,
    "uз": 2303,
    "uи": 2304,
    "uй": 2305,
    "uк": 2306,
    "uл": 2307,
    "uм": 2308,
    "uн": 2309,
    "uо": 2310,
    "uп": 2311,
    "uр": 2312,
    "uс": 2313,
    "uт": 2314,
    "uу": 2315,
    "uф": 2316,
    "uх": 2317,
    "uц": 2318,
    "uч": 2319,
    "uш": 2320,
    "uщ": 2321,
    "uъ": 2322,
    "uы": 2323,
    "uь": 2324,
    "uэ": 2325,
    "uю": 2326,
    "uя": 2327,
    "uә": 2328,
    "uі": 2329,
    "uң": 2330,
    "uғ": 2331,
    "uү": 2332,
    "uұ": 2333,
    "uқ": 2334,
    "uө": 2335,
    "uһ": 2336,
    "u1": 2337,
    "u2": 2338,
    "u3": 2339,
    "u4": 2340,
    "u5": 2341,
    "u6": 2342,
    "u7": 2343,
    "u8": 2344,
    "u9": 2345,
    "u0": 2346,
    "u!": 2347,
    "u@": 2348,
    "u#": 2349,
    "u$": 2350,
    "u%": 2351,
    "u^": 2352,
    "u&": 2353,
    "u*": 2354,
    "u(": 2355,
    "u)": 2356,
    "u_": 2357,
    "u+": 2358,
    "u=": 2359,
    "u-": 2360,
    "u?": 2361,
    "u/": 2362,
    "u>": 2363,
    "u.": 2364,
    "u<": 2365,
    "u,": 2366,
    "u`": 2367,
    "u|": 2368,
    "u\\": 2369,
    "u'": 2370,
    "u\"": 2371,
    "u[": 2372,
    "u]": 2373,
    "u{": 2374,
    "u}": 2375,
    "u ": 2376,
    "va": 2377,
    "vb": 2378,
    "vc": 2379,
    "vd": 2380,
    "ve": 2381,
    "vf": 2382,
    "vg": 2383,
    "vh": 2384,
    "vi": 2385,
    "vj": 2386,
    "vk": 2387,
    "vl": 2388,
    "vm": 2389,
    "vn": 2390,
    "vo": 2391,
    "vp": 2392,
    "vq": 2393,
    "vr": 2394,
    "vs": 2395,
    "vt": 2396,
    "vu": 2397,
    "vv": 2398,
    "vw": 2399,
    "vx": 2400,
    "vy": 2401,
    "vz": 2402,
    "vа": 2403,
    "vб": 2404,
    "vв": 2405,
    "vг": 2406,
    "vд": 2407,
    "vе": 2408,
    "vё": 2409,
    "vж": 2410,
    "vз": 2411,
    "vи": 2412,
    "vй": 2413,
    "vк": 2414,
    "vл": 2415,
    "vм": 2416,
    "vн": 2417,
    "vо": 2418,
    "vп": 2419,
    "vр": 2420,
    "vс": 2421,
    "vт": 2422,
    "vу": 2423,
    "vф": 2424,
    "vх": 2425,
    "vц": 2426,
    "vч": 2427,
    "vш": 2428,
    "vщ": 2429,
    "vъ": 2430,
    "vы": 2431,
    "vь": 2432,
    "vэ": 2433,
    "vю": 2434,
    "vя": 2435,
    "vә": 2436,
    "vі": 2437,
    "vң": 2438,
    "vғ": 2439,
    "vү": 2440,
    "vұ": 2441,
    "vқ": 2442,
    "vө": 2443,
    "vһ": 2444,
    "v1": 2445,
    "v2": 2446,
    "v3": 2447,
    "v4": 2448,
    "v5": 2449,
    "v6": 2450,
    "v7": 2451,
    "v8": 2452,
    "v9": 2453,
    "v0": 2454,
    "v!": 2455,
    "v@": 2456,
    "v#": 2457,
    "v$": 2458,
    "v%": 2459,
    "v^": 2460,
    "v&": 2461,
    "v*": 2462,
    "v(": 2463,
    "v)": 2464,
    "v_": 2465,
    "v+": 2466,
    "v=": 2467,
    "v-": 2468,
    "v?": 2469,
    "v/": 2470,
    "v>": 2471,
    "v.": 2472,
    "v<": 2473,
    "v,": 2474,
    "v`": 2475,
    "v|": 2476,
    "v\\": 2477,
    "v'": 2478,
    "v\"": 2479,
    "v[": 2480,
    "v]": 2481,
    "v{": 2482,
    "v}": 2483,
    "v ": 2484,
    "wa": 2485,
    "wb": 2486,
    "wc": 2487,
    "wd": 2488,
    "we": 2489,
    "wf": 2490,
    "wg": 2491,
    "wh": 2492,
    "wi": 2493,
    "wj": 2494,
    "wk": 2495,
    "wl": 2496,
    "wm": 2497,
    "wn": 2498,
    "wo": 2499,
    "wp": 2500,
    "wq": 2501,
    "wr": 2502,
    "ws": 2503,
    "wt": 2504,
    "wu": 2505,
    "wv": 2506,
    "ww": 2507,
    "wx": 2508,
    "wy": 2509,
    "wz": 2510,
    "wа": 2511,
    "wб": 2512,
    "wв": 2513,
    "wг": 2514,
    "wд": 2515,
    "wе": 2516,
    "wё": 2517,
    "wж": 2518,
    "wз": 2519,
    "wи": 2520,
    "wй": 2521,
    "wк": 2522,
    "wл": 2523,
    "wм": 2524,
    "wн": 2525,
    "wо": 2526,
    "wп": 2527,
    "wр": 2528,
    "wс": 2529,
    "wт": 2530,
    "wу": 2531,
    "wф": 2532,
    "wх": 2533,
    "wц": 2534,
    "wч": 2535,
    "wш": 2536,
    "wщ": 2537,
    "wъ": 2538,
    "wы": 2539,
    "wь": 2540,
    "wэ": 2541,
    "wю": 2542,
    "wя": 2543,
    "wә": 2544,
    "wі": 2545,
    "wң": 2546,
    "wғ": 2547,
    "wү": 2548,
    "wұ": 2549,
    "wқ": 2550,
    "wө": 2551,
    "wһ": 2552,
    "w1": 2553,
    "w2": 2554,
    "w3": 2555,
    "w4": 2556,
    "w5": 2557,
    "w6": 2558,
    "w7": 2559,
    "w8": 2560,
    "w9": 2561,
    "w0": 2562,
    "w!": 2563,
    "w@": 2564,
    "w#": 2565,
    "w$": 2566,
    "w%": 2567,
    "w^": 2568,
    "w&": 2569,
    "w*": 2570,
    "w(": 2571,
    "w)": 2572,
    "w_": 2573,
    "w+": 2574,
    "w=": 2575,
    "w-": 2576,
    "w?": 2577,
    "w/": 2578,
    "w>": 2579,
    "w.": 2580,
    "w<": 2581,
    "w,": 2582,
    "w`": 2583,
    "w|": 2584,
    "w\\": 2585,
    "w'": 2586,
    "w\"": 2587,
    "w[": 2588,
    "w]": 2589,
    "w{": 2590,
    "w}": 2591,
    "w ": 2592,
    "xa": 2593,
    "xb": 2594,
    "xc": 2595,
    "xd": 2596,
    "xe": 2597,
    "xf": 2598,
    "xg": 2599,
    "xh": 2600,
    "xi": 2601,
    "xj": 2602,
    "xk": 2603,
    "xl": 2604,
    "xm": 2605,
    "xn": 2606,
    "xo": 2607,
    "xp": 2608,
    "xq": 2609,
    "xr": 2610,
    "xs": 2611,
    "xt": 2612,
    "xu": 2613,
    "xv": 2614,
    "xw": 2615,
    "xx": 2616,
    "xy": 2617,
    "xz": 2618,
    "xа": 2619,
    "xб": 2620,
    "xв": 2621,
    "xг": 2622,
    "xд": 2623,
    "xе": 2624,
    "xё": 2625,
    "xж": 2626,
    "xз": 2627,
    "xи": 2628,
    "xй": 2629,
    "xк": 2630,
    "xл": 2631,
    "xм": 2632,
    "xн": 2633,
    "xо": 2634,
    "xп": 2635,
    "xр": 2636,
    "xс": 2637,
    "xт": 2638,
    "xу": 2639,
    "xф": 2640,
    "xх": 2641,
    "xц": 2642,
    "xч": 2643,
    "xш": 2644,
    "xщ": 2645,
    "xъ": 2646,
    "xы": 2647,
    "xь": 2648,
    "xэ": 2649,
    "xю": 2650,
    "xя": 2651,
    "xә": 2652,
    "xі": 2653,
    "xң": 2654,
    "xғ": 2655,
    "xү": 2656,
    "xұ": 2657,
    "xқ": 2658,
    "xө": 2659,
    "xһ": 2660,
    "x1": 2661,
    "x2": 2662,
    "x3": 2663,
    "x4": 2664,
    "x5": 2665,
    "x6": 2666,
    "x7": 2667,
    "x8": 2668,
    "x9": 2669,
    "x0": 2670,
    "x!": 2671,
    "x@": 2672,
    "x#": 2673,
    "x$": 2674,
    "x%": 2675,
    "x^": 2676,
    "x&": 2677,
    "x*": 2678,
    "x(": 2679,
    "x)": 2680,
    "x_": 2681,
    "x+": 2682,
    "x=": 2683,
    "x-": 2684,
    "x?": 2685,
    "x/": 2686,
    "x>": 2687,
    "x.": 2688,
    "x<": 2689,
    "x,": 2690,
    "x`": 2691,
    "x|": 2692,
    "x\\": 2693,
    "x'": 2694,
    "x\"": 2695,
    "x[": 2696,
    "x]": 2697,
    "x{": 2698,
    "x}": 2699,
    "x ": 2700,
    "ya": 2701,
    "yb": 2702,
    "yc": 2703,
    "yd": 2704,
    "ye": 2705,
    "yf": 2706,
    "yg": 2707,
    "yh": 2708,
    "yi": 2709,
    "yj": 2710,
    "yk": 2711,
    "yl": 2712,
    "ym": 2713,
    "yn": 2714,
    "yo": 2715,
    "yp": 2716,
    "yq": 2717,
    "yr": 2718,
    "ys": 2719,
    "yt": 2720,
    "yu": 2721,
    "yv": 2722,
    "yw": 2723,
    "yx": 2724,
    "yy": 2725,
    "yz": 2726,
    "yа": 2727,
    "yб": 2728,
    "yв": 2729,
    "yг": 2730,
    "yд": 2731,
    "yе": 2732,
    "yё": 2733,
    "yж": 2734,
    "yз": 2735,
    "yи": 2736,
    "yй": 2737,
    "yк": 2738,
    "yл": 2739,
    "yм": 2740,
    "yн": 2741,
    "yо": 2742,
    "yп": 2743,
    "yр": 2744,
    "yс": 2745,
    "yт": 2746,
    "yу": 2747,
    "yф": 2748,
    "yх": 2749,
    "yц": 2750,
    "yч": 2751,
    "yш": 2752,
    "yщ": 2753,
    "yъ": 2754,
    "yы": 2755,
    "yь": 2756,
    "yэ": 2757,
    "yю": 2758,
    "yя": 2759,
    "yә": 2760,
    "yі": 2761,
    "yң": 2762,
    "yғ": 2763,
    "yү": 2764,
    "yұ": 2765,
    "yқ": 2766,
    "yө": 2767,
    "yһ": 2768,
    "y1": 2769,
    "y2": 2770,
    "y3": 2771,
    "y4": 2772,
    "y5": 2773,
    "y6": 2774,
    "y7": 2775,
    "y8": 2776,
    "y9": 2777,
    "y0": 2778,
    "y!": 2779,
    "y@": 2780,
    "y#": 2781,
    "y$": 2782,
    "y%": 2783,
    "y^": 2784,
    "y&": 2785,
    "y*": 2786,
    "y(": 2787,
    "y)": 2788,
    "y_": 2789,
    "y+": 2790,
    "y=": 2791,
    "y-": 2792,
    "y?": 2793,
    "y/": 2794,
    "y>": 2795,
    "y.": 2796,
    "y<": 2797,
    "y,": 2798,
    "y`": 2799,
    "y|": 2800,
    "y\\": 2801,
    "y'": 2802,
    "y\"": 2803,
    "y[": 2804,
    "y]": 2805,
    "y{": 2806,
    "y}": 2807,
    "y ": 2808,
    "za": 2809,
    "zb": 2810,
    "zc": 2811,
    "zd": 2812,
    "ze": 2813,
    "zf": 2814,
    "zg": 2815,
    "zh": 2816,
    "zi": 2817,
    "zj": 2818,
    "zk": 2819,
    "zl": 2820,
    "zm": 2821,
    "zn": 2822,
    "zo": 2823,
    "zp": 2824,
    "zq": 2825,
    "zr": 2826,
    "zs": 2827,
    "zt": 2828,
    "zu": 2829,
    "zv": 2830,
    "zw": 2831,
    "zx": 2832,
    "zy": 2833,
    "zz": 2834,
    "zа": 2835,
    "zб": 2836,
    "zв": 2837,
    "zг": 2838,
    "zд": 2839,
    "zе": 2840,
    "zё": 2841,
    "zж": 2842,
    "zз": 2843,
    "zи": 2844,
    "zй": 2845,
    "zк": 2846,
    "zл": 2847,
    "zм": 2848,
    "zн": 2849,
    "zо": 2850,
    "zп": 2851,
    "zр": 2852,
    "zс": 2853,
    "zт": 2854,
    "zу": 2855,
    "zф": 2856,
    "zх": 2857,
    "zц": 2858,
    "zч": 2859,
    "zш": 2860,
    "zщ": 2861,
    "zъ": 2862,
    "zы": 2863,
    "zь": 2864,
    "zэ": 2865,
    "zю": 2866,
    "zя": 2867,
    "zә": 2868,
    "zі": 2869,
    "zң": 2870,
    "zғ": 2871,
    "zү": 2872,
    "zұ": 2873,
    "zқ": 2874,
    "zө": 2875,
    "zһ": 2876,
    "z1": 2877,
    "z2": 2878,
    "z3": 2879,
    "z4": 2880,
    "z5": 2881,
    "z6": 2882,
    "z7": 2883,
    "z8": 2884,
    "z9": 2885,
    "z0": 2886,
    "z!": 2887,
    "z@": 2888,
    "z#": 2889,
    "z$": 2890,
    "z%": 2891,
    "z^": 2892,
    "z&": 2893,
    "z*": 2894,
    "z(": 2895,
    "z)": 2896,
    "z_": 2897,
    "z+": 2898,
    "z=": 2899,
    "z-": 2900,
    "z?": 2901,
    "z/": 2902,
    "z>": 2903,
    "z.": 2904,
    "z<": 2905,
    "z,": 2906,
    "z`": 2907,
    "z|": 2908,
    "z\\": 2909,
    "z'": 2910,
    "z\"": 2911,
    "z[": 2912,
    "z]": 2913,
    "z{": 2914,
    "z}": 2915,
    "z ": 2916,
    "аa": 2917,
    "аb": 2918,
    "аc": 2919,
    "аd": 2920,
    "аe": 2921,
    "аf": 2922,
    "аg": 2923,
    "аh": 2924,
    "аi": 2925,
    "аj": 2926,
    "аk": 2927,
    "аl": 2928,
    "аm": 2929,
    "аn": 2930,
    "аo": 2931,
    "аp": 2932,
    "аq": 2933,
    "аr": 2934,
    "аs": 2935,
    "аt": 2936,
    "аu": 2937,
    "аv": 2938,
    "аw": 2939,
    "аx": 2940,
    "аy": 2941,
    "аz": 2942,
    "аа": 2943,
    "аб": 2944,
    "ав": 2945,
    "аг": 2946,
    "ад": 2947,
    "ае": 2948,
    "аё": 2949,
    "аж": 2950,
    "аз": 2951,
    "аи": 2952,
    "ай": 2953,
    "ак": 2954,
    "ал": 2955,
    "ам": 2956,
    "ан": 2957,
    "ао": 2958,
    "ап": 2959,
    "ар": 2960,
    "ас": 2961,
    "ат": 2962,
    "ау": 2963,
    "аф": 2964,
    "ах": 2965,
    "ац": 2966,
    "ач": 2967,
    "аш": 2968,
    "ащ": 2969,
    "аъ": 2970,
    "аы": 2971,
    "аь": 2972,
    "аэ": 2973,
    "аю": 2974,
    "ая": 2975,
    "аә": 2976,
    "аі": 2977,
    "аң": 2978,
    "ағ": 2979,
    "аү": 2980,
    "аұ": 2981,
    "ақ": 2982,
    "аө": 2983,
    "аһ": 2984,
    "а1": 2985,
    "а2": 2986,
    "а3": 2987,
    "а4": 2988,
    "а5": 2989,
    "а6": 2990,
    "а7": 2991,
    "а8": 2992,
    "а9": 2993,
    "а0": 2994,
    "а!": 2995,
    "а@": 2996,
    "а#": 2997,
    "а$": 2998,
    "а%": 2999,
    "а^": 3000,
    "а&": 3001,
    "а*": 3002,
    "а(": 3003,
    "а)": 3004,
    "а_": 3005,
    "а+": 3006,
    "а=": 3007,
    "а-": 3008,
    "а?": 3009,
    "а/": 3010,
    "а>": 3011,
    "а.": 3012,
    "а<": 3013,
    "а,": 3014,
    "а`": 3015,
    "а|": 3016,
    "а\\": 3017,
    "а'": 3018,
    "а\"": 3019,
    "а[": 3020,
    "а]": 3021,
    "а{": 3022,
    "а}": 3023,
    "а ": 3024,
    "бa": 3025,
    "бb": 3026,
    "бc": 3027,
    "бd": 3028,
    "бe": 3029,
    "бf": 3030,
    "бg": 3031,
    "бh": 3032,
    "бi": 3033,
    "бj": 3034,
    "бk": 3035,
    "бl": 3036,
    "бm": 3037,
    "бn": 3038,
    "бo": 3039,
    "бp": 3040,
    "бq": 3041,
    "бr": 3042,
    "бs": 3043,
    "бt": 3044,
    "бu": 3045,
    "бv": 3046,
    "бw": 3047,
    "бx": 3048,
    "бy": 3049,
    "бz": 3050,
    "ба": 3051,
    "бб": 3052,
    "бв": 3053,
    "бг": 3054,
    "бд": 3055,
    "бе": 3056,
    "бё": 3057,
    "бж": 3058,
    "бз": 3059,
    "би": 3060,
    "бй": 3061,
    "бк": 3062,
    "бл": 3063,
    "бм": 3064,
    "бн": 3065,
    "бо": 3066,
    "бп": 3067,
    "бр": 3068,
    "бс": 3069,
    "бт": 3070,
    "бу": 3071,
    "бф": 3072,
    "бх": 3073,
    "бц": 3074,
    "бч": 3075,
    "бш": 3076,
    "бщ": 3077,
    "бъ": 3078,
    "бы": 3079,
    "бь": 3080,
    "бэ": 3081,
    "бю": 3082,
    "бя": 3083,
    "бә": 3084,
    "бі": 3085,
    "бң": 3086,
    "бғ": 3087,
    "бү": 3088,
    "бұ": 3089,
    "бқ": 3090,
    "бө": 3091,
    "бһ": 3092,
    "б1": 3093,
    "б2": 3094,
    "б3": 3095,
    "б4": 3096,
    "б5": 3097,
    "б6": 3098,
    "б7": 3099,
    "б8": 3100,
    "б9": 3101,
    "б0": 3102,
    "б!": 3103,
    "б@": 3104,
    "б#": 3105,
    "б$": 3106,
    "б%": 3107,
    "б^": 3108,
    "б&": 3109,
    "б*": 3110,
    "б(": 3111,
    "б)": 3112,
    "б_": 3113,
    "б+": 3114,
    "б=": 3115,
    "б-": 3116,
    "б?": 3117,
    "б/": 3118,
    "б>": 3119,
    "б.": 3120,
    "б<": 3121,
    "б,": 3122,
    "б`": 3123,
    "б|": 3124,
    "б\\": 3125,
    "б'": 3126,
    "б\"": 3127,
    "б[": 3128,
    "б]": 3129,
    "б{": 3130,
    "б}": 3131,
    "б ": 3132,
    "вa": 3133,
    "вb": 3134,
    "вc": 3135,
    "вd": 3136,
    "вe": 3137,
    "вf": 3138,
    "вg": 3139,
    "вh": 3140,
    "вi": 3141,
    "вj": 3142,
    "вk": 3143,
    "вl": 3144,
    "вm": 3145,
    "вn": 3146,
    "вo": 3147,
    "вp": 3148,
    "вq": 3149,
    "вr": 3150,
    "вs": 3151,
    "вt": 3152,
    "вu": 3153,
    "вv": 3154,
    "вw": 3155,
    "вx": 3156,
    "вy": 3157,
    "вz": 3158,
    "ва": 3159,
    "вб": 3160,
    "вв": 3161,
    "вг": 3162,
    "вд": 3163,
    "ве": 3164,
    "вё": 3165,
    "вж": 3166,
    "вз": 3167,
    "ви": 3168,
    "вй": 3169,
    "вк": 3170,
    "вл": 3171,
    "вм": 3172,
    "вн": 3173,
    "во": 3174,
    "вп": 3175,
    "вр": 3176,
    "вс": 3177,
    "вт": 3178,
    "ву": 3179,
    "вф": 3180,
    "вх": 3181,
    "вц": 3182,
    "вч": 3183,
    "вш": 3184,
    "вщ": 3185,
    "въ": 3186,
    "вы": 3187,
    "вь": 3188,
    "вэ": 3189,
    "вю": 3190,
    "вя": 3191,
    "вә": 3192,
    "ві": 3193,
    "вң": 3194,
    "вғ": 3195,
    "вү": 3196,
    "вұ": 3197,
    "вқ": 3198,
    "вө": 3199,
    "вһ": 3200,
    "в1": 3201,
    "в2": 3202,
    "в3": 3203,
    "в4": 3204,
    "в5": 3205,
    "в6": 3206,
    "в7": 3207,
    "в8": 3208,
    "в9": 3209,
    "в0": 3210,
    "в!": 3211,
    "в@": 3212,
    "в#": 3213,
    "в$": 3214,
    "в%": 3215,
    "в^": 3216,
    "в&": 3217,
    "в*": 3218,
    "в(": 3219,
    "в)": 3220,
    "в_": 3221,
    "в+": 3222,
    "в=": 3223,
    "в-": 3224,
    "в?": 3225,
    "в/": 3226,
    "в>": 3227,
    "в.": 3228,
    "в<": 3229,
    "в,": 3230,
    "в`": 3231,
    "в|": 3232,
    "в\\": 3233,
    "в'": 3234,
    "в\"": 3235,
    "в[": 3236,
    "в]": 3237,
    "в{": 3238,
    "в}": 3239,
    "в ": 3240,
    "гa": 3241,
    "гb": 3242,
    "гc": 3243,
    "гd": 3244,
    "гe": 3245,
    "гf": 3246,
    "гg": 3247,
    "гh": 3248,
    "гi": 3249,
    "гj": 3250,
    "гk": 3251,
    "гl": 3252,
    "гm": 3253,
    "гn": 3254,
    "гo": 3255,
    "гp": 3256,
    "гq": 3257,
    "гr": 3258,
    "гs": 3259,
    "гt": 3260,
    "гu": 3261,
    "гv": 3262,
    "гw": 3263,
    "гx": 3264,
    "гy": 3265,
    "гz": 3266,
    "га": 3267,
    "гб": 3268,
    "гв": 3269,
    "гг": 3270,
    "гд": 3271,
    "ге": 3272,
    "гё": 3273,
    "гж": 3274,
    "гз": 3275,
    "ги": 3276,
    "гй": 3277,
    "гк": 3278,
    "гл": 3279,
    "гм": 3280,
    "гн": 3281,
    "го": 3282,
    "гп": 3283,
    "гр": 3284,
    "гс": 3285,
    "гт": 3286,
    "гу": 3287,
    "гф": 3288,
    "гх": 3289,
    "гц": 3290,
    "гч": 3291,
    "гш": 3292,
    "гщ": 3293,
    "гъ": 3294,
    "гы": 3295,
    "гь": 3296,
    "гэ": 3297,
    "гю": 3298,
    "гя": 3299,
    "гә": 3300,
    "гі": 3301,
    "гң": 3302,
    "гғ": 3303,
    "гү": 3304,
    "гұ": 3305,
    "гқ": 3306,
    "гө": 3307,
    "гһ": 3308,
    "г1": 3309,
    "г2": 3310,
    "г3": 3311,
    "г4": 3312,
    "г5": 3313,
    "г6": 3314,
    "г7": 3315,
    "г8": 3316,
    "г9": 3317,
    "г0": 3318,
    "г!": 3319,
    "г@": 3320,
    "г#": 3321,
    "г$": 3322,
    "г%": 3323,
    "г^": 3324,
    "г&": 3325,
    "г*": 3326,
    "г(": 3327,
    "г)": 3328,
    "г_": 3329,
    "г+": 3330,
    "г=": 3331,
    "г-": 3332,
    "г?": 3333,
    "г/": 3334,
    "г>": 3335,
    "г.": 3336,
    "г<": 3337,
    "г,": 3338,
    "г`": 3339,
    "г|": 3340,
    "г\\": 3341,
    "г'": 3342,
    "г\"": 3343,
    "г[": 3344,
    "г]": 3345,
    "г{": 3346,
    "г}": 3347,
    "г ": 3348,
    "дa": 3349,
    "дb": 3350,
    "дc": 3351,
    "дd": 3352,
    "дe": 3353,
    "дf": 3354,
    "дg": 3355,
    "дh": 3356,
    "дi": 3357,
    "дj": 3358,
    "дk": 3359,
    "дl": 3360,
    "дm": 3361,
    "дn": 3362,
    "дo": 3363,
    "дp": 3364,
    "дq": 3365,
    "дr": 3366,
    "дs": 3367,
    "дt": 3368,
    "дu": 3369,
    "дv": 3370,
    "дw": 3371,
    "дx": 3372,
    "дy": 3373,
    "дz": 3374,
    "да": 3375,
    "дб": 3376,
    "дв": 3377,
    "дг": 3378,
    "дд": 3379,
    "де": 3380,
    "дё": 3381,
    "дж": 3382,
    "дз": 3383,
    "ди": 3384,
    "дй": 3385,
    "дк": 3386,
    "дл": 3387,
    "дм": 3388,
    "дн": 3389,
    "до": 3390,
    "дп": 3391,
    "др": 3392,
    "дс": 3393,
    "дт": 3394,
    "ду": 3395,
    "дф": 3396,
    "дх": 3397,
    "дц": 3398,
    "дч": 3399,
    "дш": 3400,
    "дщ": 3401,
    "дъ": 3402,
    "ды": 3403,
    "дь": 3404,
    "дэ": 3405,
    "дю": 3406,
    "дя": 3407,
    "дә": 3408,
    "ді": 3409,
    "дң": 3410,
    "дғ": 3411,
    "дү": 3412,
    "дұ": 3413,
    "дқ": 3414,
    "дө": 3415,
    "дһ": 3416,
    "д1": 3417,
    "д2": 3418,
    "д3": 3419,
    "д4": 3420,
    "д5": 3421,
    "д6": 3422,
    "д7": 3423,
    "д8": 3424,
    "д9": 3425,
    "д0": 3426,
    "д!": 3427,
    "д@": 3428,
    "д#": 3429,
    "д$": 3430,
    "д%": 3431,
    "д^": 3432,
    "д&": 3433,
    "д*": 3434,
    "д(": 3435,
    "д)": 3436,
    "д_": 3437,
    "д+": 3438,
    "д=": 3439,
    "д-": 3440,
    "д?": 3441,
    "д/": 3442,
    "д>": 3443,
    "д.": 3444,
    "д<": 3445,
    "д,": 3446,
    "д`": 3447,
    "д|": 3448,
    "д\\": 3449,
    "д'": 3450,
    "д\"": 3451,
    "д[": 3452,
    "д]": 3453,
    "д{": 3454,
    "д}": 3455,
    "д ": 3456,
    "еa": 3457,
    "еb": 3458,
    "еc": 3459,
    "еd": 3460,
    "еe": 3461,
    "еf": 3462,
    "еg": 3463,
    "еh": 3464,
    "еi": 3465,
    "еj": 3466,
    "еk": 3467,
    "еl": 3468,
    "еm": 3469,
    "еn": 3470,
    "еo": 3471,
    "еp": 3472,
    "еq": 3473,
    "еr": 3474,
    "еs": 3475,
    "еt": 3476,
    "еu": 3477,
    "еv": 3478,
    "еw": 3479,
    "еx": 3480,
    "еy": 3481,
    "еz": 3482,
    "еа": 3483,
    "еб": 3484,
    "ев": 3485,
    "ег": 3486,
    "ед": 3487,
    "ее": 3488,
    "её": 3489,
    "еж": 3490,
    "ез": 3491,
    "еи": 3492,
    "ей": 3493,
    "ек": 3494,
    "ел": 3495,
    "ем": 3496,
    "ен": 3497,
    "ео": 3498,
    "еп": 3499,
    "ер": 3500,
    "ес": 3501,
    "ет": 3502,
    "еу": 3503,
    "еф": 3504,
    "ех": 3505,
    "ец": 3506,
    "еч": 3507,
    "еш": 3508,
    "ещ": 3509,
    "еъ": 3510,
    "еы": 3511,
    "еь": 3512,
    "еэ": 3513,
    "ею": 3514,
    "ея": 3515,
    "еә": 3516,
    "еі": 3517,
    "ең": 3518,
    "еғ": 3519,
    "еү": 3520,
    "еұ": 3521,
    "еқ": 3522,
    "еө": 3523,
    "еһ": 3524,
    "е1": 3525,
    "е2": 3526,
    "е3": 3527,
    "е4": 3528,
    "е5": 3529,
    "е6": 3530,
    "е7": 3531,
    "е8": 3532,
    "е9": 3533,
    "е0": 3534,
    "е!": 3535,
    "е@": 3536,
    "е#": 3537,
    "е$": 3538,
    "е%": 3539,
    "е^": 3540,
    "е&": 3541,
    "е*": 3542,
    "е(": 3543,
    "е)": 3544,
    "е_": 3545,
    "е+": 3546,
    "е=": 3547,
    "е-": 3548,
    "е?": 3549,
    "е/": 3550,
    "е>": 3551,
    "е.": 3552,
    "е<": 3553,
    "е,": 3554,
    "е`": 3555,
    "е|": 3556,
    "е\\": 3557,
    "е'": 3558,
    "е\"": 3559,
    "е[": 3560,
    "е]": 3561,
    "е{": 3562,
    "е}": 3563,
    "е ": 3564,
    "ёa": 3565,
    "ёb": 3566,
    "ёc": 3567,
    "ёd": 3568,
    "ёe": 3569,
    "ёf": 3570,
    "ёg": 3571,
    "ёh": 3572,
    "ёi": 3573,
    "ёj": 3574,
    "ёk": 3575,
    "ёl": 3576,
    "ёm": 3577,
    "ёn": 3578,
    "ёo": 3579,
    "ёp": 3580,
    "ёq": 3581,
    "ёr": 3582,
    "ёs": 3583,
    "ёt": 3584,
    "ёu": 3585,
    "ёv": 3586,
    "ёw": 3587,
    "ёx": 3588,
    "ёy": 3589,
    "ёz": 3590,
    "ёа": 3591,
    "ёб": 3592,
    "ёв": 3593,
    "ёг": 3594,
    "ёд": 3595,
    "ёе": 3596,
    "ёё": 3597,
    "ёж": 3598,
    "ёз": 3599,
    "ёи": 3600,
    "ёй": 3601,
    "ёк": 3602,
    "ёл": 3603,
    "ём": 3604,
    "ён": 3605,
    "ёо": 3606,
    "ёп": 3607,
    "ёр": 3608,
    "ёс": 3609,
    "ёт": 3610,
    "ёу": 3611,
    "ёф": 3612,
    "ёх": 3613,
    "ёц": 3614,
    "ёч": 3615,
    "ёш": 3616,
    "ёщ": 3617,
    "ёъ": 3618,
    "ёы": 3619,
    "ёь": 3620,
    "ёэ": 3621,
    "ёю": 3622,
    "ёя": 3623,
    "ёә": 3624,
    "ёі": 3625,
    "ёң": 3626,
    "ёғ": 3627,
    "ёү": 3628,
    "ёұ": 3629,
    "ёқ": 3630,
    "ёө": 3631,
    "ёһ": 3632,
    "ё1": 3633,
    "ё2": 3634,
    "ё3": 3635,
    "ё4": 3636,
    "ё5": 3637,
    "ё6": 3638,
    "ё7": 3639,
    "ё8": 3640,
    "ё9": 3641,
    "ё0": 3642,
    "ё!": 3643,
    "ё@": 3644,
    "ё#": 3645,
    "ё$": 3646,
    "ё%": 3647,
    "ё^": 3648,
    "ё&": 3649,
    "ё*": 3650,
    "ё(": 3651,
    "ё)": 3652,
    "ё_": 3653,
    "ё+": 3654,
    "ё=": 3655,
    "ё-": 3656,
    "ё?": 3657,
    "ё/": 3658,
    "ё>": 3659,
    "ё.": 3660,
    "ё<": 3661,
    "ё,": 3662,
    "ё`": 3663,
    "ё|": 3664,
    "ё\\": 3665,
    "ё'": 3666,
    "ё\"": 3667,
    "ё[": 3668,
    "ё]": 3669,
    "ё{": 3670,
    "ё}": 3671,
    "ё ": 3672,
    "жa": 3673,
    "жb": 3674,
    "жc": 3675,
    "жd": 3676,
    "жe": 3677,
    "жf": 3678,
    "жg": 3679,
    "жh": 3680,
    "жi": 3681,
    "жj": 3682,
    "жk": 3683,
    "жl": 3684,
    "жm": 3685,
    "жn": 3686,
    "жo": 3687,
    "жp": 3688,
    "жq": 3689,
    "жr": 3690,
    "жs": 3691,
    "жt": 3692,
    "жu": 3693,
    "жv": 3694,
    "жw": 3695,
    "жx": 3696,
    "жy": 3697,
    "жz": 3698,
    "жа": 3699,
    "жб": 3700,
    "жв": 3701,
    "жг": 3702,
    "жд": 3703,
    "же": 3704,
    "жё": 3705,
    "жж": 3706,
    "жз": 3707,
    "жи": 3708,
    "жй": 3709,
    "жк": 3710,
    "жл": 3711,
    "жм": 3712,
    "жн": 3713,
    "жо": 3714,
    "жп": 3715,
    "жр": 3716,
    "жс": 3717,
    "жт": 3718,
    "жу": 3719,
    "жф": 3720,
    "жх": 3721,
    "жц": 3722,
    "жч": 3723,
    "жш": 3724,
    "жщ": 3725,
    "жъ": 3726,
    "жы": 3727,
    "жь": 3728,
    "жэ": 3729,
    "жю": 3730,
    "жя": 3731,
    "жә": 3732,
    "жі": 3733,
    "жң": 3734,
    "жғ": 3735,
    "жү": 3736,
    "жұ": 3737,
    "жқ": 3738,
    "жө": 3739,
    "жһ": 3740,
    "ж1": 3741,
    "ж2": 3742,
    "ж3": 3743,
    "ж4": 3744,
    "ж5": 3745,
    "ж6": 3746,
    "ж7": 3747,
    "ж8": 3748,
    "ж9": 3749,
    "ж0": 3750,
    "ж!": 3751,
    "ж@": 3752,
    "ж#": 3753,
    "ж$": 3754,
    "ж%": 3755,
    "ж^": 3756,
    "ж&": 3757,
    "ж*": 3758,
    "ж(": 3759,
    "ж)": 3760,
    "ж_": 3761,
    "ж+": 3762,
    "ж=": 3763,
    "ж-": 3764,
    "ж?": 3765,
    "ж/": 3766,
    "ж>": 3767,
    "ж.": 3768,
    "ж<": 3769,
    "ж,": 3770,
    "ж`": 3771,
    "ж|": 3772,
    "ж\\": 3773,
    "ж'": 3774,
    "ж\"": 3775,
    "ж[": 3776,
    "ж]": 3777,
    "ж{": 3778,
    "ж}": 3779,
    "ж ": 3780,
    "зa": 3781,
    "зb": 3782,
    "зc": 3783,
    "зd": 3784,
    "зe": 3785,
    "зf": 3786,
    "зg": 3787,
    "зh": 3788,
    "зi": 3789,
    "зj": 3790,
    "зk": 3791,
    "зl": 3792,
    "зm": 3793,
    "зn": 3794,
    "зo": 3795,
    "зp": 3796,
    "зq": 3797,
    "зr": 3798,
    "зs": 3799,
    "зt": 3800,
    "зu": 3801,
    "зv": 3802,
    "зw": 3803,
    "зx": 3804,
    "зy": 3805,
    "зz": 3806,
    "за": 3807,
    "зб": 3808,
    "зв": 3809,
    "зг": 3810,
    "зд": 3811,
    "зе": 3812,
    "зё": 3813,
    "зж": 3814,
    "зз": 3815,
    "зи": 3816,
    "зй": 3817,
    "зк": 3818,
    "зл": 3819,
    "зм": 3820,
    "зн": 3821,
    "зо": 3822,
    "зп": 3823,
    "зр": 3824,
    "зс": 3825,
    "зт": 3826,
    "зу": 3827,
    "зф": 3828,
    "зх": 3829,
    "зц": 3830,
    "зч": 3831,
    "зш": 3832,
    "зщ": 3833,
    "зъ": 3834,
    "зы": 3835,
    "зь": 3836,
    "зэ": 3837,
    "зю": 3838,
    "зя": 3839,
    "зә": 3840,
    "зі": 3841,
    "зң": 3842,
    "зғ": 3843,
    "зү": 3844,
    "зұ": 3845,
    "зқ": 3846,
    "зө": 3847,
    "зһ": 3848,
    "з1": 3849,
    "з2": 3850,
    "з3": 3851,
    "з4": 3852,
    "з5": 3853,
    "з6": 3854,
    "з7": 3855,
    "з8": 3856,
    "з9": 3857,
    "з0": 3858,
    "з!": 3859,
    "з@": 3860,
    "з#": 3861,
    "з$": 3862,
    "з%": 3863,
    "з^": 3864,
    "з&": 3865,
    "з*": 3866,
    "з(": 3867,
    "з)": 3868,
    "з_": 3869,
    "з+": 3870,
    "з=": 3871,
    "з-": 3872,
    "з?": 3873,
    "з/": 3874,
    "з>": 3875,
    "з.": 3876,
    "з<": 3877,
    "з,": 3878,
    "з`": 3879,
    "з|": 3880,
    "з\\": 3881,
    "з'": 3882,
    "з\"": 3883,
    "з[": 3884,
    "з]": 3885,
    "з{": 3886,
    "з}": 3887,
    "з ": 3888,
    "иa": 3889,
    "иb": 3890,
    "иc": 3891,
    "иd": 3892,
    "иe": 3893,
    "иf": 3894,
    "иg": 3895,
    "иh": 3896,
    "иi": 3897,
    "иj": 3898,
    "иk": 3899,
    "иl": 3900,
    "иm": 3901,
    "иn": 3902,
    "иo": 3903,
    "иp": 3904,
    "иq": 3905,
    "иr": 3906,
    "иs": 3907,
    "иt": 3908,
    "иu": 3909,
    "иv": 3910,
    "иw": 3911,
    "иx": 3912,
    "иy": 3913,
    "иz": 3914,
    "иа": 3915,
    "иб": 3916,
    "ив": 3917,
    "иг": 3918,
    "ид": 3919,
    "ие": 3920,
    "иё": 3921,
    "иж": 3922,
    "из": 3923,
    "ии": 3924,
    "ий": 3925,
    "ик": 3926,
    "ил": 3927,
    "им": 3928,
    "ин": 3929,
    "ио": 3930,
    "ип": 3931,
    "ир": 3932,
    "ис": 3933,
    "ит": 3934,
    "иу": 3935,
    "иф": 3936,
    "их": 3937,
    "иц": 3938,
    "ич": 3939,
    "иш": 3940,
    "ищ": 3941,
    "иъ": 3942,
    "иы": 3943,
    "иь": 3944,
    "иэ": 3945,
    "ию": 3946,
    "ия": 3947,
    "иә": 3948,
    "иі": 3949,
    "иң": 3950,
    "иғ": 3951,
    "иү": 3952,
    "иұ": 3953,
    "иқ": 3954,
    "иө": 3955,
    "иһ": 3956,
    "и1": 3957,
    "и2": 3958,
    "и3": 3959,
    "и4": 3960,
    "и5": 3961,
    "и6": 3962,
    "и7": 3963,
    "и8": 3964,
    "и9": 3965,
    "и0": 3966,
    "и!": 3967,
    "и@": 3968,
    "и#": 3969,
    "и$": 3970,
    "и%": 3971,
    "и^": 3972,
    "и&": 3973,
    "и*": 3974,
    "и(": 3975,
    "и)": 3976,
    "и_": 3977,
    "и+": 3978,
    "и=": 3979,
    "и-": 3980,
    "и?": 3981,
    "и/": 3982,
    "и>": 3983,
    "и.": 3984,
    "и<": 3985,
    "и,": 3986,
    "и`": 3987,
    "и|": 3988,
    "и\\": 3989,
    "и'": 3990,
    "и\"": 3991,
    "и[": 3992,
    "и]": 3993,
    "и{": 3994,
    "и}": 3995,
    "и ": 3996,
    "йa": 3997,
    "йb": 3998,
    "йc": 3999,
    "йd": 4000,
    "йe": 4001,
    "йf": 4002,
    "йg": 4003,
    "йh": 4004,
    "йi": 4005,
    "йj": 4006,
    "йk": 4007,
    "йl": 4008,
    "йm": 4009,
    "йn": 4010,
    "йo": 4011,
    "йp": 4012,
    "йq": 4013,
    "йr": 4014,
    "йs": 4015,
    "йt": 4016,
    "йu": 4017,
    "йv": 4018,
    "йw": 4019,
    "йx": 4020,
    "йy": 4021,
    "йz": 4022,
    "йа": 4023,
    "йб": 4024,
    "йв": 4025,
    "йг": 4026,
    "йд": 4027,
    "йе": 4028,
    "йё": 4029,
    "йж": 4030,
    "йз": 4031,
    "йи": 4032,
    "йй": 4033,
    "йк": 4034,
    "йл": 4035,
    "йм": 4036,
    "йн": 4037,
    "йо": 4038,
    "йп": 4039,
    "йр": 4040,
    "йс": 4041,
    "йт": 4042,
    "йу": 4043,
    "йф": 4044,
    "йх": 4045,
    "йц": 4046,
    "йч": 4047,
    "йш": 4048,
    "йщ": 4049,
    "йъ": 4050,
    "йы": 4051,
    "йь": 4052,
    "йэ": 4053,
    "йю": 4054,
    "йя": 4055,
    "йә": 4056,
    "йі": 4057,
    "йң": 4058,
    "йғ": 4059,
    "йү": 4060,
    "йұ": 4061,
    "йқ": 4062,
    "йө": 4063,
    "йһ": 4064,
    "й1": 4065,
    "й2": 4066,
    "й3": 4067,
    "й4": 4068,
    "й5": 4069,
    "й6": 4070,
    "й7": 4071,
    "й8": 4072,
    "й9": 4073,
    "й0": 4074,
    "й!": 4075,
    "й@": 4076,
    "й#": 4077,
    "й$": 4078,
    "й%": 4079,
    "й^": 4080,
    "й&": 4081,
    "й*": 4082,
    "й(": 4083,
    "й)": 4084,
    "й_": 4085,
    "й+": 4086,
    "й=": 4087,
    "й-": 4088,
    "й?": 4089,
    "й/": 4090,
    "й>": 4091,
    "й.": 4092,
    "й<": 4093,
    "й,": 4094,
    "й`": 4095,
    "й|": 4096,
    "й\\": 4097,
    "й'": 4098,
    "й\"": 4099,
    "й[": 4100,
    "й]": 4101,
    "й{": 4102,
    "й}": 4103,
    "й ": 4104,
    "кa": 4105,
    "кb": 4106,
    "кc": 4107,
    "кd": 4108,
    "кe": 4109,
    "кf": 4110,
    "кg": 4111,
    "кh": 4112,
    "кi": 4113,
    "кj": 4114,
    "кk": 4115,
    "кl": 4116,
    "кm": 4117,
    "кn": 4118,
    "кo": 4119,
    "кp": 4120,
    "кq": 4121,
    "кr": 4122,
    "кs": 4123,
    "кt": 4124,
    "кu": 4125,
    "кv": 4126,
    "кw": 4127,
    "кx": 4128,
    "кy": 4129,
    "кz": 4130,
    "ка": 4131,
    "кб": 4132,
    "кв": 4133,
    "кг": 4134,
    "кд": 4135,
    "ке": 4136,
    "кё": 4137,
    "кж": 4138,
    "кз": 4139,
    "ки": 4140,
    "кй": 4141,
    "кк": 4142,
    "кл": 4143,
    "км": 4144,
    "кн": 4145,
    "ко": 4146,
    "кп": 4147,
    "кр": 4148,
    "кс": 4149,
    "кт": 4150,
    "ку": 4151,
    "кф": 4152,
    "кх": 4153,
    "кц": 4154,
    "кч": 4155,
    "кш": 4156,
    "кщ": 4157,
    "къ": 4158,
    "кы": 4159,
    "кь": 4160,
    "кэ": 4161,
    "кю": 4162,
    "кя": 4163,
    "кә": 4164,
    "кі": 4165,
    "кң": 4166,
    "кғ": 4167,
    "кү": 4168,
    "кұ": 4169,
    "кқ": 4170,
    "кө": 4171,
    "кһ": 4172,
    "к1": 4173,
    "к2": 4174,
    "к3": 4175,
    "к4": 4176,
    "к5": 4177,
    "к6": 4178,
    "к7": 4179,
    "к8": 4180,
    "к9": 4181,
    "к0": 4182,
    "к!": 4183,
    "к@": 4184,
    "к#": 4185,
    "к$": 4186,
    "к%": 4187,
    "к^": 4188,
    "к&": 4189,
    "к*": 4190,
    "к(": 4191,
    "к)": 4192,
    "к_": 4193,
    "к+": 4194,
    "к=": 4195,
    "к-": 4196,
    "к?": 4197,
    "к/": 4198,
    "к>": 4199,
    "к.": 4200,
    "к<": 4201,
    "к,": 4202,
    "к`": 4203,
    "к|": 4204,
    "к\\": 4205,
    "к'": 4206,
    "к\"": 4207,
    "к[": 4208,
    "к]": 4209,
    "к{": 4210,
    "к}": 4211,
    "к ": 4212,
    "лa": 4213,
    "лb": 4214,
    "лc": 4215,
    "лd": 4216,
    "лe": 4217,
    "лf": 4218,
    "лg": 4219,
    "лh": 4220,
    "лi": 4221,
    "лj": 4222,
    "лk": 4223,
    "лl": 4224,
    "лm": 4225,
    "лn": 4226,
    "лo": 4227,
    "лp": 4228,
    "лq": 4229,
    "лr": 4230,
    "лs": 4231,
    "лt": 4232,
    "лu": 4233,
    "лv": 4234,
    "лw": 4235,
    "лx": 4236,
    "лy": 4237,
    "лz": 4238,
    "ла": 4239,
    "лб": 4240,
    "лв": 4241,
    "лг": 4242,
    "лд": 4243,
    "ле": 4244,
    "лё": 4245,
    "лж": 4246,
    "лз": 4247,
    "ли": 4248,
    "лй": 4249,
    "лк": 4250,
    "лл": 4251,
    "лм": 4252,
    "лн": 4253,
    "ло": 4254,
    "лп": 4255,
    "лр": 4256,
    "лс": 4257,
    "лт": 4258,
    "лу": 4259,
    "лф": 4260,
    "лх": 4261,
    "лц": 4262,
    "лч": 4263,
    "лш": 4264,
    "лщ": 4265,
    "лъ": 4266,
    "лы": 4267,
    "ль": 4268,
    "лэ": 4269,
    "лю": 4270,
    "ля": 4271,
    "лә": 4272,
    "лі": 4273,
    "лң": 4274,
    "лғ": 4275,
    "лү": 4276,
    "лұ": 4277,
    "лқ": 4278,
    "лө": 4279,
    "лһ": 4280,
    "л1": 4281,
    "л2": 4282,
    "л3": 4283,
    "л4": 4284,
    "л5": 4285,
    "л6": 4286,
    "л7": 4287,
    "л8": 4288,
    "л9": 4289,
    "л0": 4290,
    "л!": 4291,
    "л@": 4292,
    "л#": 4293,
    "л$": 4294,
    "л%": 4295,
    "л^": 4296,
    "л&": 4297,
    "л*": 4298,
    "л(": 4299,
    "л)": 4300,
    "л_": 4301,
    "л+": 4302,
    "л=": 4303,
    "л-": 4304,
    "л?": 4305,
    "л/": 4306,
    "л>": 4307,
    "л.": 4308,
    "л<": 4309,
    "л,": 4310,
    "л`": 4311,
    "л|": 4312,
    "л\\": 4313,
    "л'": 4314,
    "л\"": 4315,
    "л[": 4316,
    "л]": 4317,
    "л{": 4318,
    "л}": 4319,
    "л ": 4320,
    "мa": 4321,
    "мb": 4322,
    "мc": 4323,
    "мd": 4324,
    "мe": 4325,
    "мf": 4326,
    "мg": 4327,
    "мh": 4328,
    "мi": 4329,
    "мj": 4330,
    "мk": 4331,
    "мl": 4332,
    "мm": 4333,
    "мn": 4334,
    "мo": 4335,
    "мp": 4336,
    "мq": 4337,
    "мr": 4338,
    "мs": 4339,
    "мt": 4340,
    "мu": 4341,
    "мv": 4342,
    "мw": 4343,
    "мx": 4344,
    "мy": 4345,
    "мz": 4346,
    "ма": 4347,
    "мб": 4348,
    "мв": 4349,
    "мг": 4350,
    "мд": 4351,
    "ме": 4352,
    "мё": 4353,
    "мж": 4354,
    "мз": 4355,
    "ми": 4356,
    "мй": 4357,
    "мк": 4358,
    "мл": 4359,
    "мм": 4360,
    "мн": 4361,
    "мо": 4362,
    "мп": 4363,
    "мр": 4364,
    "мс": 4365,
    "мт": 4366,
    "му": 4367,
    "мф": 4368,
    "мх": 4369,
    "мц": 4370,
    "мч": 4371,
    "мш": 4372,
    "мщ": 4373,
    "мъ": 4374,
    "мы": 4375,
    "мь": 4376,
    "мэ": 4377,
    "мю": 4378,
    "мя": 4379,
    "мә": 4380,
    "мі": 4381,
    "мң": 4382,
    "мғ": 4383,
    "мү": 4384,
    "мұ": 4385,
    "мқ": 4386,
    "мө": 4387,
    "мһ": 4388,
    "м1": 4389,
    "м2": 4390,
    "м3": 4391,
    "м4": 4392,
    "м5": 4393,
    "м6": 4394,
    "м7": 4395,
    "м8": 4396,
    "м9": 4397,
    "м0": 4398,
    "м!": 4399,
    "м@": 4400,
    "м#": 4401,
    "м$": 4402,
    "м%": 4403,
    "м^": 4404,
    "м&": 4405,
    "м*": 4406,
    "м(": 4407,
    "м)": 4408,
    "м_": 4409,
    "м+": 4410,
    "м=": 4411,
    "м-": 4412,
    "м?": 4413,
    "м/": 4414,
    "м>": 4415,
    "м.": 4416,
    "м<": 4417,
    "м,": 4418,
    "м`": 4419,
    "м|": 4420,
    "м\\": 4421,
    "м'": 4422,
    "м\"": 4423,
    "м[": 4424,
    "м]": 4425,
    "м{": 4426,
    "м}": 4427,
    "м ": 4428,
    "нa": 4429,
    "нb": 4430,
    "нc": 4431,
    "нd": 4432,
    "нe": 4433,
    "нf": 4434,
    "нg": 4435,
    "нh": 4436,
    "нi": 4437,
    "нj": 4438,
    "нk": 4439,
    "нl": 4440,
    "нm": 4441,
    "нn": 4442,
    "нo": 4443,
    "нp": 4444,
    "нq": 4445,
    "нr": 4446,
    "нs": 4447,
    "нt": 4448,
    "нu": 4449,
    "нv": 4450,
    "нw": 4451,
    "нx": 4452,
    "нy": 4453,
    "нz": 4454,
    "на": 4455,
    "нб": 4456,
    "нв": 4457,
    "нг": 4458,
    "нд": 4459,
    "не": 4460,
    "нё": 4461,
    "нж": 4462,
    "нз": 4463,
    "ни": 4464,
    "нй": 4465,
    "нк": 4466,
    "нл": 4467,
    "нм": 4468,
    "нн": 4469,
    "но": 4470,
    "нп": 4471,
    "нр": 4472,
    "нс": 4473,
    "нт": 4474,
    "ну": 4475,
    "нф": 4476,
    "нх": 4477,
    "нц": 4478,
    "нч": 4479,
    "нш": 4480,
    "нщ": 4481,
    "нъ": 4482,
    "ны": 4483,
    "нь": 4484,
    "нэ": 4485,
    "ню": 4486,
    "ня": 4487,
    "нә": 4488,
    "ні": 4489,
    "нң": 4490,
    "нғ": 4491,
    "нү": 4492,
    "нұ": 4493,
    "нқ": 4494,
    "нө": 4495,
    "нһ": 4496,
    "н1": 4497,
    "н2": 4498,
    "н3": 4499,
    "н4": 4500,
    "н5": 4501,
    "н6": 4502,
    "н7": 4503,
    "н8": 4504,
    "н9": 4505,
    "н0": 4506,
    "н!": 4507,
    "н@": 4508,
    "н#": 4509,
    "н$": 4510,
    "н%": 4511,
    "н^": 4512,
    "н&": 4513,
    "н*": 4514,
    "н(": 4515,
    "н)": 4516,
    "н_": 4517,
    "н+": 4518,
    "н=": 4519,
    "н-": 4520,
    "н?": 4521,
    "н/": 4522,
    "н>": 4523,
    "н.": 4524,
    "н<": 4525,
    "н,": 4526,
    "н`": 4527,
    "н|": 4528,
    "н\\": 4529,
    "н'": 4530,
    "н\"": 4531,
    "н[": 4532,
    "н]": 4533,
    "н{": 4534,
    "н}": 4535,
    "н ": 4536,
    "оa": 4537,
    "оb": 4538,
    "оc": 4539,
    "оd": 4540,
    "оe": 4541,
    "оf": 4542,
    "оg": 4543,
    "оh": 4544,
    "оi": 4545,
    "оj": 4546,
    "оk": 4547,
    "оl": 4548,
    "оm": 4549,
    "оn": 4550,
    "оo": 4551,
    "оp": 4552,
    "оq": 4553,
    "оr": 4554,
    "оs": 4555,
    "оt": 4556,
    "оu": 4557,
    "оv": 4558,
    "оw": 4559,
    "оx": 4560,
    "оy": 4561,
    "оz": 4562,
    "оа": 4563,
    "об": 4564,
    "ов": 4565,
    "ог": 4566,
    "од": 4567,
    "ое": 4568,
    "оё": 4569,
    "ож": 4570,
    "оз": 4571,
    "ои": 4572,
    "ой": 4573,
    "ок": 4574,
    "ол": 4575,
    "ом": 4576,
    "он": 4577,
    "оо": 4578,
    "оп": 4579,
    "ор": 4580,
    "ос": 4581,
    "от": 4582,
    "оу": 4583,
    "оф": 4584,
    "ох": 4585,
    "оц": 4586,
    "оч": 4587,
    "ош": 4588,
    "ощ": 4589,
    "оъ": 4590,
    "оы": 4591,
    "оь": 4592,
    "оэ": 4593,
    "ою": 4594,
    "оя": 4595,
    "оә": 4596,
    "оі": 4597,
    "оң": 4598,
    "оғ": 4599,
    "оү": 4600,
    "оұ": 4601,
    "оқ": 4602,
    "оө": 4603,
    "оһ": 4604,
    "о1": 4605,
    "о2": 4606,
    "о3": 4607,
    "о4": 4608,
    "о5": 4609,
    "о6": 4610,
    "о7": 4611,
    "о8": 4612,
    "о9": 4613,
    "о0": 4614,
    "о!": 4615,
    "о@": 4616,
    "о#": 4617,
    "о$": 4618,
    "о%": 4619,
    "о^": 4620,
    "о&": 4621,
    "о*": 4622,
    "о(": 4623,
    "о)": 4624,
    "о_": 4625,
    "о+": 4626,
    "о=": 4627,
    "о-": 4628,
    "о?": 4629,
    "о/": 4630,
    "о>": 4631,
    "о.": 4632,
    "о<": 4633,
    "о,": 4634,
    "о`": 4635,
    "о|": 4636,
    "о\\": 4637,
    "о'": 4638,
    "о\"": 4639,
    "о[": 4640,
    "о]": 4641,
    "о{": 4642,
    "о}": 4643,
    "о ": 4644,
    "пa": 4645,
    "пb": 4646,
    "пc": 4647,
    "пd": 4648,
    "пe": 4649,
    "пf": 4650,
    "пg": 4651,
    "пh": 4652,
    "пi": 4653,
    "пj": 4654,
    "пk": 4655,
    "пl": 4656,
    "пm": 4657,
    "пn": 4658,
    "пo": 4659,
    "пp": 4660,
    "пq": 4661,
    "пr": 4662,
    "пs": 4663,
    "пt": 4664,
    "пu": 4665,
    "пv": 4666,
    "пw": 4667,
    "пx": 4668,
    "пy": 4669,
    "пz": 4670,
    "па": 4671,
    "пб": 4672,
    "пв": 4673,
    "пг": 4674,
    "пд": 4675,
    "пе": 4676,
    "пё": 4677,
    "пж": 4678,
    "пз": 4679,
    "пи": 4680,
    "пй": 4681,
    "пк": 4682,
    "пл": 4683,
    "пм": 4684,
    "пн": 4685,
    "по": 4686,
    "пп": 4687,
    "пр": 4688,
    "пс": 4689,
    "пт": 4690,
    "пу": 4691,
    "пф": 4692,
    "пх": 4693,
    "пц": 4694,
    "пч": 4695,
    "пш": 4696,
    "пщ": 4697,
    "пъ": 4698,
    "пы": 4699,
    "пь": 4700,
    "пэ": 4701,
    "пю": 4702,
    "пя": 4703,
    "пә": 4704,
    "пі": 4705,
    "пң": 4706,
    "пғ": 4707,
    "пү": 4708,
    "пұ": 4709,
    "пқ": 4710,
    "пө": 4711,
    "пһ": 4712,
    "п1": 4713,
    "п2": 4714,
    "п3": 4715,
    "п4": 4716,
    "п5": 4717,
    "п6": 4718,
    "п7": 4719,
    "п8": 4720,
    "п9": 4721,
    "п0": 4722,
    "п!": 4723,
    "п@": 4724,
    "п#": 4725,
    "п$": 4726,
    "п%": 4727,
    "п^": 4728,
    "п&": 4729,
    "п*": 4730,
    "п(": 4731,
    "п)": 4732,
    "п_": 4733,
    "п+": 4734,
    "п=": 4735,
    "п-": 4736,
    "п?": 4737,
    "п/": 4738,
    "п>": 4739,
    "п.": 4740,
    "п<": 4741,
    "п,": 4742,
    "п`": 4743,
    "п|": 4744,
    "п\\": 4745,
    "п'": 4746,
    "п\"": 4747,
    "п[": 4748,
    "п]": 4749,
    "п{": 4750,
    "п}": 4751,
    "п ": 4752,
    "рa": 4753,
    "рb": 4754,
    "рc": 4755,
    "рd": 4756,
    "рe": 4757,
    "рf": 4758,
    "рg": 4759,
    "рh": 4760,
    "рi": 4761,
    "рj": 4762,
    "рk": 4763,
    "рl": 4764,
    "рm": 4765,
    "рn": 4766,
    "рo": 4767,
    "рp": 4768,
    "рq": 4769,
    "рr": 4770,
    "рs": 4771,
    "рt": 4772,
    "рu": 4773,
    "рv": 4774,
    "рw": 4775,
    "рx": 4776,
    "рy": 4777,
    "рz": 4778,
    "ра": 4779,
    "рб": 4780,
    "рв": 4781,
    "рг": 4782,
    "рд": 4783,
    "ре": 4784,
    "рё": 4785,
    "рж": 4786,
    "рз": 4787,
    "ри": 4788,
    "рй": 4789,
    "рк": 4790,
    "рл": 4791,
    "рм": 4792,
    "рн": 4793,
    "ро": 4794,
    "рп": 4795,
    "рр": 4796,
    "рс": 4797,
    "рт": 4798,
    "ру": 4799,
    "рф": 4800,
    "рх": 4801,
    "рц": 4802,
    "рч": 4803,
    "рш": 4804,
    "рщ": 4805,
    "ръ": 4806,
    "ры": 4807,
    "рь": 4808,
    "рэ": 4809,
    "рю": 4810,
    "ря": 4811,
    "рә": 4812,
    "рі": 4813,
    "рң": 4814,
    "рғ": 4815,
    "рү": 4816,
    "рұ": 4817,
    "рқ": 4818,
    "рө": 4819,
    "рһ": 4820,
    "р1": 4821,
    "р2": 4822,
    "р3": 4823,
    "р4": 4824,
    "р5": 4825,
    "р6": 4826,
    "р7": 4827,
    "р8": 4828,
    "р9": 4829,
    "р0": 4830,
    "р!": 4831,
    "р@": 4832,
    "р#": 4833,
    "р$": 4834,
    "р%": 4835,
    "р^": 4836,
    "р&": 4837,
    "р*": 4838,
    "р(": 4839,
    "р)": 4840,
    "р_": 4841,
    "р+": 4842,
    "р=": 4843,
    "р-": 4844,
    "р?": 4845,
    "р/": 4846,
    "р>": 4847,
    "р.": 4848,
    "р<": 4849,
    "р,": 4850,
    "р`": 4851,
    "р|": 4852,
    "р\\": 4853,
    "р'": 4854,
    "р\"": 4855,
    "р[": 4856,
    "р]": 4857,
    "р{": 4858,
    "р}": 4859,
    "р ": 4860,
    "сa": 4861,
    "сb": 4862,
    "сc": 4863,
    "сd": 4864,
    "сe": 4865,
    "сf": 4866,
    "сg": 4867,
    "сh": 4868,
    "сi": 4869,
    "сj": 4870,
    "сk": 4871,
    "сl": 4872,
    "сm": 4873,
    "сn": 4874,
    "сo": 4875,
    "сp": 4876,
    "сq": 4877,
    "сr": 4878,
    "сs": 4879,
    "сt": 4880,
    "сu": 4881,
    "сv": 4882,
    "сw": 4883,
    "сx": 4884,
    "сy": 4885,
    "сz": 4886,
    "са": 4887,
    "сб": 4888,
    "св": 4889,
    "сг": 4890,
    "сд": 4891,
    "се": 4892,
    "сё": 4893,
    "сж": 4894,
    "сз": 4895,
    "си": 4896,
    "сй": 4897,
    "ск": 4898,
    "сл": 4899,
    "см": 4900,
    "сн": 4901,
    "со": 4902,
    "сп": 4903,
    "ср": 4904,
    "сс": 4905,
    "ст": 4906,
    "су": 4907,
    "сф": 4908,
    "сх": 4909,
    "сц": 4910,
    "сч": 4911,
    "сш": 4912,
    "сщ": 4913,
    "съ": 4914,
    "сы": 4915,
    "сь": 4916,
    "сэ": 4917,
    "сю": 4918,
    "ся": 4919,
    "сә": 4920,
    "сі": 4921,
    "сң": 4922,
    "сғ": 4923,
    "сү": 4924,
    "сұ": 4925,
    "сқ": 4926,
    "сө": 4927,
    "сһ": 4928,
    "с1": 4929,
    "с2": 4930,
    "с3": 4931,
    "с4": 4932,
    "с5": 4933,
    "с6": 4934,
    "с7": 4935,
    "с8": 4936,
    "с9": 4937,
    "с0": 4938,
    "с!": 4939,
    "с@": 4940,
    "с#": 4941,
    "с$": 4942,
    "с%": 4943,
    "с^": 4944,
    "с&": 4945,
    "с*": 4946,
    "с(": 4947,
    "с)": 4948,
    "с_": 4949,
    "с+": 4950,
    "с=": 4951,
    "с-": 4952,
    "с?": 4953,
    "с/": 4954,
    "с>": 4955,
    "с.": 4956,
    "с<": 4957,
    "с,": 4958,
    "с`": 4959,
    "с|": 4960,
    "с\\": 4961,
    "с'": 4962,
    "с\"": 4963,
    "с[": 4964,
    "с]": 4965,
    "с{": 4966,
    "с}": 4967,
    "с ": 4968,
    "тa": 4969,
    "тb": 4970,
    "тc": 4971,
    "тd": 4972,
    "тe": 4973,
    "тf": 4974,
    "тg": 4975,
    "тh": 4976,
    "тi": 4977,
    "тj": 4978,
    "тk": 4979,
    "тl": 4980,
    "тm": 4981,
    "тn": 4982,
    "тo": 4983,
    "тp": 4984,
    "тq": 4985,
    "тr": 4986,
    "тs": 4987,
    "тt": 4988,
    "тu": 4989,
    "тv": 4990,
    "тw": 4991,
    "тx": 4992,
    "тy": 4993,
    "тz": 4994,
    "та": 4995,
    "тб": 4996,
    "тв": 4997,
    "тг": 4998,
    "тд": 4999,
    "те": 5000,
    "тё": 5001,
    "тж": 5002,
    "тз": 5003,
    "ти": 5004,
    "тй": 5005,
    "тк": 5006,
    "тл": 5007,
    "тм": 5008,
    "тн": 5009,
    "то": 5010,
    "тп": 5011,
    "тр": 5012,
    "тс": 5013,
    "тт": 5014,
    "ту": 5015,
    "тф": 5016,
    "тх": 5017,
    "тц": 5018,
    "тч": 5019,
    "тш": 5020,
    "тщ": 5021,
    "тъ": 5022,
    "ты": 5023,
    "ть": 5024,
    "тэ": 5025,
    "тю": 5026,
    "тя": 5027,
    "тә": 5028,
    "ті": 5029,
    "тң": 5030,
    "тғ": 5031,
    "тү": 5032,
    "тұ": 5033,
    "тқ": 5034,
    "тө": 5035,
    "тһ": 5036,
    "т1": 5037,
    "т2": 5038,
    "т3": 5039,
    "т4": 5040,
    "т5": 5041,
    "т6": 5042,
    "т7": 5043,
    "т8": 5044,
    "т9": 5045,
    "т0": 5046,
    "т!": 5047,
    "т@": 5048,
    "т#": 5049,
    "т$": 5050,
    "т%": 5051,
    "т^": 5052,
    "т&": 5053,
    "т*": 5054,
    "т(": 5055,
    "т)": 5056,
    "т_": 5057,
    "т+": 5058,
    "т=": 5059,
    "т-": 5060,
    "т?": 5061,
    "т/": 5062,
    "т>": 5063,
    "т.": 5064,
    "т<": 5065,
    "т,": 5066,
    "т`": 5067,
    "т|": 5068,
    "т\\": 5069,
    "т'": 5070,
    "т\"": 5071,
    "т[": 5072,
    "т]": 5073,
    "т{": 5074,
    "т}": 5075,
    "т ": 5076,
    "уa": 5077,
    "уb": 5078,
    "уc": 5079,
    "уd": 5080,
    "уe": 5081,
    "уf": 5082,
    "уg": 5083,
    "уh": 5084,
    "уi": 5085,
    "уj": 5086,
    "уk": 5087,
    "уl": 5088,
    "уm": 5089,
    "уn": 5090,
    "уo": 5091,
    "уp": 5092,
    "уq": 5093,
    "уr": 5094,
    "уs": 5095,
    "уt": 5096,
    "уu": 5097,
    "уv": 5098,
    "уw": 5099,
    "уx": 5100,
    "уy": 5101,
    "уz": 5102,
    "уа": 5103,
    "уб": 5104,
    "ув": 5105,
    "уг": 5106,
    "уд": 5107,
    "уе": 5108,
    "уё": 5109,
    "уж": 5110,
    "уз": 5111,
    "уи": 5112,
    "уй": 5113,
    "ук": 5114,
    "ул": 5115,
    "ум": 5116,
    "ун": 5117,
    "уо": 5118,
    "уп": 5119,
    "ур": 5120,
    "ус": 5121,
    "ут": 5122,
    "уу": 5123,
    "уф": 5124,
    "ух": 5125,
    "уц": 5126,
    "уч": 5127,
    "уш": 5128,
    "ущ": 5129,
    "уъ": 5130,
    "уы": 5131,
    "уь": 5132,
    "уэ": 5133,
    "ую": 5134,
    "уя": 5135,
    "уә": 5136,
    "уі": 5137,
    "уң": 5138,
    "уғ": 5139,
    "уү": 5140,
    "уұ": 5141,
    "уқ": 5142,
    "уө": 5143,
    "уһ": 5144,
    "у1": 5145,
    "у2": 5146,
    "у3": 5147,
    "у4": 5148,
    "у5": 5149,
    "у6": 5150,
    "у7": 5151,
    "у8": 5152,
    "у9": 5153,
    "у0": 5154,
    "у!": 5155,
    "у@": 5156,
    "у#": 5157,
    "у$": 5158,
    "у%": 5159,
    "у^": 5160,
    "у&": 5161,
    "у*": 5162,
    "у(": 5163,
    "у)": 5164,
    "у_": 5165,
    "у+": 5166,
    "у=": 5167,
    "у-": 5168,
    "у?": 5169,
    "у/": 5170,
    "у>": 5171,
    "у.": 5172,
    "у<": 5173,
    "у,": 5174,
    "у`": 5175,
    "у|": 5176,
    "у\\": 5177,
    "у'": 5178,
    "у\"": 5179,
    "у[": 5180,
    "у]": 5181,
    "у{": 5182,
    "у}": 5183,
    "у ": 5184,
    "фa": 5185,
    "фb": 5186,
    "фc": 5187,
    "фd": 5188,
    "фe": 5189,
    "фf": 5190,
    "фg": 5191,
    "фh": 5192,
    "фi": 5193,
    "фj": 5194,
    "фk": 5195,
    "фl": 5196,
    "фm": 5197,
    "фn": 5198,
    "фo": 5199,
    "фp": 5200,
    "фq": 5201,
    "фr": 5202,
    "фs": 5203,
    "фt": 5204,
    "фu": 5205,
    "фv": 5206,
    "фw": 5207,
    "фx": 5208,
    "фy": 5209,
    "фz": 5210,
    "фа": 5211,
    "фб": 5212,
    "фв": 5213,
    "фг": 5214,
    "фд": 5215,
    "фе": 5216,
    "фё": 5217,
    "фж": 5218,
    "фз": 5219,
    "фи": 5220,
    "фй": 5221,
    "фк": 5222,
    "фл": 5223,
    "фм": 5224,
    "фн": 5225,
    "фо": 5226,
    "фп": 5227,
    "фр": 5228,
    "фс": 5229,
    "фт": 5230,
    "фу": 5231,
    "фф": 5232,
    "фх": 5233,
    "фц": 5234,
    "фч": 5235,
    "фш": 5236,
    "фщ": 5237,
    "фъ": 5238,
    "фы": 5239,
    "фь": 5240,
    "фэ": 5241,
    "фю": 5242,
    "фя": 5243,
    "фә": 5244,
    "фі": 5245,
    "фң": 5246,
    "фғ": 5247,
    "фү": 5248,
    "фұ": 5249,
    "фқ": 5250,
    "фө": 5251,
    "фһ": 5252,
    "ф1": 5253,
    "ф2": 5254,
    "ф3": 5255,
    "ф4": 5256,
    "ф5": 5257,
    "ф6": 5258,
    "ф7": 5259,
    "ф8": 5260,
    "ф9": 5261,
    "ф0": 5262,
    "ф!": 5263,
    "ф@": 5264,
    "ф#": 5265,
    "ф$": 5266,
    "ф%": 5267,
    "ф^": 5268,
    "ф&": 5269,
    "ф*": 5270,
    "ф(": 5271,
    "ф)": 5272,
    "ф_": 5273,
    "ф+": 5274,
    "ф=": 5275,
    "ф-": 5276,
    "ф?": 5277,
    "ф/": 5278,
    "ф>": 5279,
    "ф.": 5280,
    "ф<": 5281,
    "ф,": 5282,
    "ф`": 5283,
    "ф|": 5284,
    "ф\\": 5285,
    "ф'": 5286,
    "ф\"": 5287,
    "ф[": 5288,
    "ф]": 5289,
    "ф{": 5290,
    "ф}": 5291,
    "ф ": 5292,
    "хa": 5293,
    "хb": 5294,
    "хc": 5295,
    "хd": 5296,
    "хe": 5297,
    "хf": 5298,
    "хg": 5299,
    "хh": 5300,
    "хi": 5301,
    "хj": 5302,
    "хk": 5303,
    "хl": 5304,
    "хm": 5305,
    "хn": 5306,
    "хo": 5307,
    "хp": 5308,
    "хq": 5309,
    "хr": 5310,
    "хs": 5311,
    "хt": 5312,
    "хu": 5313,
    "хv": 5314,
    "хw": 5315,
    "хx": 5316,
    "хy": 5317,
    "хz": 5318,
    "ха": 5319,
    "хб": 5320,
    "хв": 5321,
    "хг": 5322,
    "хд": 5323,
    "хе": 5324,
    "хё": 5325,
    "хж": 5326,
    "хз": 5327,
    "хи": 5328,
    "хй": 5329,
    "хк": 5330,
    "хл": 5331,
    "хм": 5332,
    "хн": 5333,
    "хо": 5334,
    "хп": 5335,
    "хр": 5336,
    "хс": 5337,
    "хт": 5338,
    "ху": 5339,
    "хф": 5340,
    "хх": 5341,
    "хц": 5342,
    "хч": 5343,
    "хш": 5344,
    "хщ": 5345,
    "хъ": 5346,
    "хы": 5347,
    "хь": 5348,
    "хэ": 5349,
    "хю": 5350,
    "хя": 5351,
    "хә": 5352,
    "хі": 5353,
    "хң": 5354,
    "хғ": 5355,
    "хү": 5356,
    "хұ": 5357,
    "хқ": 5358,
    "хө": 5359,
    "хһ": 5360,
    "х1": 5361,
    "х2": 5362,
    "х3": 5363,
    "х4": 5364,
    "х5": 5365,
    "х6": 5366,
    "х7": 5367,
    "х8": 5368,
    "х9": 5369,
    "х0": 5370,
    "х!": 5371,
    "х@": 5372,
    "х#": 5373,
    "х$": 5374,
    "х%": 5375,
    "х^": 5376,
    "х&": 5377,
    "х*": 5378,
    "х(": 5379,
    "х)": 5380,
    "х_": 5381,
    "х+": 5382,
    "х=": 5383,
    "х-": 5384,
    "х?": 5385,
    "х/": 5386,
    "х>": 5387,
    "х.": 5388,
    "х<": 5389,
    "х,": 5390,
    "х`": 5391,
    "х|": 5392,
    "х\\": 5393,
    "х'": 5394,
    "х\"": 5395,
    "х[": 5396,
    "х]": 5397,
    "х{": 5398,
    "х}": 5399,
    "х ": 5400,
    "цa": 5401,
    "цb": 5402,
    "цc": 5403,
    "цd": 5404,
    "цe": 5405,
    "цf": 5406,
    "цg": 5407,
    "цh": 5408,
    "цi": 5409,
    "цj": 5410,
    "цk": 5411,
    "цl": 5412,
    "цm": 5413,
    "цn": 5414,
    "цo": 5415,
    "цp": 5416,
    "цq": 5417,
    "цr": 5418,
    "цs": 5419,
    "цt": 5420,
    "цu": 5421,
    "цv": 5422,
    "цw": 5423,
    "цx": 5424,
    "цy": 5425,
    "цz": 5426,
    "ца": 5427,
    "цб": 5428,
    "цв": 5429,
    "цг": 5430,
    "цд": 5431,
    "це": 5432,
    "цё": 5433,
    "цж": 5434,
    "цз": 5435,
    "ци": 5436,
    "цй": 5437,
    "цк": 5438,
    "цл": 5439,
    "цм": 5440,
    "цн": 5441,
    "цо": 5442,
    "цп": 5443,
    "цр": 5444,
    "цс": 5445,
    "цт": 5446,
    "цу": 5447,
    "цф": 5448,
    "цх": 5449,
    "цц": 5450,
    "цч": 5451,
    "цш": 5452,
    "цщ": 5453,
    "цъ": 5454,
    "цы": 5455,
    "ць": 5456,
    "цэ": 5457,
    "цю": 5458,
    "ця": 5459,
    "цә": 5460,
    "ці": 5461,
    "цң": 5462,
    "цғ": 5463,
    "цү": 5464,
    "цұ": 5465,
    "цқ": 5466,
    "цө": 5467,
    "цһ": 5468,
    "ц1": 5469,
    "ц2": 5470,
    "ц3": 5471,
    "ц4": 5472,
    "ц5": 5473,
    "ц6": 5474,
    "ц7": 5475,
    "ц8": 5476,
    "ц9": 5477,
    "ц0": 5478,
    "ц!": 5479,
    "ц@": 5480,
    "ц#": 5481,
    "ц$": 5482,
    "ц%": 5483,
    "ц^": 5484,
    "ц&": 5485,
    "ц*": 5486,
    "ц(": 5487,
    "ц)": 5488,
    "ц_": 5489,
    "ц+": 5490,
    "ц=": 5491,
    "ц-": 5492,
    "ц?": 5493,
    "ц/": 5494,
    "ц>": 5495,
    "ц.": 5496,
    "ц<": 5497,
    "ц,": 5498,
    "ц`": 5499,
    "ц|": 5500,
    "ц\\": 5501,
    "ц'": 5502,
    "ц\"": 5503,
    "ц[": 5504,
    "ц]": 5505,
    "ц{": 5506,
    "ц}": 5507,
    "ц ": 5508,
    "чa": 5509,
    "чb": 5510,
    "чc": 5511,
    "чd": 5512,
    "чe": 5513,
    "чf": 5514,
    "чg": 5515,
    "чh": 5516,
    "чi": 5517,
    "чj": 5518,
    "чk": 5519,
    "чl": 5520,
    "чm": 5521,
    "чn": 5522,
    "чo": 5523,
    "чp": 5524,
    "чq": 5525,
    "чr": 5526,
    "чs": 5527,
    "чt": 5528,
    "чu": 5529,
    "чv": 5530,
    "чw": 5531,
    "чx": 5532,
    "чy": 5533,
    "чz": 5534,
    "ча": 5535,
    "чб": 5536,
    "чв": 5537,
    "чг": 5538,
    "чд": 5539,
    "че": 5540,
    "чё": 5541,
    "чж": 5542,
    "чз": 5543,
    "чи": 5544,
    "чй": 5545,
    "чк": 5546,
    "чл": 5547,
    "чм": 5548,
    "чн": 5549,
    "чо": 5550,
    "чп": 5551,
    "чр": 5552,
    "чс": 5553,
    "чт": 5554,
    "чу": 5555,
    "чф": 5556,
    "чх": 5557,
    "чц": 5558,
    "чч": 5559,
    "чш": 5560,
    "чщ": 5561,
    "чъ": 5562,
    "чы": 5563,
    "чь": 5564,
    "чэ": 5565,
    "чю": 5566,
    "чя": 5567,
    "чә": 5568,
    "чі": 5569,
    "чң": 5570,
    "чғ": 5571,
    "чү": 5572,
    "чұ": 5573,
    "чқ": 5574,
    "чө": 5575,
    "чһ": 5576,
    "ч1": 5577,
    "ч2": 5578,
    "ч3": 5579,
    "ч4": 5580,
    "ч5": 5581,
    "ч6": 5582,
    "ч7": 5583,
    "ч8": 5584,
    "ч9": 5585,
    "ч0": 5586,
    "ч!": 5587,
    "ч@": 5588,
    "ч#": 5589,
    "ч$": 5590,
    "ч%": 5591,
    "ч^": 5592,
    "ч&": 5593,
    "ч*": 5594,
    "ч(": 5595,
    "ч)": 5596,
    "ч_": 5597,
    "ч+": 5598,
    "ч=": 5599,
    "ч-": 5600,
    "ч?": 5601,
    "ч/": 5602,
    "ч>": 5603,
    "ч.": 5604,
    "ч<": 5605,
    "ч,": 5606,
    "ч`": 5607,
    "ч|": 5608,
    "ч\\": 5609,
    "ч'": 5610,
    "ч\"": 5611,
    "ч[": 5612,
    "ч]": 5613,
    "ч{": 5614,
    "ч}": 5615,
    "ч ": 5616,
    "шa": 5617,
    "шb": 5618,
    "шc": 5619,
    "шd": 5620,
    "шe": 5621,
    "шf": 5622,
    "шg": 5623,
    "шh": 5624,
    "шi": 5625,
    "шj": 5626,
    "шk": 5627,
    "шl": 5628,
    "шm": 5629,
    "шn": 5630,
    "шo": 5631,
    "шp": 5632,
    "шq": 5633,
    "шr": 5634,
    "шs": 5635,
    "шt": 5636,
    "шu": 5637,
    "шv": 5638,
    "шw": 5639,
    "шx": 5640,
    "шy": 5641,
    "шz": 5642,
    "ша": 5643,
    "шб": 5644,
    "шв": 5645,
    "шг": 5646,
    "шд": 5647,
    "ше": 5648,
    "шё": 5649,
    "шж": 5650,
    "шз": 5651,
    "ши": 5652,
    "шй": 5653,
    "шк": 5654,
    "шл": 5655,
    "шм": 5656,
    "шн": 5657,
    "шо": 5658,
    "шп": 5659,
    "шр": 5660,
    "шс": 5661,
    "шт": 5662,
    "шу": 5663,
    "шф": 5664,
    "шх": 5665,
    "шц": 5666,
    "шч": 5667,
    "шш": 5668,
    "шщ": 5669,
    "шъ": 5670,
    "шы": 5671,
    "шь": 5672,
    "шэ": 5673,
    "шю": 5674,
    "шя": 5675,
    "шә": 5676,
    "ші": 5677,
    "шң": 5678,
    "шғ": 5679,
    "шү": 5680,
    "шұ": 5681,
    "шқ": 5682,
    "шө": 5683,
    "шһ": 5684,
    "ш1": 5685,
    "ш2": 5686,
    "ш3": 5687,
    "ш4": 5688,
    "ш5": 5689,
    "ш6": 5690,
    "ш7": 5691,
    "ш8": 5692,
    "ш9": 5693,
    "ш0": 5694,
    "ш!": 5695,
    "ш@": 5696,
    "ш#": 5697,
    "ш$": 5698,
    "ш%": 5699,
    "ш^": 5700,
    "ш&": 5701,
    "ш*": 5702,
    "ш(": 5703,
    "ш)": 5704,
    "ш_": 5705,
    "ш+": 5706,
    "ш=": 5707,
    "ш-": 5708,
    "ш?": 5709,
    "ш/": 5710,
    "ш>": 5711,
    "ш.": 5712,
    "ш<": 5713,
    "ш,": 5714,
    "ш`": 5715,
    "ш|": 5716,
    "ш\\": 5717,
    "ш'": 5718,
    "ш\"": 5719,
    "ш[": 5720,
    "ш]": 5721,
    "ш{": 5722,
    "ш}": 5723,
    "ш ": 5724,
    "щa": 5725,
    "щb": 5726,
    "щc": 5727,
    "щd": 5728,
    "щe": 5729,
    "щf": 5730,
    "щg": 5731,
    "щh": 5732,
    "щi": 5733,
    "щj": 5734,
    "щk": 5735,
    "щl": 5736,
    "щm": 5737,
    "щn": 5738,
    "щo": 5739,
    "щp": 5740,
    "щq": 5741,
    "щr": 5742,
    "щs": 5743,
    "щt": 5744,
    "щu": 5745,
    "щv": 5746,
    "щw": 5747,
    "щx": 5748,
    "щy": 5749,
    "щz": 5750,
    "ща": 5751,
    "щб": 5752,
    "щв": 5753,
    "щг": 5754,
    "щд": 5755,
    "ще": 5756,
    "щё": 5757,
    "щж": 5758,
    "щз": 5759,
    "щи": 5760,
    "щй": 5761,
    "щк": 5762,
    "щл": 5763,
    "щм": 5764,
    "щн": 5765,
    "що": 5766,
    "щп": 5767,
    "щр": 5768,
    "щс": 5769,
    "щт": 5770,
    "щу": 5771,
    "щф": 5772,
    "щх": 5773,
    "щц": 5774,
    "щч": 5775,
    "щш": 5776,
    "щщ": 5777,
    "щъ": 5778,
    "щы": 5779,
    "щь": 5780,
    "щэ": 5781,
    "щю": 5782,
    "щя": 5783,
    "щә": 5784,
    "щі": 5785,
    "щң": 5786,
    "щғ": 5787,
    "щү": 5788,
    "щұ": 5789,
    "щқ": 5790,
    "щө": 5791,
    "щһ": 5792,
    "щ1": 5793,
    "щ2": 5794,
    "щ3": 5795,
    "щ4": 5796,
    "щ5": 5797,
    "щ6": 5798,
    "щ7": 5799,
    "щ8": 5800,
    "щ9": 5801,
    "щ0": 5802,
    "щ!": 5803,
    "щ@": 5804,
    "щ#": 5805,
    "щ$": 5806,
    "щ%": 5807,
    "щ^": 5808,
    "щ&": 5809,
    "щ*": 5810,
    "щ(": 5811,
    "щ)": 5812,
    "щ_": 5813,
    "щ+": 5814,
    "щ=": 5815,
    "щ-": 5816,
    "щ?": 5817,
    "щ/": 5818,
    "щ>": 5819,
    "щ.": 5820,
    "щ<": 5821,
    "щ,": 5822,
    "щ`": 5823,
    "щ|": 5824,
    "щ\\": 5825,
    "щ'": 5826,
    "щ\"": 5827,
    "щ[": 5828,
    "щ]": 5829,
    "щ{": 5830,
    "щ}": 5831,
    "щ ": 5832,
    "ъa": 5833,
    "ъb": 5834,
    "ъc": 5835,
    "ъd": 5836,
    "ъe": 5837,
    "ъf": 5838,
    "ъg": 5839,
    "ъh": 5840,
    "ъi": 5841,
    "ъj": 5842,
    "ъk": 5843,
    "ъl": 5844,
    "ъm": 5845,
    "ъn": 5846,
    "ъo": 5847,
    "ъp": 5848,
    "ъq": 5849,
    "ъr": 5850,
    "ъs": 5851,
    "ъt": 5852,
    "ъu": 5853,
    "ъv": 5854,
    "ъw": 5855,
    "ъx": 5856,
    "ъy": 5857,
    "ъz": 5858,
    "ъа": 5859,
    "ъб": 5860,
    "ъв": 5861,
    "ъг": 5862,
    "ъд": 5863,
    "ъе": 5864,
    "ъё": 5865,
    "ъж": 5866,
    "ъз": 5867,
    "ъи": 5868,
    "ъй": 5869,
    "ък": 5870,
    "ъл": 5871,
    "ъм": 5872,
    "ън": 5873,
    "ъо": 5874,
    "ъп": 5875,
    "ър": 5876,
    "ъс": 5877,
    "ът": 5878,
    "ъу": 5879,
    "ъф": 5880,
    "ъх": 5881,
    "ъц": 5882,
    "ъч": 5883,
    "ъш": 5884,
    "ъщ": 5885,
    "ъъ": 5886,
    "ъы": 5887,
    "ъь": 5888,
    "ъэ": 5889,
    "ъю": 5890,
    "ъя": 5891,
    "ъә": 5892,
    "ъі": 5893,
    "ъң": 5894,
    "ъғ": 5895,
    "ъү": 5896,
    "ъұ": 5897,
    "ъқ": 5898,
    "ъө": 5899,
    "ъһ": 5900,
    "ъ1": 5901,
    "ъ2": 5902,
    "ъ3": 5903,
    "ъ4": 5904,
    "ъ5": 5905,
    "ъ6": 5906,
    "ъ7": 5907,
    "ъ8": 5908,
    "ъ9": 5909,
    "ъ0": 5910,
    "ъ!": 5911,
    "ъ@": 5912,
    "ъ#": 5913,
    "ъ$": 5914,
    "ъ%": 5915,
    "ъ^": 5916,
    "ъ&": 5917,
    "ъ*": 5918,
    "ъ(": 5919,
    "ъ)": 5920,
    "ъ_": 5921,
    "ъ+": 5922,
    "ъ=": 5923,
    "ъ-": 5924,
    "ъ?": 5925,
    "ъ/": 5926,
    "ъ>": 5927,
    "ъ.": 5928,
    "ъ<": 5929,
    "ъ,": 5930,
    "ъ`": 5931,
    "ъ|": 5932,
    "ъ\\": 5933,
    "ъ'": 5934,
    "ъ\"": 5935,
    "ъ[": 5936,
    "ъ]": 5937,
    "ъ{": 5938,
    "ъ}": 5939,
    "ъ ": 5940,
    "ыa": 5941,
    "ыb": 5942,
    "ыc": 5943,
    "ыd": 5944,
    "ыe": 5945,
    "ыf": 5946,
    "ыg": 5947,
    "ыh": 5948,
    "ыi": 5949,
    "ыj": 5950,
    "ыk": 5951,
    "ыl": 5952,
    "ыm": 5953,
    "ыn": 5954,
    "ыo": 5955,
    "ыp": 5956,
    "ыq": 5957,
    "ыr": 5958,
    "ыs": 5959,
    "ыt": 5960,
    "ыu": 5961,
    "ыv": 5962,
    "ыw": 5963,
    "ыx": 5964,
    "ыy": 5965,
    "ыz": 5966,
    "ыа": 5967,
    "ыб": 5968,
    "ыв": 5969,
    "ыг": 5970,
    "ыд": 5971,
    "ые": 5972,
    "ыё": 5973,
    "ыж": 5974,
    "ыз": 5975,
    "ыи": 5976,
    "ый": 5977,
    "ык": 5978,
    "ыл": 5979,
    "ым": 5980,
    "ын": 5981,
    "ыо": 5982,
    "ып": 5983,
    "ыр": 5984,
    "ыс": 5985,
    "ыт": 5986,
    "ыу": 5987,
    "ыф": 5988,
    "ых": 5989,
    "ыц": 5990,
    "ыч": 5991,
    "ыш": 5992,
    "ыщ": 5993,
    "ыъ": 5994,
    "ыы": 5995,
    "ыь": 5996,
    "ыэ": 5997,
    "ыю": 5998,
    "ыя": 5999,
    "ыә": 6000,
    "ыі": 6001,
    "ың": 6002,
    "ығ": 6003,
    "ыү": 6004,
    "ыұ": 6005,
    "ық": 6006,
    "ыө": 6007,
    "ыһ": 6008,
    "ы1": 6009,
    "ы2": 6010,
    "ы3": 6011,
    "ы4": 6012,
    "ы5": 6013,
    "ы6": 6014,
    "ы7": 6015,
    "ы8": 6016,
    "ы9": 6017,
    "ы0": 6018,
    "ы!": 6019,
    "ы@": 6020,
    "ы#": 6021,
    "ы$": 6022,
    "ы%": 6023,
    "ы^": 6024,
    "ы&": 6025,
    "ы*": 6026,
    "ы(": 6027,
    "ы)": 6028,
    "ы_": 6029,
    "ы+": 6030,
    "ы=": 6031,
    "ы-": 6032,
    "ы?": 6033,
    "ы/": 6034,
    "ы>": 6035,
    "ы.": 6036,
    "ы<": 6037,
    "ы,": 6038,
    "ы`": 6039,
    "ы|": 6040,
    "ы\\": 6041,
    "ы'": 6042,
    "ы\"": 6043,
    "ы[": 6044,
    "ы]": 6045,
    "ы{": 6046,
    "ы}": 6047,
    "ы ": 6048,
    "ьa": 6049,
    "ьb": 6050,
    "ьc": 6051,
    "ьd": 6052,
    "ьe": 6053,
    "ьf": 6054,
    "ьg": 6055,
    "ьh": 6056,
    "ьi": 6057,
    "ьj": 6058,
    "ьk": 6059,
    "ьl": 6060,
    "ьm": 6061,
    "ьn": 6062,
    "ьo": 6063,
    "ьp": 6064,
    "ьq": 6065,
    "ьr": 6066,
    "ьs": 6067,
    "ьt": 6068,
    "ьu": 6069,
    "ьv": 6070,
    "ьw": 6071,
    "ьx": 6072,
    "ьy": 6073,
    "ьz": 6074,
    "ьа": 6075,
    "ьб": 6076,
    "ьв": 6077,
    "ьг": 6078,
    "ьд": 6079,
    "ье": 6080,
    "ьё": 6081,
    "ьж": 6082,
    "ьз": 6083,
    "ьи": 6084,
    "ьй": 6085,
    "ьк": 6086,
    "ьл": 6087,
    "ьм": 6088,
    "ьн": 6089,
    "ьо": 6090,
    "ьп": 6091,
    "ьр": 6092,
    "ьс": 6093,
    "ьт": 6094,
    "ьу": 6095,
    "ьф": 6096,
    "ьх": 6097,
    "ьц": 6098,
    "ьч": 6099,
    "ьш": 6100,
    "ьщ": 6101,
    "ьъ": 6102,
    "ьы": 6103,
    "ьь": 6104,
    "ьэ": 6105,
    "ью": 6106,
    "ья": 6107,
    "ьә": 6108,
    "ьі": 6109,
    "ьң": 6110,
    "ьғ": 6111,
    "ьү": 6112,
    "ьұ": 6113,
    "ьқ": 6114,
    "ьө": 6115,
    "ьһ": 6116,
    "ь1": 6117,
    "ь2": 6118,
    "ь3": 6119,
    "ь4": 6120,
    "ь5": 6121,
    "ь6": 6122,
    "ь7": 6123,
    "ь8": 6124,
    "ь9": 6125,
    "ь0": 6126,
    "ь!": 6127,
    "ь@": 6128,
    "ь#": 6129,
    "ь$": 6130,
    "ь%": 6131,
    "ь^": 6132,
    "ь&": 6133,
    "ь*": 6134,
    "ь(": 6135,
    "ь)": 6136,
    "ь_": 6137,
    "ь+": 6138,
    "ь=": 6139,
    "ь-": 6140,
    "ь?": 6141,
    "ь/": 6142,
    "ь>": 6143,
    "ь.": 6144,
    "ь<": 6145,
    "ь,": 6146,
    "ь`": 6147,
    "ь|": 6148,
    "ь\\": 6149,
    "ь'": 6150,
    "ь\"": 6151,
    "ь[": 6152,
    "ь]": 6153,
    "ь{": 6154,
    "ь}": 6155,
    "ь ": 6156,
    "эa": 6157,
    "эb": 6158,
    "эc": 6159,
    "эd": 6160,
    "эe": 6161,
    "эf": 6162,
    "эg": 6163,
    "эh": 6164,
    "эi": 6165,
    "эj": 6166,
    "эk": 6167,
    "эl": 6168,
    "эm": 6169,
    "эn": 6170,
    "эo": 6171,
    "эp": 6172,
    "эq": 6173,
    "эr": 6174,
    "эs": 6175,
    "эt": 6176,
    "эu": 6177,
    "эv": 6178,
    "эw": 6179,
    "эx": 6180,
    "эy": 6181,
    "эz": 6182,
    "эа": 6183,
    "эб": 6184,
    "эв": 6185,
    "эг": 6186,
    "эд": 6187,
    "эе": 6188,
    "эё": 6189,
    "эж": 6190,
    "эз": 6191,
    "эи": 6192,
    "эй": 6193,
    "эк": 6194,
    "эл": 6195,
    "эм": 6196,
    "эн": 6197,
    "эо": 6198,
    "эп": 6199,
    "эр": 6200,
    "эс": 6201,
    "эт": 6202,
    "эу": 6203,
    "эф": 6204,
    "эх": 6205,
    "эц": 6206,
    "эч": 6207,
    "эш": 6208,
    "эщ": 6209,
    "эъ": 6210,
    "эы": 6211,
    "эь": 6212,
    "ээ": 6213,
    "эю": 6214,
    "эя": 6215,
    "эә": 6216,
    "эі": 6217,
    "эң": 6218,
    "эғ": 6219,
    "эү": 6220,
    "эұ": 6221,
    "эқ": 6222,
    "эө": 6223,
    "эһ": 6224,
    "э1": 6225,
    "э2": 6226,
    "э3": 6227,
    "э4": 6228,
    "э5": 6229,
    "э6": 6230,
    "э7": 6231,
    "э8": 6232,
    "э9": 6233,
    "э0": 6234,
    "э!": 6235,
    "э@": 6236,
    "э#": 6237,
    "э$": 6238,
    "э%": 6239,
    "э^": 6240,
    "э&": 6241,
    "э*": 6242,
    "э(": 6243,
    "э)": 6244,
    "э_": 6245,
    "э+": 6246,
    "э=": 6247,
    "э-": 6248,
    "э?": 6249,
    "э/": 6250,
    "э>": 6251,
    "э.": 6252,
    "э<": 6253,
    "э,": 6254,
    "э`": 6255,
    "э|": 6256,
    "э\\": 6257,
    "э'": 6258,
    "э\"": 6259,
    "э[": 6260,
    "э]": 6261,
    "э{": 6262,
    "э}": 6263,
    "э ": 6264,
    "юa": 6265,
    "юb": 6266,
    "юc": 6267,
    "юd": 6268,
    "юe": 6269,
    "юf": 6270,
    "юg": 6271,
    "юh": 6272,
    "юi": 6273,
    "юj": 6274,
    "юk": 6275,
    "юl": 6276,
    "юm": 6277,
    "юn": 6278,
    "юo": 6279,
    "юp": 6280,
    "юq": 6281,
    "юr": 6282,
    "юs": 6283,
    "юt": 6284,
    "юu": 6285,
    "юv": 6286,
    "юw": 6287,
    "юx": 6288,
    "юy": 6289,
    "юz": 6290,
    "юа": 6291,
    "юб": 6292,
    "юв": 6293,
    "юг": 6294,
    "юд": 6295,
    "юе": 6296,
    "юё": 6297,
    "юж": 6298,
    "юз": 6299,
    "юи": 6300,
    "юй": 6301,
    "юк": 6302,
    "юл": 6303,
    "юм": 6304,
    "юн": 6305,
    "юо": 6306,
    "юп": 6307,
    "юр": 6308,
    "юс": 6309,
    "ют": 6310,
    "юу": 6311,
    "юф": 6312,
    "юх": 6313,
    "юц": 6314,
    "юч": 6315,
    "юш": 6316,
    "ющ": 6317,
    "юъ": 6318,
    "юы": 6319,
    "юь": 6320,
    "юэ": 6321,
    "юю": 6322,
    "юя": 6323,
    "юә": 6324,
    "юі": 6325,
    "юң": 6326,
    "юғ": 6327,
    "юү": 6328,
    "юұ": 6329,
    "юқ": 6330,
    "юө": 6331,
    "юһ": 6332,
    "ю1": 6333,
    "ю2": 6334,
    "ю3": 6335,
    "ю4": 6336,
    "ю5": 6337,
    "ю6": 6338,
    "ю7": 6339,
    "ю8": 6340,
    "ю9": 6341,
    "ю0": 6342,
    "ю!": 6343,
    "ю@": 6344,
    "ю#": 6345,
    "ю$": 6346,
    "ю%": 6347,
    "ю^": 6348,
    "ю&": 6349,
    "ю*": 6350,
    "ю(": 6351,
    "ю)": 6352,
    "ю_": 6353,
    "ю+": 6354,
    "ю=": 6355,
    "ю-": 6356,
    "ю?": 6357,
    "ю/": 6358,
    "ю>": 6359,
    "ю.": 6360,
    "ю<": 6361,
    "ю,": 6362,
    "ю`": 6363,
    "ю|": 6364,
    "ю\\": 6365,
    "ю'": 6366,
    "ю\"": 6367,
    "ю[": 6368,
    "ю]": 6369,
    "ю{": 6370,
    "ю}": 6371,
    "ю ": 6372,
    "яa": 6373,
    "яb": 6374,
    "яc": 6375,
    "яd": 6376,
    "яe": 6377,
    "яf": 6378,
    "яg": 6379,
    "яh": 6380,
    "яi": 6381,
    "яj": 6382,
    "яk": 6383,
    "яl": 6384,
    "яm": 6385,
    "яn": 6386,
    "яo": 6387,
    "яp": 6388,
    "яq": 6389,
    "яr": 6390,
    "яs": 6391,
    "яt": 6392,
    "яu": 6393,
    "яv": 6394,
    "яw": 6395,
    "яx": 6396,
    "яy": 6397,
    "яz": 6398,
    "яа": 6399,
    "яб": 6400,
    "яв": 6401,
    "яг": 6402,
    "яд": 6403,
    "яе": 6404,
    "яё": 6405,
    "яж": 6406,
    "яз": 6407,
    "яи": 6408,
    "яй": 6409,
    "як": 6410,
    "ял": 6411,
    "ям": 6412,
    "ян": 6413,
    "яо": 6414,
    "яп": 6415,
    "яр": 6416,
    "яс": 6417,
    "ят": 6418,
    "яу": 6419,
    "яф": 6420,
    "ях": 6421,
    "яц": 6422,
    "яч": 6423,
    "яш": 6424,
    "ящ": 6425,
    "яъ": 6426,
    "яы": 6427,
    "яь": 6428,
    "яэ": 6429,
    "яю": 6430,
    "яя": 6431,
    "яә": 6432,
    "яі": 6433,
    "яң": 6434,
    "яғ": 6435,
    "яү": 6436,
    "яұ": 6437,
    "яқ": 6438,
    "яө": 6439,
    "яһ": 6440,
    "я1": 6441,
    "я2": 6442,
    "я3": 6443,
    "я4": 6444,
    "я5": 6445,
    "я6": 6446,
    "я7": 6447,
    "я8": 6448,
    "я9": 6449,
    "я0": 6450,
    "я!": 6451,
    "я@": 6452,
    "я#": 6453,
    "я$": 6454,
    "я%": 6455,
    "я^": 6456,
    "я&": 6457,
    "я*": 6458,
    "я(": 6459,
    "я)": 6460,
    "я_": 6461,
    "я+": 6462,
    "я=": 6463,
    "я-": 6464,
    "я?": 6465,
    "я/": 6466,
    "я>": 6467,
    "я.": 6468,
    "я<": 6469,
    "я,": 6470,
    "я`": 6471,
    "я|": 6472,
    "я\\": 6473,
    "я'": 6474,
    "я\"": 6475,
    "я[": 6476,
    "я]": 6477,
    "я{": 6478,
    "я}": 6479,
    "я ": 6480,
    "әa": 6481,
    "әb": 6482,
    "әc": 6483,
    "әd": 6484,
    "әe": 6485,
    "әf": 6486,
    "әg": 6487,
    "әh": 6488,
    "әi": 6489,
    "әj": 6490,
    "әk": 6491,
    "әl": 6492,
    "әm": 6493,
    "әn": 6494,
    "әo": 6495,
    "әp": 6496,
    "әq": 6497,
    "әr": 6498,
    "әs": 6499,
    "әt": 6500,
    "әu": 6501,
    "әv": 6502,
    "әw": 6503,
    "әx": 6504,
    "әy": 6505,
    "әz": 6506,
    "әа": 6507,
    "әб": 6508,
    "әв": 6509,
    "әг": 6510,
    "әд": 6511,
    "әе": 6512,
    "әё": 6513,
    "әж": 6514,
    "әз": 6515,
    "әи": 6516,
    "әй": 6517,
    "әк": 6518,
    "әл": 6519,
    "әм": 6520,
    "ән": 6521,
    "әо": 6522,
    "әп": 6523,
    "әр": 6524,
    "әс": 6525,
    "әт": 6526,
    "әу": 6527,
    "әф": 6528,
    "әх": 6529,
    "әц": 6530,
    "әч": 6531,
    "әш": 6532,
    "әщ": 6533,
    "әъ": 6534,
    "әы": 6535,
    "әь": 6536,
    "әэ": 6537,
    "әю": 6538,
    "әя": 6539,
    "әә": 6540,
    "әі": 6541,
    "әң": 6542,
    "әғ": 6543,
    "әү": 6544,
    "әұ": 6545,
    "әқ": 6546,
    "әө": 6547,
    "әһ": 6548,
    "ә1": 6549,
    "ә2": 6550,
    "ә3": 6551,
    "ә4": 6552,
    "ә5": 6553,
    "ә6": 6554,
    "ә7": 6555,
    "ә8": 6556,
    "ә9": 6557,
    "ә0": 6558,
    "ә!": 6559,
    "ә@": 6560,
    "ә#": 6561,
    "ә$": 6562,
    "ә%": 6563,
    "ә^": 6564,
    "ә&": 6565,
    "ә*": 6566,
    "ә(": 6567,
    "ә)": 6568,
    "ә_": 6569,
    "ә+": 6570,
    "ә=": 6571,
    "ә-": 6572,
    "ә?": 6573,
    "ә/": 6574,
    "ә>": 6575,
    "ә.": 6576,
    "ә<": 6577,
    "ә,": 6578,
    "ә`": 6579,
    "ә|": 6580,
    "ә\\": 6581,
    "ә'": 6582,
    "ә\"": 6583,
    "ә[": 6584,
    "ә]": 6585,
    "ә{": 6586,
    "ә}": 6587,
    "ә ": 6588,
    "іa": 6589,
    "іb": 6590,
    "іc": 6591,
    "іd": 6592,
    "іe": 6593,
    "іf": 6594,
    "іg": 6595,
    "іh": 6596,
    "іi": 6597,
    "іj": 6598,
    "іk": 6599,
    "іl": 6600,
    "іm": 6601,
    "іn": 6602,
    "іo": 6603,
    "іp": 6604,
    "іq": 6605,
    "іr": 6606,
    "іs": 6607,
    "іt": 6608,
    "іu": 6609,
    "іv": 6610,
    "іw": 6611,
    "іx": 6612,
    "іy": 6613,
    "іz": 6614,
    "іа": 6615,
    "іб": 6616,
    "ів": 6617,
    "іг": 6618,
    "ід": 6619,
    "іе": 6620,
    "іё": 6621,
    "іж": 6622,
    "із": 6623,
    "іи": 6624,
    "ій": 6625,
    "ік": 6626,
    "іл": 6627,
    "ім": 6628,
    "ін": 6629,
    "іо": 6630,
    "іп": 6631,
    "ір": 6632,
    "іс": 6633,
    "іт": 6634,
    "іу": 6635,
    "іф": 6636,
    "іх": 6637,
    "іц": 6638,
    "іч": 6639,
    "іш": 6640,
    "іщ": 6641,
    "іъ": 6642,
    "іы": 6643,
    "іь": 6644,
    "іэ": 6645,
    "ію": 6646,
    "ія": 6647,
    "іә": 6648,
    "іі": 6649,
    "ің": 6650,
    "іғ": 6651,
    "іү": 6652,
    "іұ": 6653,
    "іқ": 6654,
    "іө": 6655,
    "іһ": 6656,
    "і1": 6657,
    "і2": 6658,
    "і3": 6659,
    "і4": 6660,
    "і5": 6661,
    "і6": 6662,
    "і7": 6663,
    "і8": 6664,
    "і9": 6665,
    "і0": 6666,
    "і!": 6667,
    "і@": 6668,
    "і#": 6669,
    "і$": 6670,
    "і%": 6671,
    "і^": 6672,
    "і&": 6673,
    "і*": 6674,
    "і(": 6675,
    "і)": 6676,
    "і_": 6677,
    "і+": 6678,
    "і=": 6679,
    "і-": 6680,
    "і?": 6681,
    "і/": 6682,
    "і>": 6683,
    "і.": 6684,
    "і<": 6685,
    "і,": 6686,
    "і`": 6687,
    "і|": 6688,
    "і\\": 6689,
    "і'": 6690,
    "і\"": 6691,
    "і[": 6692,
    "і]": 6693,
    "і{": 6694,
    "і}": 6695,
    "і ": 6696,
    "ңa": 6697,
    "ңb": 6698,
    "ңc": 6699,
    "ңd": 6700,
    "ңe": 6701,
    "ңf": 6702,
    "ңg": 6703,
    "ңh": 6704,
    "ңi": 6705,
    "ңj": 6706,
    "ңk": 6707,
    "ңl": 6708,
    "ңm": 6709,
    "ңn": 6710,
    "ңo": 6711,
    "ңp": 6712,
    "ңq": 6713,
    "ңr": 6714,
    "ңs": 6715,
    "ңt": 6716,
    "ңu": 6717,
    "ңv": 6718,
    "ңw": 6719,
    "ңx": 6720,
    "ңy": 6721,
    "ңz": 6722,
    "ңа": 6723,
    "ңб": 6724,
    "ңв": 6725,
    "ңг": 6726,
    "ңд": 6727,
    "ңе": 6728,
    "ңё": 6729,
    "ңж": 6730,
    "ңз": 6731,
    "ңи": 6732,
    "ңй": 6733,
    "ңк": 6734,
    "ңл": 6735,
    "ңм": 6736,
    "ңн": 6737,
    "ңо": 6738,
    "ңп": 6739,
    "ңр": 6740,
    "ңс": 6741,
    "ңт": 6742,
    "ңу": 6743,
    "ңф": 6744,
    "ңх": 6745,
    "ңц": 6746,
    "ңч": 6747,
    "ңш": 6748,
    "ңщ": 6749,
    "ңъ": 6750,
    "ңы": 6751,
    "ңь": 6752,
    "ңэ": 6753,
    "ңю": 6754,
    "ңя": 6755,
    "ңә": 6756,
    "ңі": 6757,
    "ңң": 6758,
    "ңғ": 6759,
    "ңү": 6760,
    "ңұ": 6761,
    "ңқ": 6762,
    "ңө": 6763,
    "ңһ": 6764,
    "ң1": 6765,
    "ң2": 6766,
    "ң3": 6767,
    "ң4": 6768,
    "ң5": 6769,
    "ң6": 6770,
    "ң7": 6771,
    "ң8": 6772,
    "ң9": 6773,
    "ң0": 6774,
    "ң!": 6775,
    "ң@": 6776,
    "ң#": 6777,
    "ң$": 6778,
    "ң%": 6779,
    "ң^": 6780,
    "ң&": 6781,
    "ң*": 6782,
    "ң(": 6783,
    "ң)": 6784,
    "ң_": 6785,
    "ң+": 6786,
    "ң=": 6787,
    "ң-": 6788,
    "ң?": 6789,
    "ң/": 6790,
    "ң>": 6791,
    "ң.": 6792,
    "ң<": 6793,
    "ң,": 6794,
    "ң`": 6795,
    "ң|": 6796,
    "ң\\": 6797,
    "ң'": 6798,
    "ң\"": 6799,
    "ң[": 6800,
    "ң]": 6801,
    "ң{": 6802,
    "ң}": 6803,
    "ң ": 6804,
    "ғa": 6805,
    "ғb": 6806,
    "ғc": 6807,
    "ғd": 6808,
    "ғe": 6809,
    "ғf": 6810,
    "ғg": 6811,
    "ғh": 6812,
    "ғi": 6813,
    "ғj": 6814,
    "ғk": 6815,
    "ғl": 6816,
    "ғm": 6817,
    "ғn": 6818,
    "ғo": 6819,
    "ғp": 6820,
    "ғq": 6821,
    "ғr": 6822,
    "ғs": 6823,
    "ғt": 6824,
    "ғu": 6825,
    "ғv": 6826,
    "ғw": 6827,
    "ғx": 6828,
    "ғy": 6829,
    "ғz": 6830,
    "ға": 6831,
    "ғб": 6832,
    "ғв": 6833,
    "ғг": 6834,
    "ғд": 6835,
    "ғе": 6836,
    "ғё": 6837,
    "ғж": 6838,
    "ғз": 6839,
    "ғи": 6840,
    "ғй": 6841,
    "ғк": 6842,
    "ғл": 6843,
    "ғм": 6844,
    "ғн": 6845,
    "ғо": 6846,
    "ғп": 6847,
    "ғр": 6848,
    "ғс": 6849,
    "ғт": 6850,
    "ғу": 6851,
    "ғф": 6852,
    "ғх": 6853,
    "ғц": 6854,
    "ғч": 6855,
    "ғш": 6856,
    "ғщ": 6857,
    "ғъ": 6858,
    "ғы": 6859,
    "ғь": 6860,
    "ғэ": 6861,
    "ғю": 6862,
    "ғя": 6863,
    "ғә": 6864,
    "ғі": 6865,
    "ғң": 6866,
    "ғғ": 6867,
    "ғү": 6868,
    "ғұ": 6869,
    "ғқ": 6870,
    "ғө": 6871,
    "ғһ": 6872,
    "ғ1": 6873,
    "ғ2": 6874,
    "ғ3": 6875,
    "ғ4": 6876,
    "ғ5": 6877,
    "ғ6": 6878,
    "ғ7": 6879,
    "ғ8": 6880,
    "ғ9": 6881,
    "ғ0": 6882,
    "ғ!": 6883,
    "ғ@": 6884,
    "ғ#": 6885,
    "ғ$": 6886,
    "ғ%": 6887,
    "ғ^": 6888,
    "ғ&": 6889,
    "ғ*": 6890,
    "ғ(": 6891,
    "ғ)": 6892,
    "ғ_": 6893,
    "ғ+": 6894,
    "ғ=": 6895,
    "ғ-": 6896,
    "ғ?": 6897,
    "ғ/": 6898,
    "ғ>": 6899,
    "ғ.": 6900,
    "ғ<": 6901,
    "ғ,": 6902,
    "ғ`": 6903,
    "ғ|": 6904,
    "ғ\\": 6905,
    "ғ'": 6906,
    "ғ\"": 6907,
    "ғ[": 6908,
    "ғ]": 6909,
    "ғ{": 6910,
    "ғ}": 6911,
    "ғ ": 6912,
    "үa": 6913,
    "үb": 6914,
    "үc": 6915,
    "үd": 6916,
    "үe": 6917,
    "үf": 6918,
    "үg": 6919,
    "үh": 6920,
    "үi": 6921,
    "үj": 6922,
    "үk": 6923,
    "үl": 6924,
    "үm": 6925,
    "үn": 6926,
    "үo": 6927,
    "үp": 6928,
    "үq": 6929,
    "үr": 6930,
    "үs": 6931,
    "үt": 6932,
    "үu": 6933,
    "үv": 6934,
    "үw": 6935,
    "үx": 6936,
    "үy": 6937,
    "үz": 6938,
    "үа": 6939,
    "үб": 6940,
    "үв": 6941,
    "үг": 6942,
    "үд": 6943,
    "үе": 6944,
    "үё": 6945,
    "үж": 6946,
    "үз": 6947,
    "үи": 6948,
    "үй": 6949,
    "үк": 6950,
    "үл": 6951,
    "үм": 6952,
    "үн": 6953,
    "үо": 6954,
    "үп": 6955,
    "үр": 6956,
    "үс": 6957,
    "үт": 6958,
    "үу": 6959,
    "үф": 6960,
    "үх": 6961,
    "үц": 6962,
    "үч": 6963,
    "үш": 6964,
    "үщ": 6965,
    "үъ": 6966,
    "үы": 6967,
    "үь": 6968,
    "үэ": 6969,
    "үю": 6970,
    "үя": 6971,
    "үә": 6972,
    "үі": 6973,
    "үң": 6974,
    "үғ": 6975,
    "үү": 6976,
    "үұ": 6977,
    "үқ": 6978,
    "үө": 6979,
    "үһ": 6980,
    "ү1": 6981,
    "ү2": 6982,
    "ү3": 6983,
    "ү4": 6984,
    "ү5": 6985,
    "ү6": 6986,
    "ү7": 6987,
    "ү8": 6988,
    "ү9": 6989,
    "ү0": 6990,
    "ү!": 6991,
    "ү@": 6992,
    "ү#": 6993,
    "ү$": 6994,
    "ү%": 6995,
    "ү^": 6996,
    "ү&": 6997,
    "ү*": 6998,
    "ү(": 6999,
    "ү)": 7000,
    "ү_": 7001,
    "ү+": 7002,
    "ү=": 7003,
    "ү-": 7004,
    "ү?": 7005,
    "ү/": 7006,
    "ү>": 7007,
    "ү.": 7008,
    "ү<": 7009,
    "ү,": 7010,
    "ү`": 7011,
    "ү|": 7012,
    "ү\\": 7013,
    "ү'": 7014,
    "ү\"": 7015,
    "ү[": 7016,
    "ү]": 7017,
    "ү{": 7018,
    "ү}": 7019,
    "ү ": 7020,
    "ұa": 7021,
    "ұb": 7022,
    "ұc": 7023,
    "ұd": 7024,
    "ұe": 7025,
    "ұf": 7026,
    "ұg": 7027,
    "ұh": 7028,
    "ұi": 7029,
    "ұj": 7030,
    "ұk": 7031,
    "ұl": 7032,
    "ұm": 7033,
    "ұn": 7034,
    "ұo": 7035,
    "ұp": 7036,
    "ұq": 7037,
    "ұr": 7038,
    "ұs": 7039,
    "ұt": 7040,
    "ұu": 7041,
    "ұv": 7042,
    "ұw": 7043,
    "ұx": 7044,
    "ұy": 7045,
    "ұz": 7046,
    "ұа": 7047,
    "ұб": 7048,
    "ұв": 7049,
    "ұг": 7050,
    "ұд": 7051,
    "ұе": 7052,
    "ұё": 7053,
    "ұж": 7054,
    "ұз": 7055,
    "ұи": 7056,
    "ұй": 7057,
    "ұк": 7058,
    "ұл": 7059,
    "ұм": 7060,
    "ұн": 7061,
    "ұо": 7062,
    "ұп": 7063,
    "ұр": 7064,
    "ұс": 7065,
    "ұт": 7066,
    "ұу": 7067,
    "ұф": 7068,
    "ұх": 7069,
    "ұц": 7070,
    "ұч": 7071,
    "ұш": 7072,
    "ұщ": 7073,
    "ұъ": 7074,
    "ұы": 7075,
    "ұь": 7076,
    "ұэ": 7077,
    "ұю": 7078,
    "ұя": 7079,
    "ұә": 7080,
    "ұі": 7081,
    "ұң": 7082,
    "ұғ": 7083,
    "ұү": 7084,
    "ұұ": 7085,
    "ұқ": 7086,
    "ұө": 7087,
    "ұһ": 7088,
    "ұ1": 7089,
    "ұ2": 7090,
    "ұ3": 7091,
    "ұ4": 7092,
    "ұ5": 7093,
    "ұ6": 7094,
    "ұ7": 7095,
    "ұ8": 7096,
    "ұ9": 7097,
    "ұ0": 7098,
    "ұ!": 7099,
    "ұ@": 7100,
    "ұ#": 7101,
    "ұ$": 7102,
    "ұ%": 7103,
    "ұ^": 7104,
    "ұ&": 7105,
    "ұ*": 7106,
    "ұ(": 7107,
    "ұ)": 7108,
    "ұ_": 7109,
    "ұ+": 7110,
    "ұ=": 7111,
    "ұ-": 7112,
    "ұ?": 7113,
    "ұ/": 7114,
    "ұ>": 7115,
    "ұ.": 7116,
    "ұ<": 7117,
    "ұ,": 7118,
    "ұ`": 7119,
    "ұ|": 7120,
    "ұ\\": 7121,
    "ұ'": 7122,
    "ұ\"": 7123,
    "ұ[": 7124,
    "ұ]": 7125,
    "ұ{": 7126,
    "ұ}": 7127,
    "ұ ": 7128,
    "қa": 7129,
    "қb": 7130,
    "қc": 7131,
    "қd": 7132,
    "қe": 7133,
    "қf": 7134,
    "қg": 7135,
    "қh": 7136,
    "қi": 7137,
    "қj": 7138,
    "қk": 7139,
    "қl": 7140,
    "қm": 7141,
    "қn": 7142,
    "қo": 7143,
    "қp": 7144,
    "қq": 7145,
    "қr": 7146,
    "қs": 7147,
    "қt": 7148,
    "қu": 7149,
    "қv": 7150,
    "қw": 7151,
    "қx": 7152,
    "қy": 7153,
    "қz": 7154,
    "қа": 7155,
    "қб": 7156,
    "қв": 7157,
    "қг": 7158,
    "қд": 7159,
    "қе": 7160,
    "қё": 7161,
    "қж": 7162,
    "қз": 7163,
    "қи": 7164,
    "қй": 7165,
    "қк": 7166,
    "қл": 7167,
    "қм": 7168,
    "қн": 7169,
    "қо": 7170,
    "қп": 7171,
    "қр": 7172,
    "қс": 7173,
    "қт": 7174,
    "қу": 7175,
    "қф": 7176,
    "қх": 7177,
    "қц": 7178,
    "қч": 7179,
    "қш": 7180,
    "қщ": 7181,
    "қъ": 7182,
    "қы": 7183,
    "қь": 7184,
    "қэ": 7185,
    "қю": 7186,
    "қя": 7187,
    "қә": 7188,
    "қі": 7189,
    "қң": 7190,
    "қғ": 7191,
    "қү": 7192,
    "құ": 7193,
    "ққ": 7194,
    "қө": 7195,
    "қһ": 7196,
    "қ1": 7197,
    "қ2": 7198,
    "қ3": 7199,
    "қ4": 7200,
    "қ5": 7201,
    "қ6": 7202,
    "қ7": 7203,
    "қ8": 7204,
    "қ9": 7205,
    "қ0": 7206,
    "қ!": 7207,
    "қ@": 7208,
    "қ#": 7209,
    "қ$": 7210,
    "қ%": 7211,
    "қ^": 7212,
    "қ&": 7213,
    "қ*": 7214,
    "қ(": 7215,
    "қ)": 7216,
    "қ_": 7217,
    "қ+": 7218,
    "қ=": 7219,
    "қ-": 7220,
    "қ?": 7221,
    "қ/": 7222,
    "қ>": 7223,
    "қ.": 7224,
    "қ<": 7225,
    "қ,": 7226,
    "қ`": 7227,
    "қ|": 7228,
    "қ\\": 7229,
    "қ'": 7230,
    "қ\"": 7231,
    "қ[": 7232,
    "қ]": 7233,
    "қ{": 7234,
    "қ}": 7235,
    "қ ": 7236,
    "өa": 7237,
    "өb": 7238,
    "өc": 7239,
    "өd": 7240,
    "өe": 7241,
    "өf": 7242,
    "өg": 7243,
    "өh": 7244,
    "өi": 7245,
    "өj": 7246,
    "өk": 7247,
    "өl": 7248,
    "өm": 7249,
    "өn": 7250,
    "өo": 7251,
    "өp": 7252,
    "өq": 7253,
    "өr": 7254,
    "өs": 7255,
    "өt": 7256,
    "өu": 7257,
    "өv": 7258,
    "өw": 7259,
    "өx": 7260,
    "өy": 7261,
    "өz": 7262,
    "өа": 7263,
    "өб": 7264,
    "өв": 7265,
    "өг": 7266,
    "өд": 7267,
    "өе": 7268,
    "өё": 7269,
    "өж": 7270,
    "өз": 7271,
    "өи": 7272,
    "өй": 7273,
    "өк": 7274,
    "өл": 7275,
    "өм": 7276,
    "өн": 7277,
    "өо": 7278,
    "өп": 7279,
    "өр": 7280,
    "өс": 7281,
    "өт": 7282,
    "өу": 7283,
    "өф": 7284,
    "өх": 7285,
    "өц": 7286,
    "өч": 7287,
    "өш": 7288,
    "өщ": 7289,
    "өъ": 7290,
    "өы": 7291,
    "өь": 7292,
    "өэ": 7293,
    "өю": 7294,
    "өя": 7295,
    "өә": 7296,
    "өі": 7297,
    "өң": 7298,
    "өғ": 7299,
    "өү": 7300,
    "өұ": 7301,
    "өқ": 7302,
    "өө": 7303,
    "өһ": 7304,
    "ө1": 7305,
    "ө2": 7306,
    "ө3": 7307,
    "ө4": 7308,
    "ө5": 7309,
    "ө6": 7310,
    "ө7": 7311,
    "ө8": 7312,
    "ө9": 7313,
    "ө0": 7314,
    "ө!": 7315,
    "ө@": 7316,
    "ө#": 7317,
    "ө$": 7318,
    "ө%": 7319,
    "ө^": 7320,
    "ө&": 7321,
    "ө*": 7322,
    "ө(": 7323,
    "ө)": 7324,
    "ө_": 7325,
    "ө+": 7326,
    "ө=": 7327,
    "ө-": 7328,
    "ө?": 7329,
    "ө/": 7330,
    "ө>": 7331,
    "ө.": 7332,
    "ө<": 7333,
    "ө,": 7334,
    "ө`": 7335,
    "ө|": 7336,
    "ө\\": 7337,
    "ө'": 7338,
    "ө\"": 7339,
    "ө[": 7340,
    "ө]": 7341,
    "ө{": 7342,
    "ө}": 7343,
    "ө ": 7344,
    "һa": 7345,
    "һb": 7346,
    "һc": 7347,
    "һd": 7348,
    "һe": 7349,
    "һf": 7350,
    "һg": 7351,
    "һh": 7352,
    "һi": 7353,
    "һj": 7354,
    "һk": 7355,
    "һl": 7356,
    "һm": 7357,
    "һn": 7358,
    "һo": 7359,
    "һp": 7360,
    "һq": 7361,
    "һr": 7362,
    "һs": 7363,
    "һt": 7364,
    "һu": 7365,
    "һv": 7366,
    "һw": 7367,
    "һx": 7368,
    "һy": 7369,
    "һz": 7370,
    "һа": 7371,
    "һб": 7372,
    "һв": 7373,
    "һг": 7374,
    "һд": 7375,
    "һе": 7376,
    "һё": 7377,
    "һж": 7378,
    "һз": 7379,
    "һи": 7380,
    "һй": 7381,
    "һк": 7382,
    "һл": 7383,
    "һм": 7384,
    "һн": 7385,
    "һо": 7386,
    "һп": 7387,
    "һр": 7388,
    "һс": 7389,
    "һт": 7390,
    "һу": 7391,
    "һф": 7392,
    "һх": 7393,
    "һц": 7394,
    "һч": 7395,
    "һш": 7396,
    "һщ": 7397,
    "һъ": 7398,
    "һы": 7399,
    "һь": 7400,
    "һэ": 7401,
    "һю": 7402,
    "һя": 7403,
    "һә": 7404,
    "һі": 7405,
    "һң": 7406,
    "һғ": 7407,
    "һү": 7408,
    "һұ": 7409,
    "һқ": 7410,
    "һө": 7411,
    "һһ": 7412,
    "һ1": 7413,
    "һ2": 7414,
    "һ3": 7415,
    "һ4": 7416,
    "һ5": 7417,
    "һ6": 7418,
    "һ7": 7419,
    "һ8": 7420,
    "һ9": 7421,
    "һ0": 7422,
    "һ!": 7423,
    "һ@": 7424,
    "һ#": 7425,
    "һ$": 7426,
    "һ%": 7427,
    "һ^": 7428,
    "һ&": 7429,
    "һ*": 7430,
    "һ(": 7431,
    "һ)": 7432,
    "һ_": 7433,
    "һ+": 7434,
    "һ=": 7435,
    "һ-": 7436,
    "һ?": 7437,
    "һ/": 7438,
    "һ>": 7439,
    "һ.": 7440,
    "һ<": 7441,
    "һ,": 7442,
    "һ`": 7443,
    "һ|": 7444,
    "һ\\": 7445,
    "һ'": 7446,
    "һ\"": 7447,
    "һ[": 7448,
    "һ]": 7449,
    "һ{": 7450,
    "һ}": 7451,
    "һ ": 7452,
    "1a": 7453,
    "1b": 7454,
    "1c": 7455,
    "1d": 7456,
    "1e": 7457,
    "1f": 7458,
    "1g": 7459,
    "1h": 7460,
    "1i": 7461,
    "1j": 7462,
    "1k": 7463,
    "1l": 7464,
    "1m": 7465,
    "1n": 7466,
    "1o": 7467,
    "1p": 7468,
    "1q": 7469,
    "1r": 7470,
    "1s": 7471,
    "1t": 7472,
    "1u": 7473,
    "1v": 7474,
    "1w": 7475,
    "1x": 7476,
    "1y": 7477,
    "1z": 7478,
    "1а": 7479,
    "1б": 7480,
    "1в": 7481,
    "1г": 7482,
    "1д": 7483,
    "1е": 7484,
    "1ё": 7485,
    "1ж": 7486,
    "1з": 7487,
    "1и": 7488,
    "1й": 7489,
    "1к": 7490,
    "1л": 7491,
    "1м": 7492,
    "1н": 7493,
    "1о": 7494,
    "1п": 7495,
    "1р": 7496,
    "1с": 7497,
    "1т": 7498,
    "1у": 7499,
    "1ф": 7500,
    "1х": 7501,
    "1ц": 7502,
    "1ч": 7503,
    "1ш": 7504,
    "1щ": 7505,
    "1ъ": 7506,
    "1ы": 7507,
    "1ь": 7508,
    "1э": 7509,
    "1ю": 7510,
    "1я": 7511,
    "1ә": 7512,
    "1і": 7513,
    "1ң": 7514,
    "1ғ": 7515,
    "1ү": 7516,
    "1ұ": 7517,
    "1қ": 7518,
    "1ө": 7519,
    "1һ": 7520,
    "11": 7521,
    "12": 7522,
    "13": 7523,
    "14": 7524,
    "15": 7525,
    "16": 7526,
    "17": 7527,
    "18": 7528,
    "19": 7529,
    "10": 7530,
    "1!": 7531,
    "1@": 7532,
    "1#": 7533,
    "1$": 7534,
    "1%": 7535,
    "1^": 7536,
    "1&": 7537,
    "1*": 7538,
    "1(": 7539,
    "1)": 7540,
    "1_": 7541,
    "1+": 7542,
    "1=": 7543,
    "1-": 7544,
    "1?": 7545,
    "1/": 7546,
    "1>": 7547,
    "1.": 7548,
    "1<": 7549,
    "1,": 7550,
    "1`": 7551,
    "1|": 7552,
    "1\\": 7553,
    "1'": 7554,
    "1\"": 7555,
    "1[": 7556,
    "1]": 7557,
    "1{": 7558,
    "1}": 7559,
    "1 ": 7560,
    "2a": 7561,
    "2b": 7562,
    "2c": 7563,
    "2d": 7564,
    "2e": 7565,
    "2f": 7566,
    "2g": 7567,
    "2h": 7568,
    "2i": 7569,
    "2j": 7570,
    "2k": 7571,
    "2l": 7572,
    "2m": 7573,
    "2n": 7574,
    "2o": 7575,
    "2p": 7576,
    "2q": 7577,
    "2r": 7578,
    "2s": 7579,
    "2t": 7580,
    "2u": 7581,
    "2v": 7582,
    "2w": 7583,
    "2x": 7584,
    "2y": 7585,
    "2z": 7586,
    "2а": 7587,
    "2б": 7588,
    "2в": 7589,
    "2г": 7590,
    "2д": 7591,
    "2е": 7592,
    "2ё": 7593,
    "2ж": 7594,
    "2з": 7595,
    "2и": 7596,
    "2й": 7597,
    "2к": 7598,
    "2л": 7599,
    "2м": 7600,
    "2н": 7601,
    "2о": 7602,
    "2п": 7603,
    "2р": 7604,
    "2с": 7605,
    "2т": 7606,
    "2у": 7607,
    "2ф": 7608,
    "2х": 7609,
    "2ц": 7610,
    "2ч": 7611,
    "2ш": 7612,
    "2щ": 7613,
    "2ъ": 7614,
    "2ы": 7615,
    "2ь": 7616,
    "2э": 7617,
    "2ю": 7618,
    "2я": 7619,
    "2ә": 7620,
    "2і": 7621,
    "2ң": 7622,
    "2ғ": 7623,
    "2ү": 7624,
    "2ұ": 7625,
    "2қ": 7626,
    "2ө": 7627,
    "2һ": 7628,
    "21": 7629,
    "22": 7630,
    "23": 7631,
    "24": 7632,
    "25": 7633,
    "26": 7634,
    "27": 7635,
    "28": 7636,
    "29": 7637,
    "20": 7638,
    "2!": 7639,
    "2@": 7640,
    "2#": 7641,
    "2$": 7642,
    "2%": 7643,
    "2^": 7644,
    "2&": 7645,
    "2*": 7646,
    "2(": 7647,
    "2)": 7648,
    "2_": 7649,
    "2+": 7650,
    "2=": 7651,
    "2-": 7652,
    "2?": 7653,
    "2/": 7654,
    "2>": 7655,
    "2.": 7656,
    "2<": 7657,
    "2,": 7658,
    "2`": 7659,
    "2|": 7660,
    "2\\": 7661,
    "2'": 7662,
    "2\"": 7663,
    "2[": 7664,
    "2]": 7665,
    "2{": 7666,
    "2}": 7667,
    "2 ": 7668,
    "3a": 7669,
    "3b": 7670,
    "3c": 7671,
    "3d": 7672,
    "3e": 7673,
    "3f": 7674,
    "3g": 7675,
    "3h": 7676,
    "3i": 7677,
    "3j": 7678,
    "3k": 7679,
    "3l": 7680,
    "3m": 7681,
    "3n": 7682,
    "3o": 7683,
    "3p": 7684,
    "3q": 7685,
    "3r": 7686,
    "3s": 7687,
    "3t": 7688,
    "3u": 7689,
    "3v": 7690,
    "3w": 7691,
    "3x": 7692,
    "3y": 7693,
    "3z": 7694,
    "3а": 7695,
    "3б": 7696,
    "3в": 7697,
    "3г": 7698,
    "3д": 7699,
    "3е": 7700,
    "3ё": 7701,
    "3ж": 7702,
    "3з": 7703,
    "3и": 7704,
    "3й": 7705,
    "3к": 7706,
    "3л": 7707,
    "3м": 7708,
    "3н": 7709,
    "3о": 7710,
    "3п": 7711,
    "3р": 7712,
    "3с": 7713,
    "3т": 7714,
    "3у": 7715,
    "3ф": 7716,
    "3х": 7717,
    "3ц": 7718,
    "3ч": 7719,
    "3ш": 7720,
    "3щ": 7721,
    "3ъ": 7722,
    "3ы": 7723,
    "3ь": 7724,
    "3э": 7725,
    "3ю": 7726,
    "3я": 7727,
    "3ә": 7728,
    "3і": 7729,
    "3ң": 7730,
    "3ғ": 7731,
    "3ү": 7732,
    "3ұ": 7733,
    "3қ": 7734,
    "3ө": 7735,
    "3һ": 7736,
    "31": 7737,
    "32": 7738,
    "33": 7739,
    "34": 7740,
    "35": 7741,
    "36": 7742,
    "37": 7743,
    "38": 7744,
    "39": 7745,
    "30": 7746,
    "3!": 7747,
    "3@": 7748,
    "3#": 7749,
    "3$": 7750,
    "3%": 7751,
    "3^": 7752,
    "3&": 7753,
    "3*": 7754,
    "3(": 7755,
    "3)": 7756,
    "3_": 7757,
    "3+": 7758,
    "3=": 7759,
    "3-": 7760,
    "3?": 7761,
    "3/": 7762,
    "3>": 7763,
    "3.": 7764,
    "3<": 7765,
    "3,": 7766,
    "3`": 7767,
    "3|": 7768,
    "3\\": 7769,
    "3'": 7770,
    "3\"": 7771,
    "3[": 7772,
    "3]": 7773,
    "3{": 7774,
    "3}": 7775,
    "3 ": 7776,
    "4a": 7777,
    "4b": 7778,
    "4c": 7779,
    "4d": 7780,
    "4e": 7781,
    "4f": 7782,
    "4g": 7783,
    "4h": 7784,
    "4i": 7785,
    "4j": 7786,
    "4k": 7787,
    "4l": 7788,
    "4m": 7789,
    "4n": 7790,
    "4o": 7791,
    "4p": 7792,
    "4q": 7793,
    "4r": 7794,
    "4s": 7795,
    "4t": 7796,
    "4u": 7797,
    "4v": 7798,
    "4w": 7799,
    "4x": 7800,
    "4y": 7801,
    "4z": 7802,
    "4а": 7803,
    "4б": 7804,
    "4в": 7805,
    "4г": 7806,
    "4д": 7807,
    "4е": 7808,
    "4ё": 7809,
    "4ж": 7810,
    "4з": 7811,
    "4и": 7812,
    "4й": 7813,
    "4к": 7814,
    "4л": 7815,
    "4м": 7816,
    "4н": 7817,
    "4о": 7818,
    "4п": 7819,
    "4р": 7820,
    "4с": 7821,
    "4т": 7822,
    "4у": 7823,
    "4ф": 7824,
    "4х": 7825,
    "4ц": 7826,
    "4ч": 7827,
    "4ш": 7828,
    "4щ": 7829,
    "4ъ": 7830,
    "4ы": 7831,
    "4ь": 7832,
    "4э": 7833,
    "4ю": 7834,
    "4я": 7835,
    "4ә": 7836,
    "4і": 7837,
    "4ң": 7838,
    "4ғ": 7839,
    "4ү": 7840,
    "4ұ": 7841,
    "4қ": 7842,
    "4ө": 7843,
    "4һ": 7844,
    "41": 7845,
    "42": 7846,
    "43": 7847,
    "44": 7848,
    "45": 7849,
    "46": 7850,
    "47": 7851,
    "48": 7852,
    "49": 7853,
    "40": 7854,
    "4!": 7855,
    "4@": 7856,
    "4#": 7857,
    "4$": 7858,
    "4%": 7859,
    "4^": 7860,
    "4&": 7861,
    "4*": 7862,
    "4(": 7863,
    "4)": 7864,
    "4_": 7865,
    "4+": 7866,
    "4=": 7867,
    "4-": 7868,
    "4?": 7869,
    "4/": 7870,
    "4>": 7871,
    "4.": 7872,
    "4<": 7873,
    "4,": 7874,
    "4`": 7875,
    "4|": 7876,
    "4\\": 7877,
    "4'": 7878,
    "4\"": 7879,
    "4[": 7880,
    "4]": 7881,
    "4{": 7882,
    "4}": 7883,
    "4 ": 7884,
    "5a": 7885,
    "5b": 7886,
    "5c": 7887,
    "5d": 7888,
    "5e": 7889,
    "5f": 7890,
    "5g": 7891,
    "5h": 7892,
    "5i": 7893,
    "5j": 7894,
    "5k": 7895,
    "5l": 7896,
    "5m": 7897,
    "5n": 7898,
    "5o": 7899,
    "5p": 7900,
    "5q": 7901,
    "5r": 7902,
    "5s": 7903,
    "5t": 7904,
    "5u": 7905,
    "5v": 7906,
    "5w": 7907,
    "5x": 7908,
    "5y": 7909,
    "5z": 7910,
    "5а": 7911,
    "5б": 7912,
    "5в": 7913,
    "5г": 7914,
    "5д": 7915,
    "5е": 7916,
    "5ё": 7917,
    "5ж": 7918,
    "5з": 7919,
    "5и": 7920,
    "5й": 7921,
    "5к": 7922,
    "5л": 7923,
    "5м": 7924,
    "5н": 7925,
    "5о": 7926,
    "5п": 7927,
    "5р": 7928,
    "5с": 7929,
    "5т": 7930,
    "5у": 7931,
    "5ф": 7932,
    "5х": 7933,
    "5ц": 7934,
    "5ч": 7935,
    "5ш": 7936,
    "5щ": 7937,
    "5ъ": 7938,
    "5ы": 7939,
    "5ь": 7940,
    "5э": 7941,
    "5ю": 7942,
    "5я": 7943,
    "5ә": 7944,
    "5і": 7945,
    "5ң": 7946,
    "5ғ": 7947,
    "5ү": 7948,
    "5ұ": 7949,
    "5қ": 7950,
    "5ө": 7951,
    "5һ": 7952,
    "51": 7953,
    "52": 7954,
    "53": 7955,
    "54": 7956,
    "55": 7957,
    "56": 7958,
    "57": 7959,
    "58": 7960,
    "59": 7961,
    "50": 7962,
    "5!": 7963,
    "5@": 7964,
    "5#": 7965,
    "5$": 7966,
    "5%": 7967,
    "5^": 7968,
    "5&": 7969,
    "5*": 7970,
    "5(": 7971,
    "5)": 7972,
    "5_": 7973,
    "5+": 7974,
    "5=": 7975,
    "5-": 7976,
    "5?": 7977,
    "5/": 7978,
    "5>": 7979,
    "5.": 7980,
    "5<": 7981,
    "5,": 7982,
    "5`": 7983,
    "5|": 7984,
    "5\\": 7985,
    "5'": 7986,
    "5\"": 7987,
    "5[": 7988,
    "5]": 7989,
    "5{": 7990,
    "5}": 7991,
    "5 ": 7992,
    "6a": 7993,
    "6b": 7994,
    "6c": 7995,
    "6d": 7996,
    "6e": 7997,
    "6f": 7998,
    "6g": 7999,
    "6h": 8000,
    "6i": 8001,
    "6j": 8002,
    "6k": 8003,
    "6l": 8004,
    "6m": 8005,
    "6n": 8006,
    "6o": 8007,
    "6p": 8008,
    "6q": 8009,
    "6r": 8010,
    "6s": 8011,
    "6t": 8012,
    "6u": 8013,
    "6v": 8014,
    "6w": 8015,
    "6x": 8016,
    "6y": 8017,
    "6z": 8018,
    "6а": 8019,
    "6б": 8020,
    "6в": 8021,
    "6г": 8022,
    "6д": 8023,
    "6е": 8024,
    "6ё": 8025,
    "6ж": 8026,
    "6з": 8027,
    "6и": 8028,
    "6й": 8029,
    "6к": 8030,
    "6л": 8031,
    "6м": 8032,
    "6н": 8033,
    "6о": 8034,
    "6п": 8035,
    "6р": 8036,
    "6с": 8037,
    "6т": 8038,
    "6у": 8039,
    "6ф": 8040,
    "6х": 8041,
    "6ц": 8042,
    "6ч": 8043,
    "6ш": 8044,
    "6щ": 8045,
    "6ъ": 8046,
    "6ы": 8047,
    "6ь": 8048,
    "6э": 8049,
    "6ю": 8050,
    "6я": 8051,
    "6ә": 8052,
    "6і": 8053,
    "6ң": 8054,
    "6ғ": 8055,
    "6ү": 8056,
    "6ұ": 8057,
    "6қ": 8058,
    "6ө": 8059,
    "6һ": 8060,
    "61": 8061,
    "62": 8062,
    "63": 8063,
    "64": 8064,
    "65": 8065,
    "66": 8066,
    "67": 8067,
    "68": 8068,
    "69": 8069,
    "60": 8070,
    "6!": 8071,
    "6@": 8072,
    "6#": 8073,
    "6$": 8074,
    "6%": 8075,
    "6^": 8076,
    "6&": 8077,
    "6*": 8078,
    "6(": 8079,
    "6)": 8080,
    "6_": 8081,
    "6+": 8082,
    "6=": 8083,
    "6-": 8084,
    "6?": 8085,
    "6/": 8086,
    "6>": 8087,
    "6.": 8088,
    "6<": 8089,
    "6,": 8090,
    "6`": 8091,
    "6|": 8092,
    "6\\": 8093,
    "6'": 8094,
    "6\"": 8095,
    "6[": 8096,
    "6]": 8097,
    "6{": 8098,
    "6}": 8099,
    "6 ": 8100,
    "7a": 8101,
    "7b": 8102,
    "7c": 8103,
    "7d": 8104,
    "7e": 8105,
    "7f": 8106,
    "7g": 8107,
    "7h": 8108,
    "7i": 8109,
    "7j": 8110,
    "7k": 8111,
    "7l": 8112,
    "7m": 8113,
    "7n": 8114,
    "7o": 8115,
    "7p": 8116,
    "7q": 8117,
    "7r": 8118,
    "7s": 8119,
    "7t": 8120,
    "7u": 8121,
    "7v": 8122,
    "7w": 8123,
    "7x": 8124,
    "7y": 8125,
    "7z": 8126,
    "7а": 8127,
    "7б": 8128,
    "7в": 8129,
    "7г": 8130,
    "7д": 8131,
    "7е": 8132,
    "7ё": 8133,
    "7ж": 8134,
    "7з": 8135,
    "7и": 8136,
    "7й": 8137,
    "7к": 8138,
    "7л": 8139,
    "7м": 8140,
    "7н": 8141,
    "7о": 8142,
    "7п": 8143,
    "7р": 8144,
    "7с": 8145,
    "7т": 8146,
    "7у": 8147,
    "7ф": 8148,
    "7х": 8149,
    "7ц": 8150,
    "7ч": 8151,
    "7ш": 8152,
    "7щ": 8153,
    "7ъ": 8154,
    "7ы": 8155,
    "7ь": 8156,
    "7э": 8157,
    "7ю": 8158,
    "7я": 8159,
    "7ә": 8160,
    "7і": 8161,
    "7ң": 8162,
    "7ғ": 8163,
    "7ү": 8164,
    "7ұ": 8165,
    "7қ": 8166,
    "7ө": 8167,
    "7һ": 8168,
    "71": 8169,
    "72": 8170,
    "73": 8171,
    "74": 8172,
    "75": 8173,
    "76": 8174,
    "77": 8175,
    "78": 8176,
    "79": 8177,
    "70": 8178,
    "7!": 8179,
    "7@": 8180,
    "7#": 8181,
    "7$": 8182,
    "7%": 8183,
    "7^": 8184,
    "7&": 8185,
    "7*": 8186,
    "7(": 8187,
    "7)": 8188,
    "7_": 8189,
    "7+": 8190,
    "7=": 8191,
    "7-": 8192,
    "7?": 8193,
    "7/": 8194,
    "7>": 8195,
    "7.": 8196,
    "7<": 8197,
    "7,": 8198,
    "7`": 8199,
    "7|": 8200,
    "7\\": 8201,
    "7'": 8202,
    "7\"": 8203,
    "7[": 8204,
    "7]": 8205,
    "7{": 8206,
    "7}": 8207,
    "7 ": 8208,
    "8a": 8209,
    "8b": 8210,
    "8c": 8211,
    "8d": 8212,
    "8e": 8213,
    "8f": 8214,
    "8g": 8215,
    "8h": 8216,
    "8i": 8217,
    "8j": 8218,
    "8k": 8219,
    "8l": 8220,
    "8m": 8221,
    "8n": 8222,
    "8o": 8223,
    "8p": 8224,
    "8q": 8225,
    "8r": 8226,
    "8s": 8227,
    "8t": 8228,
    "8u": 8229,
    "8v": 8230,
    "8w": 8231,
    "8x": 8232,
    "8y": 8233,
    "8z": 8234,
    "8а": 8235,
    "8б": 8236,
    "8в": 8237,
    "8г": 8238,
    "8д": 8239,
    "8е": 8240,
    "8ё": 8241,
    "8ж": 8242,
    "8з": 8243,
    "8и": 8244,
    "8й": 8245,
    "8к": 8246,
    "8л": 8247,
    "8м": 8248,
    "8н": 8249,
    "8о": 8250,
    "8п": 8251,
    "8р": 8252,
    "8с": 8253,
    "8т": 8254,
    "8у": 8255,
    "8ф": 8256,
    "8х": 8257,
    "8ц": 8258,
    "8ч": 8259,
    "8ш": 8260,
    "8щ": 8261,
    "8ъ": 8262,
    "8ы": 8263,
    "8ь": 8264,
    "8э": 8265,
    "8ю": 8266,
    "8я": 8267,
    "8ә": 8268,
    "8і": 8269,
    "8ң": 8270,
    "8ғ": 8271,
    "8ү": 8272,
    "8ұ": 8273,
    "8қ": 8274,
    "8ө": 8275,
    "8һ": 8276,
    "81": 8277,
    "82": 8278,
    "83": 8279,
    "84": 8280,
    "85": 8281,
    "86": 8282,
    "87": 8283,
    "88": 8284,
    "89": 8285,
    "80": 8286,
    "8!": 8287,
    "8@": 8288,
    "8#": 8289,
    "8$": 8290,
    "8%": 8291,
    "8^": 8292,
    "8&": 8293,
    "8*": 8294,
    "8(": 8295,
    "8)": 8296,
    "8_": 8297,
    "8+": 8298,
    "8=": 8299,
    "8-": 8300,
    "8?": 8301,
    "8/": 8302,
    "8>": 8303,
    "8.": 8304,
    "8<": 8305,
    "8,": 8306,
    "8`": 8307,
    "8|": 8308,
    "8\\": 8309,
    "8'": 8310,
    "8\"": 8311,
    "8[": 8312,
    "8]": 8313,
    "8{": 8314,
    "8}": 8315,
    "8 ": 8316,
    "9a": 8317,
    "9b": 8318,
    "9c": 8319,
    "9d": 8320,
    "9e": 8321,
    "9f": 8322,
    "9g": 8323,
    "9h": 8324,
    "9i": 8325,
    "9j": 8326,
    "9k": 8327,
    "9l": 8328,
    "9m": 8329,
    "9n": 8330,
    "9o": 8331,
    "9p": 8332,
    "9q": 8333,
    "9r": 8334,
    "9s": 8335,
    "9t": 8336,
    "9u": 8337,
    "9v": 8338,
    "9w": 8339,
    "9x": 8340,
    "9y": 8341,
    "9z": 8342,
    "9а": 8343,
    "9б": 8344,
    "9в": 8345,
    "9г": 8346,
    "9д": 8347,
    "9е": 8348,
    "9ё": 8349,
    "9ж": 8350,
    "9з": 8351,
    "9и": 8352,
    "9й": 8353,
    "9к": 8354,
    "9л": 8355,
    "9м": 8356,
    "9н": 8357,
    "9о": 8358,
    "9п": 8359,
    "9р": 8360,
    "9с": 8361,
    "9т": 8362,
    "9у": 8363,
    "9ф": 8364,
    "9х": 8365,
    "9ц": 8366,
    "9ч": 8367,
    "9ш": 8368,
    "9щ": 8369,
    "9ъ": 8370,
    "9ы": 8371,
    "9ь": 8372,
    "9э": 8373,
    "9ю": 8374,
    "9я": 8375,
    "9ә": 8376,
    "9і": 8377,
    "9ң": 8378,
    "9ғ": 8379,
    "9ү": 8380,
    "9ұ": 8381,
    "9қ": 8382,
    "9ө": 8383,
    "9һ": 8384,
    "91": 8385,
    "92": 8386,
    "93": 8387,
    "94": 8388,
    "95": 8389,
    "96": 8390,
    "97": 8391,
    "98": 8392,
    "99": 8393,
    "90": 8394,
    "9!": 8395,
    "9@": 8396,
    "9#": 8397,
    "9$": 8398,
    "9%": 8399,
    "9^": 8400,
    "9&": 8401,
    "9*": 8402,
    "9(": 8403,
    "9)": 8404,
    "9_": 8405,
    "9+": 8406,
    "9=": 8407,
    "9-": 8408,
    "9?": 8409,
    "9/": 8410,
    "9>": 8411,
    "9.": 8412,
    "9<": 8413,
    "9,": 8414,
    "9`": 8415,
    "9|": 8416,
    "9\\": 8417,
    "9'": 8418,
    "9\"": 8419,
    "9[": 8420,
    "9]": 8421,
    "9{": 8422,
    "9}": 8423,
    "9 ": 8424,
    "0a": 8425,
    "0b": 8426,
    "0c": 8427,
    "0d": 8428,
    "0e": 8429,
    "0f": 8430,
    "0g": 8431,
    "0h": 8432,
    "0i": 8433,
    "0j": 8434,
    "0k": 8435,
    "0l": 8436,
    "0m": 8437,
    "0n": 8438,
    "0o": 8439,
    "0p": 8440,
    "0q": 8441,
    "0r": 8442,
    "0s": 8443,
    "0t": 8444,
    "0u": 8445,
    "0v": 8446,
    "0w": 8447,
    "0x": 8448,
    "0y": 8449,
    "0z": 8450,
    "0а": 8451,
    "0б": 8452,
    "0в": 8453,
    "0г": 8454,
    "0д": 8455,
    "0е": 8456,
    "0ё": 8457,
    "0ж": 8458,
    "0з": 8459,
    "0и": 8460,
    "0й": 8461,
    "0к": 8462,
    "0л": 8463,
    "0м": 8464,
    "0н": 8465,
    "0о": 8466,
    "0п": 8467,
    "0р": 8468,
    "0с": 8469,
    "0т": 8470,
    "0у": 8471,
    "0ф": 8472,
    "0х": 8473,
    "0ц": 8474,
    "0ч": 8475,
    "0ш": 8476,
    "0щ": 8477,
    "0ъ": 8478,
    "0ы": 8479,
    "0ь": 8480,
    "0э": 8481,
    "0ю": 8482,
    "0я": 8483,
    "0ә": 8484,
    "0і": 8485,
    "0ң": 8486,
    "0ғ": 8487,
    "0ү": 8488,
    "0ұ": 8489,
    "0қ": 8490,
    "0ө": 8491,
    "0һ": 8492,
    "01": 8493,
    "02": 8494,
    "03": 8495,
    "04": 8496,
    "05": 8497,
    "06": 8498,
    "07": 8499,
    "08": 8500,
    "09": 8501,
    "00": 8502,
    "0!": 8503,
    "0@": 8504,
    "0#": 8505,
    "0$": 8506,
    "0%": 8507,
    "0^": 8508,
    "0&": 8509,
    "0*": 8510,
    "0(": 8511,
    "0)": 8512,
    "0_": 8513,
    "0+": 8514,
    "0=": 8515,
    "0-": 8516,
    "0?": 8517,
    "0/": 8518,
    "0>": 8519,
    "0.": 8520,
    "0<": 8521,
    "0,": 8522,
    "0`": 8523,
    "0|": 8524,
    "0\\": 8525,
    "0'": 8526,
    "0\"": 8527,
    "0[": 8528,
    "0]": 8529,
    "0{": 8530,
    "0}": 8531,
    "0 ": 8532,
    "!a": 8533,
    "!b": 8534,
    "!c": 8535,
    "!d": 8536,
    "!e": 8537,
    "!f": 8538,
    "!g": 8539,
    "!h": 8540,
    "!i": 8541,
    "!j": 8542,
    "!k": 8543,
    "!l": 8544,
    "!m": 8545,
    "!n": 8546,
    "!o": 8547,
    "!p": 8548,
    "!q": 8549,
    "!r": 8550,
    "!s": 8551,
    "!t": 8552,
    "!u": 8553,
    "!v": 8554,
    "!w": 8555,
    "!x": 8556,
    "!y": 8557,
    "!z": 8558,
    "!а": 8559,
    "!б": 8560,
    "!в": 8561,
    "!г": 8562,
    "!д": 8563,
    "!е": 8564,
    "!ё": 8565,
    "!ж": 8566,
    "!з": 8567,
    "!и": 8568,
    "!й": 8569,
    "!к": 8570,
    "!л": 8571,
    "!м": 8572,
    "!н": 8573,
    "!о": 8574,
    "!п": 8575,
    "!р": 8576,
    "!с": 8577,
    "!т": 8578,
    "!у": 8579,
    "!ф": 8580,
    "!х": 8581,
    "!ц": 8582,
    "!ч": 8583,
    "!ш": 8584,
    "!щ": 8585,
    "!ъ": 8586,
    "!ы": 8587,
    "!ь": 8588,
    "!э": 8589,
    "!ю": 8590,
    "!я": 8591,
    "!ә": 8592,
    "!і": 8593,
    "!ң": 8594,
    "!ғ": 8595,
    "!ү": 8596,
    "!ұ": 8597,
    "!қ": 8598,
    "!ө": 8599,
    "!һ": 8600,
    "!1": 8601,
    "!2": 8602,
    "!3": 8603,
    "!4": 8604,
    "!5": 8605,
    "!6": 8606,
    "!7": 8607,
    "!8": 8608,
    "!9": 8609,
    "!0": 8610,
    "!!": 8611,
    "!@": 8612,
    "!#": 8613,
    "!$": 8614,
    "!%": 8615,
    "!^": 8616,
    "!&": 8617,
    "!*": 8618,
    "!(": 8619,
    "!)": 8620,
    "!_": 8621,
    "!+": 8622,
    "!=": 8623,
    "!-": 8624,
    "!?": 8625,
    "!/": 8626,
    "!>": 8627,
    "!.": 8628,
    "!<": 8629,
    "!,": 8630,
    "!`": 8631,
    "!|": 8632,
    "!\\": 8633,
    "!'": 8634,
    "!\"": 8635,
    "![": 8636,
    "!]": 8637,
    "!{": 8638,
    "!}": 8639,
    "! ": 8640,
    "@a": 8641,
    "@b": 8642,
    "@c": 8643,
    "@d": 8644,
    "@e": 8645,
    "@f": 8646,
    "@g": 8647,
    "@h": 8648,
    "@i": 8649,
    "@j": 8650,
    "@k": 8651,
    "@l": 8652,
    "@m": 8653,
    "@n": 8654,
    "@o": 8655,
    "@p": 8656,
    "@q": 8657,
    "@r": 8658,
    "@s": 8659,
    "@t": 8660,
    "@u": 8661,
    "@v": 8662,
    "@w": 8663,
    "@x": 8664,
    "@y": 8665,
    "@z": 8666,
    "@а": 8667,
    "@б": 8668,
    "@в": 8669,
    "@г": 8670,
    "@д": 8671,
    "@е": 8672,
    "@ё": 8673,
    "@ж": 8674,
    "@з": 8675,
    "@и": 8676,
    "@й": 8677,
    "@к": 8678,
    "@л": 8679,
    "@м": 8680,
    "@н": 8681,
    "@о": 8682,
    "@п": 8683,
    "@р": 8684,
    "@с": 8685,
    "@т": 8686,
    "@у": 8687,
    "@ф": 8688,
    "@х": 8689,
    "@ц": 8690,
    "@ч": 8691,
    "@ш": 8692,
    "@щ": 8693,
    "@ъ": 8694,
    "@ы": 8695,
    "@ь": 8696,
    "@э": 8697,
    "@ю": 8698,
    "@я": 8699,
    "@ә": 8700,
    "@і": 8701,
    "@ң": 8702,
    "@ғ": 8703,
    "@ү": 8704,
    "@ұ": 8705,
    "@қ": 8706,
    "@ө": 8707,
    "@һ": 8708,
    "@1": 8709,
    "@2": 8710,
    "@3": 8711,
    "@4": 8712,
    "@5": 8713,
    "@6": 8714,
    "@7": 8715,
    "@8": 8716,
    "@9": 8717,
    "@0": 8718,
    "@!": 8719,
    "@@": 8720,
    "@#": 8721,
    "@$": 8722,
    "@%": 8723,
    "@^": 8724,
    "@&": 8725,
    "@*": 8726,
    "@(": 8727,
    "@)": 8728,
    "@_": 8729,
    "@+": 8730,
    "@=": 8731,
    "@-": 8732,
    "@?": 8733,
    "@/": 8734,
    "@>": 8735,
    "@.": 8736,
    "@<": 8737,
    "@,": 8738,
    "@`": 8739,
    "@|": 8740,
    "@\\": 8741,
    "@'": 8742,
    "@\"": 8743,
    "@[": 8744,
    "@]": 8745,
    "@{": 8746,
    "@}": 8747,
    "@ ": 8748,
    "#a": 8749,
    "#b": 8750,
    "#c": 8751,
    "#d": 8752,
    "#e": 8753,
    "#f": 8754,
    "#g": 8755,
    "#h": 8756,
    "#i": 8757,
    "#j": 8758,
    "#k": 8759,
    "#l": 8760,
    "#m": 8761,
    "#n": 8762,
    "#o": 8763,
    "#p": 8764,
    "#q": 8765,
    "#r": 8766,
    "#s": 8767,
    "#t": 8768,
    "#u": 8769,
    "#v": 8770,
    "#w": 8771,
    "#x": 8772,
    "#y": 8773,
    "#z": 8774,
    "#а": 8775,
    "#б": 8776,
    "#в": 8777,
    "#г": 8778,
    "#д": 8779,
    "#е": 8780,
    "#ё": 8781,
    "#ж": 8782,
    "#з": 8783,
    "#и": 8784,
    "#й": 8785,
    "#к": 8786,
    "#л": 8787,
    "#м": 8788,
    "#н": 8789,
    "#о": 8790,
    "#п": 8791,
    "#р": 8792,
    "#с": 8793,
    "#т": 8794,
    "#у": 8795,
    "#ф": 8796,
    "#х": 8797,
    "#ц": 8798,
    "#ч": 8799,
    "#ш": 8800,
    "#щ": 8801,
    "#ъ": 8802,
    "#ы": 8803,
    "#ь": 8804,
    "#э": 8805,
    "#ю": 8806,
    "#я": 8807,
    "#ә": 8808,
    "#і": 8809,
    "#ң": 8810,
    "#ғ": 8811,
    "#ү": 8812,
    "#ұ": 8813,
    "#қ": 8814,
    "#ө": 8815,
    "#һ": 8816,
    "#1": 8817,
    "#2": 8818,
    "#3": 8819,
    "#4": 8820,
    "#5": 8821,
    "#6": 8822,
    "#7": 8823,
    "#8": 8824,
    "#9": 8825,
    "#0": 8826,
    "#!": 8827,
    "#@": 8828,
    "##": 8829,
    "#$": 8830,
    "#%": 8831,
    "#^": 8832,
    "#&": 8833,
    "#*": 8834,
    "#(": 8835,
    "#)": 8836,
    "#_": 8837,
    "#+": 8838,
    "#=": 8839,
    "#-": 8840,
    "#?": 8841,
    "#/": 8842,
    "#>": 8843,
    "#.": 8844,
    "#<": 8845,
    "#,": 8846,
    "#`": 8847,
    "#|": 8848,
    "#\\": 8849,
    "#'": 8850,
    "#\"": 8851,
    "#[": 8852,
    "#]": 8853,
    "#{": 8854,
    "#}": 8855,
    "# ": 8856,
    "$a": 8857,
    "$b": 8858,
    "$c": 8859,
    "$d": 8860,
    "$e": 8861,
    "$f": 8862,
    "$g": 8863,
    "$h": 8864,
    "$i": 8865,
    "$j": 8866,
    "$k": 8867,
    "$l": 8868,
    "$m": 8869,
    "$n": 8870,
    "$o": 8871,
    "$p": 8872,
    "$q": 8873,
    "$r": 8874,
    "$s": 8875,
    "$t": 8876,
    "$u": 8877,
    "$v": 8878,
    "$w": 8879,
    "$x": 8880,
    "$y": 8881,
    "$z": 8882,
    "$а": 8883,
    "$б": 8884,
    "$в": 8885,
    "$г": 8886,
    "$д": 8887,
    "$е": 8888,
    "$ё": 8889,
    "$ж": 8890,
    "$з": 8891,
    "$и": 8892,
    "$й": 8893,
    "$к": 8894,
    "$л": 8895,
    "$м": 8896,
    "$н": 8897,
    "$о": 8898,
    "$п": 8899,
    "$р": 8900,
    "$с": 8901,
    "$т": 8902,
    "$у": 8903,
    "$ф": 8904,
    "$х": 8905,
    "$ц": 8906,
    "$ч": 8907,
    "$ш": 8908,
    "$щ": 8909,
    "$ъ": 8910,
    "$ы": 8911,
    "$ь": 8912,
    "$э": 8913,
    "$ю": 8914,
    "$я": 8915,
    "$ә": 8916,
    "$і": 8917,
    "$ң": 8918,
    "$ғ": 8919,
    "$ү": 8920,
    "$ұ": 8921,
    "$қ": 8922,
    "$ө": 8923,
    "$һ": 8924,
    "$1": 8925,
    "$2": 8926,
    "$3": 8927,
    "$4": 8928,
    "$5": 8929,
    "$6": 8930,
    "$7": 8931,
    "$8": 8932,
    "$9": 8933,
    "$0": 8934,
    "$!": 8935,
    "$@": 8936,
    "$#": 8937,
    "$$": 8938,
    "$%": 8939,
    "$^": 8940,
    "$&": 8941,
    "$*": 8942,
    "$(": 8943,
    "$)": 8944,
    "$_": 8945,
    "$+": 8946,
    "$=": 8947,
    "$-": 8948,
    "$?": 8949,
    "$/": 8950,
    "$>": 8951,
    "$.": 8952,
    "$<": 8953,
    "$,": 8954,
    "$`": 8955,
    "$|": 8956,
    "$\\": 8957,
    "$'": 8958,
    "$\"": 8959,
    "$[": 8960,
    "$]": 8961,
    "${": 8962,
    "$}": 8963,
    "$ ": 8964,
    "%a": 8965,
    "%b": 8966,
    "%c": 8967,
    "%d": 8968,
    "%e": 8969,
    "%f": 8970,
    "%g": 8971,
    "%h": 8972,
    "%i": 8973,
    "%j": 8974,
    "%k": 8975,
    "%l": 8976,
    "%m": 8977,
    "%n": 8978,
    "%o": 8979,
    "%p": 8980,
    "%q": 8981,
    "%r": 8982,
    "%s": 8983,
    "%t": 8984,
    "%u": 8985,
    "%v": 8986,
    "%w": 8987,
    "%x": 8988,
    "%y": 8989,
    "%z": 8990,
    "%а": 8991,
    "%б": 8992,
    "%в": 8993,
    "%г": 8994,
    "%д": 8995,
    "%е": 8996,
    "%ё": 8997,
    "%ж": 8998,
    "%з": 8999,
    "%и": 9000,
    "%й": 9001,
    "%к": 9002,
    "%л": 9003,
    "%м": 9004,
    "%н": 9005,
    "%о": 9006,
    "%п": 9007,
    "%р": 9008,
    "%с": 9009,
    "%т": 9010,
    "%у": 9011,
    "%ф": 9012,
    "%х": 9013,
    "%ц": 9014,
    "%ч": 9015,
    "%ш": 9016,
    "%щ": 9017,
    "%ъ": 9018,
    "%ы": 9019,
    "%ь": 9020,
    "%э": 9021,
    "%ю": 9022,
    "%я": 9023,
    "%ә": 9024,
    "%і": 9025,
    "%ң": 9026,
    "%ғ": 9027,
    "%ү": 9028,
    "%ұ": 9029,
    "%қ": 9030,
    "%ө": 9031,
    "%һ": 9032,
    "%1": 9033,
    "%2": 9034,
    "%3": 9035,
    "%4": 9036,
    "%5": 9037,
    "%6": 9038,
    "%7": 9039,
    "%8": 9040,
    "%9": 9041,
    "%0": 9042,
    "%!": 9043,
    "%@": 9044,
    "%#": 9045,
    "%$": 9046,
    "%%": 9047,
    "%^": 9048,
    "%&": 9049,
    "%*": 9050,
    "%(": 9051,
    "%)": 9052,
    "%_": 9053,
    "%+": 9054,
    "%=": 9055,
    "%-": 9056,
    "%?": 9057,
    "%/": 9058,
    "%>": 9059,
    "%.": 9060,
    "%<": 9061,
    "%,": 9062,
    "%`": 9063,
    "%|": 9064,
    "%\\": 9065,
    "%'": 9066,
    "%\"": 9067,
    "%[": 9068,
    "%]": 9069,
    "%{": 9070,
    "%}": 9071,
    "% ": 9072,
    "^a": 9073,
    "^b": 9074,
    "^c": 9075,
    "^d": 9076,
    "^e": 9077,
    "^f": 9078,
    "^g": 9079,
    "^h": 9080,
    "^i": 9081,
    "^j": 9082,
    "^k": 9083,
    "^l": 9084,
    "^m": 9085,
    "^n": 9086,
    "^o": 9087,
    "^p": 9088,
    "^q": 9089,
    "^r": 9090,
    "^s": 9091,
    "^t": 9092,
    "^u": 9093,
    "^v": 9094,
    "^w": 9095,
    "^x": 9096,
    "^y": 9097,
    "^z": 9098,
    "^а": 9099,
    "^б": 9100,
    "^в": 9101,
    "^г": 9102,
    "^д": 9103,
    "^е": 9104,
    "^ё": 9105,
    "^ж": 9106,
    "^з": 9107,
    "^и": 9108,
    "^й": 9109,
    "^к": 9110,
    "^л": 9111,
    "^м": 9112,
    "^н": 9113,
    "^о": 9114,
    "^п": 9115,
    "^р": 9116,
    "^с": 9117,
    "^т": 9118,
    "^у": 9119,
    "^ф": 9120,
    "^х": 9121,
    "^ц": 9122,
    "^ч": 9123,
    "^ш": 9124,
    "^щ": 9125,
    "^ъ": 9126,
    "^ы": 9127,
    "^ь": 9128,
    "^э": 9129,
    "^ю": 9130,
    "^я": 9131,
    "^ә": 9132,
    "^і": 9133,
    "^ң": 9134,
    "^ғ": 9135,
    "^ү": 9136,
    "^ұ": 9137,
    "^қ": 9138,
    "^ө": 9139,
    "^һ": 9140,
    "^1": 9141,
    "^2": 9142,
    "^3": 9143,
    "^4": 9144,
    "^5": 9145,
    "^6": 9146,
    "^7": 9147,
    "^8": 9148,
    "^9": 9149,
    "^0": 9150,
    "^!": 9151,
    "^@": 9152,
    "^#": 9153,
    "^$": 9154,
    "^%": 9155,
    "^^": 9156,
    "^&": 9157,
    "^*": 9158,
    "^(": 9159,
    "^)": 9160,
    "^_": 9161,
    "^+": 9162,
    "^=": 9163,
    "^-": 9164,
    "^?": 9165,
    "^/": 9166,
    "^>": 9167,
    "^.": 9168,
    "^<": 9169,
    "^,": 9170,
    "^`": 9171,
    "^|": 9172,
    "^\\": 9173,
    "^'": 9174,
    "^\"": 9175,
    "^[": 9176,
    "^]": 9177,
    "^{": 9178,
    "^}": 9179,
    "^ ": 9180,
    "&a": 9181,
    "&b": 9182,
    "&c": 9183,
    "&d": 9184,
    "&e": 9185,
    "&f": 9186,
    "&g": 9187,
    "&h": 9188,
    "&i": 9189,
    "&j": 9190,
    "&k": 9191,
    "&l": 9192,
    "&m": 9193,
    "&n": 9194,
    "&o": 9195,
    "&p": 9196,
    "&q": 9197,
    "&r": 9198,
    "&s": 9199,
    "&t": 9200,
    "&u": 9201,
    "&v": 9202,
    "&w": 9203,
    "&x": 9204,
    "&y": 9205,
    "&z": 9206,
    "&а": 9207,
    "&б": 9208,
    "&в": 9209,
    "&г": 9210,
    "&д": 9211,
    "&е": 9212,
    "&ё": 9213,
    "&ж": 9214,
    "&з": 9215,
    "&и": 9216,
    "&й": 9217,
    "&к": 9218,
    "&л": 9219,
    "&м": 9220,
    "&н": 9221,
    "&о": 9222,
    "&п": 9223,
    "&р": 9224,
    "&с": 9225,
    "&т": 9226,
    "&у": 9227,
    "&ф": 9228,
    "&х": 9229,
    "&ц": 9230,
    "&ч": 9231,
    "&ш": 9232,
    "&щ": 9233,
    "&ъ": 9234,
    "&ы": 9235,
    "&ь": 9236,
    "&э": 9237,
    "&ю": 9238,
    "&я": 9239,
    "&ә": 9240,
    "&і": 9241,
    "&ң": 9242,
    "&ғ": 9243,
    "&ү": 9244,
    "&ұ": 9245,
    "&қ": 9246,
    "&ө": 9247,
    "&һ": 9248,
    "&1": 9249,
    "&2": 9250,
    "&3": 9251,
    "&4": 9252,
    "&5": 9253,
    "&6": 9254,
    "&7": 9255,
    "&8": 9256,
    "&9": 9257,
    "&0": 9258,
    "&!": 9259,
    "&@": 9260,
    "&#": 9261,
    "&$": 9262,
    "&%": 9263,
    "&^": 9264,
    "&&": 9265,
    "&*": 9266,
    "&(": 9267,
    "&)": 9268,
    "&_": 9269,
    "&+": 9270,
    "&=": 9271,
    "&-": 9272,
    "&?": 9273,
    "&/": 9274,
    "&>": 9275,
    "&.": 9276,
    "&<": 9277,
    "&,": 9278,
    "&`": 9279,
    "&|": 9280,
    "&\\": 9281,
    "&'": 9282,
    "&\"": 9283,
    "&[": 9284,
    "&]": 9285,
    "&{": 9286,
    "&}": 9287,
    "& ": 9288,
    "*a": 9289,
    "*b": 9290,
    "*c": 9291,
    "*d": 9292,
    "*e": 9293,
    "*f": 9294,
    "*g": 9295,
    "*h": 9296,
    "*i": 9297,
    "*j": 9298,
    "*k": 9299,
    "*l": 9300,
    "*m": 9301,
    "*n": 9302,
    "*o": 9303,
    "*p": 9304,
    "*q": 9305,
    "*r": 9306,
    "*s": 9307,
    "*t": 9308,
    "*u": 9309,
    "*v": 9310,
    "*w": 9311,
    "*x": 9312,
    "*y": 9313,
    "*z": 9314,
    "*а": 9315,
    "*б": 9316,
    "*в": 9317,
    "*г": 9318,
    "*д": 9319,
    "*е": 9320,
    "*ё": 9321,
    "*ж": 9322,
    "*з": 9323,
    "*и": 9324,
    "*й": 9325,
    "*к": 9326,
    "*л": 9327,
    "*м": 9328,
    "*н": 9329,
    "*о": 9330,
    "*п": 9331,
    "*р": 9332,
    "*с": 9333,
    "*т": 9334,
    "*у": 9335,
    "*ф": 9336,
    "*х": 9337,
    "*ц": 9338,
    "*ч": 9339,
    "*ш": 9340,
    "*щ": 9341,
    "*ъ": 9342,
    "*ы": 9343,
    "*ь": 9344,
    "*э": 9345,
    "*ю": 9346,
    "*я": 9347,
    "*ә": 9348,
    "*і": 9349,
    "*ң": 9350,
    "*ғ": 9351,
    "*ү": 9352,
    "*ұ": 9353,
    "*қ": 9354,
    "*ө": 9355,
    "*һ": 9356,
    "*1": 9357,
    "*2": 9358,
    "*3": 9359,
    "*4": 9360,
    "*5": 9361,
    "*6": 9362,
    "*7": 9363,
    "*8": 9364,
    "*9": 9365,
    "*0": 9366,
    "*!": 9367,
    "*@": 9368,
    "*#": 9369,
    "*$": 9370,
    "*%": 9371,
    "*^": 9372,
    "*&": 9373,
    "**": 9374,
    "*(": 9375,
    "*)": 9376,
    "*_": 9377,
    "*+": 9378,
    "*=": 9379,
    "*-": 9380,
    "*?": 9381,
    "*/": 9382,
    "*>": 9383,
    "*.": 9384,
    "*<": 9385,
    "*,": 9386,
    "*`": 9387,
    "*|": 9388,
    "*\\": 9389,
    "*'": 9390,
    "*\"": 9391,
    "*[": 9392,
    "*]": 9393,
    "*{": 9394,
    "*}": 9395,
    "* ": 9396,
    "(a": 9397,
    "(b": 9398,
    "(c": 9399,
    "(d": 9400,
    "(e": 9401,
    "(f": 9402,
    "(g": 9403,
    "(h": 9404,
    "(i": 9405,
    "(j": 9406,
    "(k": 9407,
    "(l": 9408,
    "(m": 9409,
    "(n": 9410,
    "(o": 9411,
    "(p": 9412,
    "(q": 9413,
    "(r": 9414,
    "(s": 9415,
    "(t": 9416,
    "(u": 9417,
    "(v": 9418,
    "(w": 9419,
    "(x": 9420,
    "(y": 9421,
    "(z": 9422,
    "(а": 9423,
    "(б": 9424,
    "(в": 9425,
    "(г": 9426,
    "(д": 9427,
    "(е": 9428,
    "(ё": 9429,
    "(ж": 9430,
    "(з": 9431,
    "(и": 9432,
    "(й": 9433,
    "(к": 9434,
    "(л": 9435,
    "(м": 9436,
    "(н": 9437,
    "(о": 9438,
    "(п": 9439,
    "(р": 9440,
    "(с": 9441,
    "(т": 9442,
    "(у": 9443,
    "(ф": 9444,
    "(х": 9445,
    "(ц": 9446,
    "(ч": 9447,
    "(ш": 9448,
    "(щ": 9449,
    "(ъ": 9450,
    "(ы": 9451,
    "(ь": 9452,
    "(э": 9453,
    "(ю": 9454,
    "(я": 9455,
    "(ә": 9456,
    "(і": 9457,
    "(ң": 9458,
    "(ғ": 9459,
    "(ү": 9460,
    "(ұ": 9461,
    "(қ": 9462,
    "(ө": 9463,
    "(һ": 9464,
    "(1": 9465,
    "(2": 9466,
    "(3": 9467,
    "(4": 9468,
    "(5": 9469,
    "(6": 9470,
    "(7": 9471,
    "(8": 9472,
    "(9": 9473,
    "(0": 9474,
    "(!": 9475,
    "(@": 9476,
    "(#": 9477,
    "($": 9478,
    "(%": 9479,
    "(^": 9480,
    "(&": 9481,
    "(*": 9482,
    "((": 9483,
    "()": 9484,
    "(_": 9485,
    "(+": 9486,
    "(=": 9487,
    "(-": 9488,
    "(?": 9489,
    "(/": 9490,
    "(>": 9491,
    "(.": 9492,
    "(<": 9493,
    "(,": 9494,
    "(`": 9495,
    "(|": 9496,
    "(\\": 9497,
    "('": 9498,
    "(\"": 9499,
    "([": 9500,
    "(]": 9501,
    "({": 9502,
    "(}": 9503,
    "( ": 9504,
    ")a": 9505,
    ")b": 9506,
    ")c": 9507,
    ")d": 9508,
    ")e": 9509,
    ")f": 9510,
    ")g": 9511,
    ")h": 9512,
    ")i": 9513,
    ")j": 9514,
    ")k": 9515,
    ")l": 9516,
    ")m": 9517,
    ")n": 9518,
    ")o": 9519,
    ")p": 9520,
    ")q": 9521,
    ")r": 9522,
    ")s": 9523,
    ")t": 9524,
    ")u": 9525,
    ")v": 9526,
    ")w": 9527,
    ")x": 9528,
    ")y": 9529,
    ")z": 9530,
    ")а": 9531,
    ")б": 9532,
    ")в": 9533,
    ")г": 9534,
    ")д": 9535,
    ")е": 9536,
    ")ё": 9537,
    ")ж": 9538,
    ")з": 9539,
    ")и": 9540,
    ")й": 9541,
    ")к": 9542,
    ")л": 9543,
    ")м": 9544,
    ")н": 9545,
    ")о": 9546,
    ")п": 9547,
    ")р": 9548,
    ")с": 9549,
    ")т": 9550,
    ")у": 9551,
    ")ф": 9552,
    ")х": 9553,
    ")ц": 9554,
    ")ч": 9555,
    ")ш": 9556,
    ")щ": 9557,
    ")ъ": 9558,
    ")ы": 9559,
    ")ь": 9560,
    ")э": 9561,
    ")ю": 9562,
    ")я": 9563,
    ")ә": 9564,
    ")і": 9565,
    ")ң": 9566,
    ")ғ": 9567,
    ")ү": 9568,
    ")ұ": 9569,
    ")қ": 9570,
    ")ө": 9571,
    ")һ": 9572,
    ")1": 9573,
    ")2": 9574,
    ")3": 9575,
    ")4": 9576,
    ")5": 9577,
    ")6": 9578,
    ")7": 9579,
    ")8": 9580,
    ")9": 9581,
    ")0": 9582,
    ")!": 9583,
    ")@": 9584,
    ")#": 9585,
    ")$": 9586,
    ")%": 9587,
    ")^": 9588,
    ")&": 9589,
    ")*": 9590,
    ")(": 9591,
    "))": 9592,
    ")_": 9593,
    ")+": 9594,
    ")=": 9595,
    ")-": 9596,
    ")?": 9597,
    ")/": 9598,
    ")>": 9599,
    ").": 9600,
    ")<": 9601,
    "),": 9602,
    ")`": 9603,
    ")|": 9604,
    ")\\": 9605,
    ")'": 9606,
    ")\"": 9607,
    ")[": 9608,
    ")]": 9609,
    "){": 9610,
    ")}": 9611,
    ") ": 9612,
    "_a": 9613,
    "_b": 9614,
    "_c": 9615,
    "_d": 9616,
    "_e": 9617,
    "_f": 9618,
    "_g": 9619,
    "_h": 9620,
    "_i": 9621,
    "_j": 9622,
    "_k": 9623,
    "_l": 9624,
    "_m": 9625,
    "_n": 9626,
    "_o": 9627,
    "_p": 9628,
    "_q": 9629,
    "_r": 9630,
    "_s": 9631,
    "_t": 9632,
    "_u": 9633,
    "_v": 9634,
    "_w": 9635,
    "_x": 9636,
    "_y": 9637,
    "_z": 9638,
    "_а": 9639,
    "_б": 9640,
    "_в": 9641,
    "_г": 9642,
    "_д": 9643,
    "_е": 9644,
    "_ё": 9645,
    "_ж": 9646,
    "_з": 9647,
    "_и": 9648,
    "_й": 9649,
    "_к": 9650,
    "_л": 9651,
    "_м": 9652,
    "_н": 9653,
    "_о": 9654,
    "_п": 9655,
    "_р": 9656,
    "_с": 9657,
    "_т": 9658,
    "_у": 9659,
    "_ф": 9660,
    "_х": 9661,
    "_ц": 9662,
    "_ч": 9663,
    "_ш": 9664,
    "_щ": 9665,
    "_ъ": 9666,
    "_ы": 9667,
    "_ь": 9668,
    "_э": 9669,
    "_ю": 9670,
    "_я": 9671,
    "_ә": 9672,
    "_і": 9673,
    "_ң": 9674,
    "_ғ": 9675,
    "_ү": 9676,
    "_ұ": 9677,
    "_қ": 9678,
    "_ө": 9679,
    "_һ": 9680,
    "_1": 9681,
    "_2": 9682,
    "_3": 9683,
    "_4": 9684,
    "_5": 9685,
    "_6": 9686,
    "_7": 9687,
    "_8": 9688,
    "_9": 9689,
    "_0": 9690,
    "_!": 9691,
    "_@": 9692,
    "_#": 9693,
    "_$": 9694,
    "_%": 9695,
    "_^": 9696,
    "_&": 9697,
    "_*": 9698,
    "_(": 9699,
    "_)": 9700,
    "__": 9701,
    "_+": 9702,
    "_=": 9703,
    "_-": 9704,
    "_?": 9705,
    "_/": 9706,
    "_>": 9707,
    "_.": 9708,
    "_<": 9709,
    "_,": 9710,
    "_`": 9711,
    "_|": 9712,
    "_\\": 9713,
    "_'": 9714,
    "_\"": 9715,
    "_[": 9716,
    "_]": 9717,
    "_{": 9718,
    "_}": 9719,
    "_ ": 9720,
    "+a": 9721,
    "+b": 9722,
    "+c": 9723,
    "+d": 9724,
    "+e": 9725,
    "+f": 9726,
    "+g": 9727,
    "+h": 9728,
    "+i": 9729,
    "+j": 9730,
    "+k": 9731,
    "+l": 9732,
    "+m": 9733,
    "+n": 9734,
    "+o": 9735,
    "+p": 9736,
    "+q": 9737,
    "+r": 9738,
    "+s": 9739,
    "+t": 9740,
    "+u": 9741,
    "+v": 9742,
    "+w": 9743,
    "+x": 9744,
    "+y": 9745,
    "+z": 9746,
    "+а": 9747,
    "+б": 9748,
    "+в": 9749,
    "+г": 9750,
    "+д": 9751,
    "+е": 9752,
    "+ё": 9753,
    "+ж": 9754,
    "+з": 9755,
    "+и": 9756,
    "+й": 9757,
    "+к": 9758,
    "+л": 9759,
    "+м": 9760,
    "+н": 9761,
    "+о": 9762,
    "+п": 9763,
    "+р": 9764,
    "+с": 9765,
    "+т": 9766,
    "+у": 9767,
    "+ф": 9768,
    "+х": 9769,
    "+ц": 9770,
    "+ч": 9771,
    "+ш": 9772,
    "+щ": 9773,
    "+ъ": 9774,
    "+ы": 9775,
    "+ь": 9776,
    "+э": 9777,
    "+ю": 9778,
    "+я": 9779,
    "+ә": 9780,
    "+і": 9781,
    "+ң": 9782,
    "+ғ": 9783,
    "+ү": 9784,
    "+ұ": 9785,
    "+қ": 9786,
    "+ө": 9787,
    "+һ": 9788,
    "+1": 9789,
    "+2": 9790,
    "+3": 9791,
    "+4": 9792,
    "+5": 9793,
    "+6": 9794,
    "+7": 9795,
    "+8": 9796,
    "+9": 9797,
    "+0": 9798,
    "+!": 9799,
    "+@": 9800,
    "+#": 9801,
    "+$": 9802,
    "+%": 9803,
    "+^": 9804,
    "+&": 9805,
    "+*": 9806,
    "+(": 9807,
    "+)": 9808,
    "+_": 9809,
    "++": 9810,
    "+=": 9811,
    "+-": 9812,
    "+?": 9813,
    "+/": 9814,
    "+>": 9815,
    "+.": 9816,
    "+<": 9817,
    "+,": 9818,
    "+`": 9819,
    "+|": 9820,
    "+\\": 9821,
    "+'": 9822,
    "+\"": 9823,
    "+[": 9824,
    "+]": 9825,
    "+{": 9826,
    "+}": 9827,
    "+ ": 9828,
    "=a": 9829,
    "=b": 9830,
    "=c": 9831,
    "=d": 9832,
    "=e": 9833,
    "=f": 9834,
    "=g": 9835,
    "=h": 9836,
    "=i": 9837,
    "=j": 9838,
    "=k": 9839,
    "=l": 9840,
    "=m": 9841,
    "=n": 9842,
    "=o": 9843,
    "=p": 9844,
    "=q": 9845,
    "=r": 9846,
    "=s": 9847,
    "=t": 9848,
    "=u": 9849,
    "=v": 9850,
    "=w": 9851,
    "=x": 9852,
    "=y": 9853,
    "=z": 9854,
    "=а": 9855,
    "=б": 9856,
    "=в": 9857,
    "=г": 9858,
    "=д": 9859,
    "=е": 9860,
    "=ё": 9861,
    "=ж": 9862,
    "=з": 9863,
    "=и": 9864,
    "=й": 9865,
    "=к": 9866,
    "=л": 9867,
    "=м": 9868,
    "=н": 9869,
    "=о": 9870,
    "=п": 9871,
    "=р": 9872,
    "=с": 9873,
    "=т": 9874,
    "=у": 9875,
    "=ф": 9876,
    "=х": 9877,
    "=ц": 9878,
    "=ч": 9879,
    "=ш": 9880,
    "=щ": 9881,
    "=ъ": 9882,
    "=ы": 9883,
    "=ь": 9884,
    "=э": 9885,
    "=ю": 9886,
    "=я": 9887,
    "=ә": 9888,
    "=і": 9889,
    "=ң": 9890,
    "=ғ": 9891,
    "=ү": 9892,
    "=ұ": 9893,
    "=қ": 9894,
    "=ө": 9895,
    "=һ": 9896,
    "=1": 9897,
    "=2": 9898,
    "=3": 9899,
    "=4": 9900,
    "=5": 9901,
    "=6": 9902,
    "=7": 9903,
    "=8": 9904,
    "=9": 9905,
    "=0": 9906,
    "=!": 9907,
    "=@": 9908,
    "=#": 9909,
    "=$": 9910,
    "=%": 9911,
    "=^": 9912,
    "=&": 9913,
    "=*": 9914,
    "=(": 9915,
    "=)": 9916,
    "=_": 9917,
    "=+": 9918,
    "==": 9919,
    "=-": 9920,
    "=?": 9921,
    "=/": 9922,
    "=>": 9923,
    "=.": 9924,
    "=<": 9925,
    "=,": 9926,
    "=`": 9927,
    "=|": 9928,
    "=\\": 9929,
    "='": 9930,
    "=\"": 9931,
    "=[": 9932,
    "=]": 9933,
    "={": 9934,
    "=}": 9935,
    "= ": 9936,
    "-a": 9937,
    "-b": 9938,
    "-c": 9939,
    "-d": 9940,
    "-e": 9941,
    "-f": 9942,
    "-g": 9943,
    "-h": 9944,
    "-i": 9945,
    "-j": 9946,
    "-k": 9947,
    "-l": 9948,
    "-m": 9949,
    "-n": 9950,
    "-o": 9951,
    "-p": 9952,
    "-q": 9953,
    "-r": 9954,
    "-s": 9955,
    "-t": 9956,
    "-u": 9957,
    "-v": 9958,
    "-w": 9959,
    "-x": 9960,
    "-y": 9961,
    "-z": 9962,
    "-а": 9963,
    "-б": 9964,
    "-в": 9965,
    "-г": 9966,
    "-д": 9967,
    "-е": 9968,
    "-ё": 9969,
    "-ж": 9970,
    "-з": 9971,
    "-и": 9972,
    "-й": 9973,
    "-к": 9974,
    "-л": 9975,
    "-м": 9976,
    "-н": 9977,
    "-о": 9978,
    "-п": 9979,
    "-р": 9980,
    "-с": 9981,
    "-т": 9982,
    "-у": 9983,
    "-ф": 9984,
    "-х": 9985,
    "-ц": 9986,
    "-ч": 9987,
    "-ш": 9988,
    "-щ": 9989,
    "-ъ": 9990,
    "-ы": 9991,
    "-ь": 9992,
    "-э": 9993,
    "-ю": 9994,
    "-я": 9995,
    "-ә": 9996,
    "-і": 9997,
    "-ң": 9998,
    "-ғ": 9999,
    "-ү": 10000,
    "-ұ": 10001,
    "-қ": 10002,
    "-ө": 10003,
    "-һ": 10004,
    "-1": 10005,
    "-2": 10006,
    "-3": 10007,
    "-4": 10008,
    "-5": 10009,
    "-6": 10010,
    "-7": 10011,
    "-8": 10012,
    "-9": 10013,
    "-0": 10014,
    "-!": 10015,
    "-@": 10016,
    "-#": 10017,
    "-$": 10018,
    "-%": 10019,
    "-^": 10020,
    "-&": 10021,
    "-*": 10022,
    "-(": 10023,
    "-)": 10024,
    "-_": 10025,
    "-+": 10026,
    "-=": 10027,
    "--": 10028,
    "-?": 10029,
    "-/": 10030,
    "->": 10031,
    "-.": 10032,
    "-<": 10033,
    "-,": 10034,
    "-`": 10035,
    "-|": 10036,
    "-\\": 10037,
    "-'": 10038,
    "-\"": 10039,
    "-[": 10040,
    "-]": 10041,
    "-{": 10042,
    "-}": 10043,
    "- ": 10044,
    "?a": 10045,
    "?b": 10046,
    "?c": 10047,
    "?d": 10048,
    "?e": 10049,
    "?f": 10050,
    "?g": 10051,
    "?h": 10052,
    "?i": 10053,
    "?j": 10054,
    "?k": 10055,
    "?l": 10056,
    "?m": 10057,
    "?n": 10058,
    "?o": 10059,
    "?p": 10060,
    "?q": 10061,
    "?r": 10062,
    "?s": 10063,
    "?t": 10064,
    "?u": 10065,
    "?v": 10066,
    "?w": 10067,
    "?x": 10068,
    "?y": 10069,
    "?z": 10070,
    "?а": 10071,
    "?б": 10072,
    "?в": 10073,
    "?г": 10074,
    "?д": 10075,
    "?е": 10076,
    "?ё": 10077,
    "?ж": 10078,
    "?з": 10079,
    "?и": 10080,
    "?й": 10081,
    "?к": 10082,
    "?л": 10083,
    "?м": 10084,
    "?н": 10085,
    "?о": 10086,
    "?п": 10087,
    "?р": 10088,
    "?с": 10089,
    "?т": 10090,
    "?у": 10091,
    "?ф": 10092,
    "?х": 10093,
    "?ц": 10094,
    "?ч": 10095,
    "?ш": 10096,
    "?щ": 10097,
    "?ъ": 10098,
    "?ы": 10099,
    "?ь": 10100,
    "?э": 10101,
    "?ю": 10102,
    "?я": 10103,
    "?ә": 10104,
    "?і": 10105,
    "?ң": 10106,
    "?ғ": 10107,
    "?ү": 10108,
    "?ұ": 10109,
    "?қ": 10110,
    "?ө": 10111,
    "?һ": 10112,
    "?1": 10113,
    "?2": 10114,
    "?3": 10115,
    "?4": 10116,
    "?5": 10117,
    "?6": 10118,
    "?7": 10119,
    "?8": 10120,
    "?9": 10121,
    "?0": 10122,
    "?!": 10123,
    "?@": 10124,
    "?#": 10125,
    "?$": 10126,
    "?%": 10127,
    "?^": 10128,
    "?&": 10129,
    "?*": 10130,
    "?(": 10131,
    "?)": 10132,
    "?_": 10133,
    "?+": 10134,
    "?=": 10135,
    "?-": 10136,
    "??": 10137,
    "?/": 10138,
    "?>": 10139,
    "?.": 10140,
    "?<": 10141,
    "?,": 10142,
    "?`": 10143,
    "?|": 10144,
    "?\\": 10145,
    "?'": 10146,
    "?\"": 10147,
    "?[": 10148,
    "?]": 10149,
    "?{": 10150,
    "?}": 10151,
    "? ": 10152,
    "/a": 10153,
    "/b": 10154,
    "/c": 10155,
    "/d": 10156,
    "/e": 10157,
    "/f": 10158,
    "/g": 10159,
    "/h": 10160,
    "/i": 10161,
    "/j": 10162,
    "/k": 10163,
    "/l": 10164,
    "/m": 10165,
    "/n": 10166,
    "/o": 10167,
    "/p": 10168,
    "/q": 10169,
    "/r": 10170,
    "/s": 10171,
    "/t": 10172,
    "/u": 10173,
    "/v": 10174,
    "/w": 10175,
    "/x": 10176,
    "/y": 10177,
    "/z": 10178,
    "/а": 10179,
    "/б": 10180,
    "/в": 10181,
    "/г": 10182,
    "/д": 10183,
    "/е": 10184,
    "/ё": 10185,
    "/ж": 10186,
    "/з": 10187,
    "/и": 10188,
    "/й": 10189,
    "/к": 10190,
    "/л": 10191,
    "/м": 10192,
    "/н": 10193,
    "/о": 10194,
    "/п": 10195,
    "/р": 10196,
    "/с": 10197,
    "/т": 10198,
    "/у": 10199,
    "/ф": 10200,
    "/х": 10201,
    "/ц": 10202,
    "/ч": 10203,
    "/ш": 10204,
    "/щ": 10205,
    "/ъ": 10206,
    "/ы": 10207,
    "/ь": 10208,
    "/э": 10209,
    "/ю": 10210,
    "/я": 10211,
    "/ә": 10212,
    "/і": 10213,
    "/ң": 10214,
    "/ғ": 10215,
    "/ү": 10216,
    "/ұ": 10217,
    "/қ": 10218,
    "/ө": 10219,
    "/һ": 10220,
    "/1": 10221,
    "/2": 10222,
    "/3": 10223,
    "/4": 10224,
    "/5": 10225,
    "/6": 10226,
    "/7": 10227,
    "/8": 10228,
    "/9": 10229,
    "/0": 10230,
    "/!": 10231,
    "/@": 10232,
    "/#": 10233,
    "/$": 10234,
    "/%": 10235,
    "/^": 10236,
    "/&": 10237,
    "/*": 10238,
    "/(": 10239,
    "/)": 10240,
    "/_": 10241,
    "/+": 10242,
    "/=": 10243,
    "/-": 10244,
    "/?": 10245,
    "//": 10246,
    "/>": 10247,
    "/.": 10248,
    "/<": 10249,
    "/,": 10250,
    "/`": 10251,
    "/|": 10252,
    "/\\": 10253,
    "/'": 10254,
    "/\"": 10255,
    "/[": 10256,
    "/]": 10257,
    "/{": 10258,
    "/}": 10259,
    "/ ": 10260,
    ">a": 10261,
    ">b": 10262,
    ">c": 10263,
    ">d": 10264,
    ">e": 10265,
    ">f": 10266,
    ">g": 10267,
    ">h": 10268,
    ">i": 10269,
    ">j": 10270,
    ">k": 10271,
    ">l": 10272,
    ">m": 10273,
    ">n": 10274,
    ">o": 10275,
    ">p": 10276,
    ">q": 10277,
    ">r": 10278,
    ">s": 10279,
    ">t": 10280,
    ">u": 10281,
    ">v": 10282,
    ">w": 10283,
    ">x": 10284,
    ">y": 10285,
    ">z": 10286,
    ">а": 10287,
    ">б": 10288,
    ">в": 10289,
    ">г": 10290,
    ">д": 10291,
    ">е": 10292,
    ">ё": 10293,
    ">ж": 10294,
    ">з": 10295,
    ">и": 10296,
    ">й": 10297,
    ">к": 10298,
    ">л": 10299,
    ">м": 10300,
    ">н": 10301,
    ">о": 10302,
    ">п": 10303,
    ">р": 10304,
    ">с": 10305,
    ">т": 10306,
    ">у": 10307,
    ">ф": 10308,
    ">х": 10309,
    ">ц": 10310,
    ">ч": 10311,
    ">ш": 10312,
    ">щ": 10313,
    ">ъ": 10314,
    ">ы": 10315,
    ">ь": 10316,
    ">э": 10317,
    ">ю": 10318,
    ">я": 10319,
    ">ә": 10320,
    ">і": 10321,
    ">ң": 10322,
    ">ғ": 10323,
    ">ү": 10324,
    ">ұ": 10325,
    ">қ": 10326,
    ">ө": 10327,
    ">һ": 10328,
    ">1": 10329,
    ">2": 10330,
    ">3": 10331,
    ">4": 10332,
    ">5": 10333,
    ">6": 10334,
    ">7": 10335,
    ">8": 10336,
    ">9": 10337,
    ">0": 10338,
    ">!": 10339,
    ">@": 10340,
    ">#": 10341,
    ">$": 10342,
    ">%": 10343,
    ">^": 10344,
    ">&": 10345,
    ">*": 10346,
    ">(": 10347,
    ">)": 10348,
    ">_": 10349,
    ">+": 10350,
    ">=": 10351,
    ">-": 10352,
    ">?": 10353,
    ">/": 10354,
    ">>": 10355,
    ">.": 10356,
    "><": 10357,
    ">,": 10358,
    ">`": 10359,
    ">|": 10360,
    ">\\": 10361,
    ">'": 10362,
    ">\"": 10363,
    ">[": 10364,
    ">]": 10365,
    ">{": 10366,
    ">}": 10367,
    "> ": 10368,
    ".a": 10369,
    ".b": 10370,
    ".c": 10371,
    ".d": 10372,
    ".e": 10373,
    ".f": 10374,
    ".g": 10375,
    ".h": 10376,
    ".i": 10377,
    ".j": 10378,
    ".k": 10379,
    ".l": 10380,
    ".m": 10381,
    ".n": 10382,
    ".o": 10383,
    ".p": 10384,
    ".q": 10385,
    ".r": 10386,
    ".s": 10387,
    ".t": 10388,
    ".u": 10389,
    ".v": 10390,
    ".w": 10391,
    ".x": 10392,
    ".y": 10393,
    ".z": 10394,
    ".а": 10395,
    ".б": 10396,
    ".в": 10397,
    ".г": 10398,
    ".д": 10399,
    ".е": 10400,
    ".ё": 10401,
    ".ж": 10402,
    ".з": 10403,
    ".и": 10404,
    ".й": 10405,
    ".к": 10406,
    ".л": 10407,
    ".м": 10408,
    ".н": 10409,
    ".о": 10410,
    ".п": 10411,
    ".р": 10412,
    ".с": 10413,
    ".т": 10414,
    ".у": 10415,
    ".ф": 10416,
    ".х": 10417,
    ".ц": 10418,
    ".ч": 10419,
    ".ш": 10420,
    ".щ": 10421,
    ".ъ": 10422,
    ".ы": 10423,
    ".ь": 10424,
    ".э": 10425,
    ".ю": 10426,
    ".я": 10427,
    ".ә": 10428,
    ".і": 10429,
    ".ң": 10430,
    ".ғ": 10431,
    ".ү": 10432,
    ".ұ": 10433,
    ".қ": 10434,
    ".ө": 10435,
    ".һ": 10436,
    ".1": 10437,
    ".2": 10438,
    ".3": 10439,
    ".4": 10440,
    ".5": 10441,
    ".6": 10442,
    ".7": 10443,
    ".8": 10444,
    ".9": 10445,
    ".0": 10446,
    ".!": 10447,
    ".@": 10448,
    ".#": 10449,
    ".$": 10450,
    ".%": 10451,
    ".^": 10452,
    ".&": 10453,
    ".*": 10454,
    ".(": 10455,
    ".)": 10456,
    "._": 10457,
    ".+": 10458,
    ".=": 10459,
    ".-": 10460,
    ".?": 10461,
    "./": 10462,
    ".>": 10463,
    "..": 10464,
    ".<": 10465,
    ".,": 10466,
    ".`": 10467,
    ".|": 10468,
    ".\\": 10469,
    ".'": 10470,
    ".\"": 10471,
    ".[": 10472,
    ".]": 10473,
    ".{": 10474,
    ".}": 10475,
    ". ": 10476,
    "<a": 10477,
    "<b": 10478,
    "<c": 10479,
    "<d": 10480,
    "<e": 10481,
    "<f": 10482,
    "<g": 10483,
    "<h": 10484,
    "<i": 10485,
    "<j": 10486,
    "<k": 10487,
    "<l": 10488,
    "<m": 10489,
    "<n": 10490,
    "<o": 10491,
    "<p": 10492,
    "<q": 10493,
    "<r": 10494,
    "<s": 10495,
    "<t": 10496,
    "<u": 10497,
    "<v": 10498,
    "<w": 10499,
    "<x": 10500,
    "<y": 10501,
    "<z": 10502,
    "<а": 10503,
    "<б": 10504,
    "<в": 10505,
    "<г": 10506,
    "<д": 10507,
    "<е": 10508,
    "<ё": 10509,
    "<ж": 10510,
    "<з": 10511,
    "<и": 10512,
    "<й": 10513,
    "<к": 10514,
    "<л": 10515,
    "<м": 10516,
    "<н": 10517,
    "<о": 10518,
    "<п": 10519,
    "<р": 10520,
    "<с": 10521,
    "<т": 10522,
    "<у": 10523,
    "<ф": 10524,
    "<х": 10525,
    "<ц": 10526,
    "<ч": 10527,
    "<ш": 10528,
    "<щ": 10529,
    "<ъ": 10530,
    "<ы": 10531,
    "<ь": 10532,
    "<э": 10533,
    "<ю": 10534,
    "<я": 10535,
    "<ә": 10536,
    "<і": 10537,
    "<ң": 10538,
    "<ғ": 10539,
    "<ү": 10540,
    "<ұ": 10541,
    "<қ": 10542,
    "<ө": 10543,
    "<һ": 10544,
    "<1": 10545,
    "<2": 10546,
    "<3": 10547,
    "<4": 10548,
    "<5": 10549,
    "<6": 10550,
    "<7": 10551,
    "<8": 10552,
    "<9": 10553,
    "<0": 10554,
    "<!": 10555,
    "<@": 10556,
    "<#": 10557,
    "<$": 10558,
    "<%": 10559,
    "<^": 10560,
    "<&": 10561,
    "<*": 10562,
    "<(": 10563,
    "<)": 10564,
    "<_": 10565,
    "<+": 10566,
    "<=": 10567,
    "<-": 10568,
    "<?": 10569,
    "</": 10570,
    "<>": 10571,
    "<.": 10572,
    "<<": 10573,
    "<,": 10574,
    "<`": 10575,
    "<|": 10576,
    "<\\": 10577,
    "<'": 10578,
    "<\"": 10579,
    "<[": 10580,
    "<]": 10581,
    "<{": 10582,
    "<}": 10583,
    "< ": 10584,
    ",a": 10585,
    ",b": 10586,
    ",c": 10587,
    ",d": 10588,
    ",e": 10589,
    ",f": 10590,
    ",g": 10591,
    ",h": 10592,
    ",i": 10593,
    ",j": 10594,
    ",k": 10595,
    ",l": 10596,
    ",m": 10597,
    ",n": 10598,
    ",o": 10599,
    ",p": 10600,
    ",q": 10601,
    ",r": 10602,
    ",s": 10603,
    ",t": 10604,
    ",u": 10605,
    ",v": 10606,
    ",w": 10607,
    ",x": 10608,
    ",y": 10609,
    ",z": 10610,
    ",а": 10611,
    ",б": 10612,
    ",в": 10613,
    ",г": 10614,
    ",д": 10615,
    ",е": 10616,
    ",ё": 10617,
    ",ж": 10618,
    ",з": 10619,
    ",и": 10620,
    ",й": 10621,
    ",к": 10622,
    ",л": 10623,
    ",м": 10624,
    ",н": 10625,
    ",о": 10626,
    ",п": 10627,
    ",р": 10628,
    ",с": 10629,
    ",т": 10630,
    ",у": 10631,
    ",ф": 10632,
    ",х": 10633,
    ",ц": 10634,
    ",ч": 10635,
    ",ш": 10636,
    ",щ": 10637,
    ",ъ": 10638,
    ",ы": 10639,
    ",ь": 10640,
    ",э": 10641,
    ",ю": 10642,
    ",я": 10643,
    ",ә": 10644,
    ",і": 10645,
    ",ң": 10646,
    ",ғ": 10647,
    ",ү": 10648,
    ",ұ": 10649,
    ",қ": 10650,
    ",ө": 10651,
    ",һ": 10652,
    ",1": 10653,
    ",2": 10654,
    ",3": 10655,
    ",4": 10656,
    ",5": 10657,
    ",6": 10658,
    ",7": 10659,
    ",8": 10660,
    ",9": 10661,
    ",0": 10662,
    ",!": 10663,
    ",@": 10664,
    ",#": 10665,
    ",$": 10666,
    ",%": 10667,
    ",^": 10668,
    ",&": 10669,
    ",*": 10670,
    ",(": 10671,
    ",)": 10672,
    ",_": 10673,
    ",+": 10674,
    ",=": 10675,
    ",-": 10676,
    ",?": 10677,
    ",/": 10678,
    ",>": 10679,
    ",.": 10680,
    ",<": 10681,
    ",,": 10682,
    ",`": 10683,
    ",|": 10684,
    ",\\": 10685,
    ",'": 10686,
    ",\"": 10687,
    ",[": 10688,
    ",]": 10689,
    ",{": 10690,
    ",}": 10691,
    ", ": 10692,
    "`a": 10693,
    "`b": 10694,
    "`c": 10695,
    "`d": 10696,
    "`e": 10697,
    "`f": 10698,
    "`g": 10699,
    "`h": 10700,
    "`i": 10701,
    "`j": 10702,
    "`k": 10703,
    "`l": 10704,
    "`m": 10705,
    "`n": 10706,
    "`o": 10707,
    "`p": 10708,
    "`q": 10709,
    "`r": 10710,
    "`s": 10711,
    "`t": 10712,
    "`u": 10713,
    "`v": 10714,
    "`w": 10715,
    "`x": 10716,
    "`y": 10717,
    "`z": 10718,
    "`а": 10719,
    "`б": 10720,
    "`в": 10721,
    "`г": 10722,
    "`д": 10723,
    "`е": 10724,
    "`ё": 10725,
    "`ж": 10726,
    "`з": 10727,
    "`и": 10728,
    "`й": 10729,
    "`к": 10730,
    "`л": 10731,
    "`м": 10732,
    "`н": 10733,
    "`о": 10734,
    "`п": 10735,
    "`р": 10736,
    "`с": 10737,
    "`т": 10738,
    "`у": 10739,
    "`ф": 10740,
    "`х": 10741,
    "`ц": 10742,
    "`ч": 10743,
    "`ш": 10744,
    "`щ": 10745,
    "`ъ": 10746,
    "`ы": 10747,
    "`ь": 10748,
    "`э": 10749,
    "`ю": 10750,
    "`я": 10751,
    "`ә": 10752,
    "`і": 10753,
    "`ң": 10754,
    "`ғ": 10755,
    "`ү": 10756,
    "`ұ": 10757,
    "`қ": 10758,
    "`ө": 10759,
    "`һ": 10760,
    "`1": 10761,
    "`2": 10762,
    "`3": 10763,
    "`4": 10764,
    "`5": 10765,
    "`6": 10766,
    "`7": 10767,
    "`8": 10768,
    "`9": 10769,
    "`0": 10770,
    "`!": 10771,
    "`@": 10772,
    "`#": 10773,
    "`$": 10774,
    "`%": 10775,
    "`^": 10776,
    "`&": 10777,
    "`*": 10778,
    "`(": 10779,
    "`)": 10780,
    "`_": 10781,
    "`+": 10782,
    "`=": 10783,
    "`-": 10784,
    "`?": 10785,
    "`/": 10786,
    "`>": 10787,
    "`.": 10788,
    "`<": 10789,
    "`,": 10790,
    "``": 10791,
    "`|": 10792,
    "`\\": 10793,
    "`'": 10794,
    "`\"": 10795,
    "`[": 10796,
    "`]": 10797,
    "`{": 10798,
    "`}": 10799,
    "` ": 10800,
    "|a": 10801,
    "|b": 10802,
    "|c": 10803,
    "|d": 10804,
    "|e": 10805,
    "|f": 10806,
    "|g": 10807,
    "|h": 10808,
    "|i": 10809,
    "|j": 10810,
    "|k": 10811,
    "|l": 10812,
    "|m": 10813,
    "|n": 10814,
    "|o": 10815,
    "|p": 10816,
    "|q": 10817,
    "|r": 10818,
    "|s": 10819,
    "|t": 10820,
    "|u": 10821,
    "|v": 10822,
    "|w": 10823,
    "|x": 10824,
    "|y": 10825,
    "|z": 10826,
    "|а": 10827,
    "|б": 10828,
    "|в": 10829,
    "|г": 10830,
    "|д": 10831,
    "|е": 10832,
    "|ё": 10833,
    "|ж": 10834,
    "|з": 10835,
    "|и": 10836,
    "|й": 10837,
    "|к": 10838,
    "|л": 10839,
    "|м": 10840,
    "|н": 10841,
    "|о": 10842,
    "|п": 10843,
    "|р": 10844,
    "|с": 10845,
    "|т": 10846,
    "|у": 10847,
    "|ф": 10848,
    "|х": 10849,
    "|ц": 10850,
    "|ч": 10851,
    "|ш": 10852,
    "|щ": 10853,
    "|ъ": 10854,
    "|ы": 10855,
    "|ь": 10856,
    "|э": 10857,
    "|ю": 10858,
    "|я": 10859,
    "|ә": 10860,
    "|і": 10861,
    "|ң": 10862,
    "|ғ": 10863,
    "|ү": 10864,
    "|ұ": 10865,
    "|қ": 10866,
    "|ө": 10867,
    "|һ": 10868,
    "|1": 10869,
    "|2": 10870,
    "|3": 10871,
    "|4": 10872,
    "|5": 10873,
    "|6": 10874,
    "|7": 10875,
    "|8": 10876,
    "|9": 10877,
    "|0": 10878,
    "|!": 10879,
    "|@": 10880,
    "|#": 10881,
    "|$": 10882,
    "|%": 10883,
    "|^": 10884,
    "|&": 10885,
    "|*": 10886,
    "|(": 10887,
    "|)": 10888,
    "|_": 10889,
    "|+": 10890,
    "|=": 10891,
    "|-": 10892,
    "|?": 10893,
    "|/": 10894,
    "|>": 10895,
    "|.": 10896,
    "|<": 10897,
    "|,": 10898,
    "|`": 10899,
    "||": 10900,
    "|\\": 10901,
    "|'": 10902,
    "|\"": 10903,
    "|[": 10904,
    "|]": 10905,
    "|{": 10906,
    "|}": 10907,
    "| ": 10908,
    "\\a": 10909,
    "\\b": 10910,
    "\\c": 10911,
    "\\d": 10912,
    "\\e": 10913,
    "\\f": 10914,
    "\\g": 10915,
    "\\h": 10916,
    "\\i": 10917,
    "\\j": 10918,
    "\\k": 10919,
    "\\l": 10920,
    "\\m": 10921,
    "\\n": 10922,
    "\\o": 10923,
    "\\p": 10924,
    "\\q": 10925,
    "\\r": 10926,
    "\\s": 10927,
    "\\t": 10928,
    "\\u": 10929,
    "\\v": 10930,
    "\\w": 10931,
    "\\x": 10932,
    "\\y": 10933,
    "\\z": 10934,
    "\\а": 10935,
    "\\б": 10936,
    "\\в": 10937,
    "\\г": 10938,
    "\\д": 10939,
    "\\е": 10940,
    "\\ё": 10941,
    "\\ж": 10942,
    "\\з": 10943,
    "\\и": 10944,
    "\\й": 10945,
    "\\к": 10946,
    "\\л": 10947,
    "\\м": 10948,
    "\\н": 10949,
    "\\о": 10950,
    "\\п": 10951,
    "\\р": 10952,
    "\\с": 10953,
    "\\т": 10954,
    "\\у": 10955,
    "\\ф": 10956,
    "\\х": 10957,
    "\\ц": 10958,
    "\\ч": 10959,
    "\\ш": 10960,
    "\\щ": 10961,
    "\\ъ": 10962,
    "\\ы": 10963,
    "\\ь": 10964,
    "\\э": 10965,
    "\\ю": 10966,
    "\\я": 10967,
    "\\ә": 10968,
    "\\і": 10969,
    "\\ң": 10970,
    "\\ғ": 10971,
    "\\ү": 10972,
    "\\ұ": 10973,
    "\\қ": 10974,
    "\\ө": 10975,
    "\\һ": 10976,
    "\\1": 10977,
    "\\2": 10978,
    "\\3": 10979,
    "\\4": 10980,
    "\\5": 10981,
    "\\6": 10982,
    "\\7": 10983,
    "\\8": 10984,
    "\\9": 10985,
    "\\0": 10986,
    "\\!": 10987,
    "\\@": 10988,
    "\\#": 10989,
    "\\$": 10990,
    "\\%": 10991,
    "\\^": 10992,
    "\\&": 10993,
    "\\*": 10994,
    "\\(": 10995,
    "\\)": 10996,
    "\\_": 10997,
    "\\+": 10998,
    "\\=": 10999,
    "\\-": 11000,
    "\\?": 11001,
    "\\/": 11002,
    "\\>": 11003,
    "\\.": 11004,
    "\\<": 11005,
    "\\,": 11006,
    "\\`": 11007,
    "\\|": 11008,
    "\\\\": 11009,
    "\\'": 11010,
    "\\\"": 11011,
    "\\[": 11012,
    "\\]": 11013,
    "\\{": 11014,
    "\\}": 11015,
    "\\ ": 11016,
    "'a": 11017,
    "'b": 11018,
    "'c": 11019,
    "'d": 11020,
    "'e": 11021,
    "'f": 11022,
    "'g": 11023,
    "'h": 11024,
    "'i": 11025,
    "'j": 11026,
    "'k": 11027,
    "'l": 11028,
    "'m": 11029,
    "'n": 11030,
    "'o": 11031,
    "'p": 11032,
    "'q": 11033,
    "'r": 11034,
    "'s": 11035,
    "'t": 11036,
    "'u": 11037,
    "'v": 11038,
    "'w": 11039,
    "'x": 11040,
    "'y": 11041,
    "'z": 11042,
    "'а": 11043,
    "'б": 11044,
    "'в": 11045,
    "'г": 11046,
    "'д": 11047,
    "'е": 11048,
    "'ё": 11049,
    "'ж": 11050,
    "'з": 11051,
    "'и": 11052,
    "'й": 11053,
    "'к": 11054,
    "'л": 11055,
    "'м": 11056,
    "'н": 11057,
    "'о": 11058,
    "'п": 11059,
    "'р": 11060,
    "'с": 11061,
    "'т": 11062,
    "'у": 11063,
    "'ф": 11064,
    "'х": 11065,
    "'ц": 11066,
    "'ч": 11067,
    "'ш": 11068,
    "'щ": 11069,
    "'ъ": 11070,
    "'ы": 11071,
    "'ь": 11072,
    "'э": 11073,
    "'ю": 11074,
    "'я": 11075,
    "'ә": 11076,
    "'і": 11077,
    "'ң": 11078,
    "'ғ": 11079,
    "'ү": 11080,
    "'ұ": 11081,
    "'қ": 11082,
    "'ө": 11083,
    "'һ": 11084,
    "'1": 11085,
    "'2": 11086,
    "'3": 11087,
    "'4": 11088,
    "'5": 11089,
    "'6": 11090,
    "'7": 11091,
    "'8": 11092,
    "'9": 11093,
    "'0": 11094,
    "'!": 11095,
    "'@": 11096,
    "'#": 11097,
    "'$": 11098,
    "'%": 11099,
    "'^": 11100,
    "'&": 11101,
    "'*": 11102,
    "'(": 11103,
    "')": 11104,
    "'_": 11105,
    "'+": 11106,
    "'=": 11107,
    "'-": 11108,
    "'?": 11109,
    "'/": 11110,
    "'>": 11111,
    "'.": 11112,
    "'<": 11113,
    "',": 11114,
    "'`": 11115,
    "'|": 11116,
    "'\\": 11117,
    "''": 11118,
    "'\"": 11119,
    "'[": 11120,
    "']": 11121,
    "'{": 11122,
    "'}": 11123,
    "' ": 11124,
    "\"a": 11125,
    "\"b": 11126,
    "\"c": 11127,
    "\"d": 11128,
    "\"e": 11129,
    "\"f": 11130,
    "\"g": 11131,
    "\"h": 11132,
    "\"i": 11133,
    "\"j": 11134,
    "\"k": 11135,
    "\"l": 11136,
    "\"m": 11137,
    "\"n": 11138,
    "\"o": 11139,
    "\"p": 11140,
    "\"q": 11141,
    "\"r": 11142,
    "\"s": 11143,
    "\"t": 11144,
    "\"u": 11145,
    "\"v": 11146,
    "\"w": 11147,
    "\"x": 11148,
    "\"y": 11149,
    "\"z": 11150,
    "\"а": 11151,
    "\"б": 11152,
    "\"в": 11153,
    "\"г": 11154,
    "\"д": 11155,
    "\"е": 11156,
    "\"ё": 11157,
    "\"ж": 11158,
    "\"з": 11159,
    "\"и": 11160,
    "\"й": 11161,
    "\"к": 11162,
    "\"л": 11163,
    "\"м": 11164,
    "\"н": 11165,
    "\"о": 11166,
    "\"п": 11167,
    "\"р": 11168,
    "\"с": 11169,
    "\"т": 11170,
    "\"у": 11171,
    "\"ф": 11172,
    "\"х": 11173,
    "\"ц": 11174,
    "\"ч": 11175,
    "\"ш": 11176,
    "\"щ": 11177,
    "\"ъ": 11178,
    "\"ы": 11179,
    "\"ь": 11180,
    "\"э": 11181,
    "\"ю": 11182,
    "\"я": 11183,
    "\"ә": 11184,
    "\"і": 11185,
    "\"ң": 11186,
    "\"ғ": 11187,
    "\"ү": 11188,
    "\"ұ": 11189,
    "\"қ": 11190,
    "\"ө": 11191,
    "\"һ": 11192,
    "\"1": 11193,
    "\"2": 11194,
    "\"3": 11195,
    "\"4": 11196,
    "\"5": 11197,
    "\"6": 11198,
    "\"7": 11199,
    "\"8": 11200,
    "\"9": 11201,
    "\"0": 11202,
    "\"!": 11203,
    "\"@": 11204,
    "\"#": 11205,
    "\"$": 11206,
    "\"%": 11207,
    "\"^": 11208,
    "\"&": 11209,
    "\"*": 11210,
    "\"(": 11211,
    "\")": 11212,
    "\"_": 11213,
    "\"+": 11214,
    "\"=": 11215,
    "\"-": 11216,
    "\"?": 11217,
    "\"/": 11218,
    "\">": 11219,
    "\".": 11220,
    "\"<": 11221,
    "\",": 11222,
    "\"`": 11223,
    "\"|": 11224,
    "\"\\": 11225,
    "\"'": 11226,
    "\"\"": 11227,
    "\"[": 11228,
    "\"]": 11229,
    "\"{": 11230,
    "\"}": 11231,
    "\" ": 11232,
    "[a": 11233,
    "[b": 11234,
    "[c": 11235,
    "[d": 11236,
    "[e": 11237,
    "[f": 11238,
    "[g": 11239,
    "[h": 11240,
    "[i": 11241,
    "[j": 11242,
    "[k": 11243,
    "[l": 11244,
    "[m": 11245,
    "[n": 11246,
    "[o": 11247,
    "[p": 11248,
    "[q": 11249,
    "[r": 11250,
    "[s": 11251,
    "[t": 11252,
    "[u": 11253,
    "[v": 11254,
    "[w": 11255,
    "[x": 11256,
    "[y": 11257,
    "[z": 11258,
    "[а": 11259,
    "[б": 11260,
    "[в": 11261,
    "[г": 11262,
    "[д": 11263,
    "[е": 11264,
    "[ё": 11265,
    "[ж": 11266,
    "[з": 11267,
    "[и": 11268,
    "[й": 11269,
    "[к": 11270,
    "[л": 11271,
    "[м": 11272,
    "[н": 11273,
    "[о": 11274,
    "[п": 11275,
    "[р": 11276,
    "[с": 11277,
    "[т": 11278,
    "[у": 11279,
    "[ф": 11280,
    "[х": 11281,
    "[ц": 11282,
    "[ч": 11283,
    "[ш": 11284,
    "[щ": 11285,
    "[ъ": 11286,
    "[ы": 11287,
    "[ь": 11288,
    "[э": 11289,
    "[ю": 11290,
    "[я": 11291,
    "[ә": 11292,
    "[і": 11293,
    "[ң": 11294,
    "[ғ": 11295,
    "[ү": 11296,
    "[ұ": 11297,
    "[қ": 11298,
    "[ө": 11299,
    "[һ": 11300,
    "[1": 11301,
    "[2": 11302,
    "[3": 11303,
    "[4": 11304,
    "[5": 11305,
    "[6": 11306,
    "[7": 11307,
    "[8": 11308,
    "[9": 11309,
    "[0": 11310,
    "[!": 11311,
    "[@": 11312,
    "[#": 11313,
    "[$": 11314,
    "[%": 11315,
    "[^": 11316,
    "[&": 11317,
    "[*": 11318,
    "[(": 11319,
    "[)": 11320,
    "[_": 11321,
    "[+": 11322,
    "[=": 11323,
    "[-": 11324,
    "[?": 11325,
    "[/": 11326,
    "[>": 11327,
    "[.": 11328,
    "[<": 11329,
    "[,": 11330,
    "[`": 11331,
    "[|": 11332,
    "[\\": 11333,
    "['": 11334,
    "[\"": 11335,
    "[[": 11336,
    "[]": 11337,
    "[{": 11338,
    "[}": 11339,
    "[ ": 11340,
    "]a": 11341,
    "]b": 11342,
    "]c": 11343,
    "]d": 11344,
    "]e": 11345,
    "]f": 11346,
    "]g": 11347,
    "]h": 11348,
    "]i": 11349,
    "]j": 11350,
    "]k": 11351,
    "]l": 11352,
    "]m": 11353,
    "]n": 11354,
    "]o": 11355,
    "]p": 11356,
    "]q": 11357,
    "]r": 11358,
    "]s": 11359,
    "]t": 11360,
    "]u": 11361,
    "]v": 11362,
    "]w": 11363,
    "]x": 11364,
    "]y": 11365,
    "]z": 11366,
    "]а": 11367,
    "]б": 11368,
    "]в": 11369,
    "]г": 11370,
    "]д": 11371,
    "]е": 11372,
    "]ё": 11373,
    "]ж": 11374,
    "]з": 11375,
    "]и": 11376,
    "]й": 11377,
    "]к": 11378,
    "]л": 11379,
    "]м": 11380,
    "]н": 11381,
    "]о": 11382,
    "]п": 11383,
    "]р": 11384,
    "]с": 11385,
    "]т": 11386,
    "]у": 11387,
    "]ф": 11388,
    "]х": 11389,
    "]ц": 11390,
    "]ч": 11391,
    "]ш": 11392,
    "]щ": 11393,
    "]ъ": 11394,
    "]ы": 11395,
    "]ь": 11396,
    "]э": 11397,
    "]ю": 11398,
    "]я": 11399,
    "]ә": 11400,
    "]і": 11401,
    "]ң": 11402,
    "]ғ": 11403,
    "]ү": 11404,
    "]ұ": 11405,
    "]қ": 11406,
    "]ө": 11407,
    "]һ": 11408,
    "]1": 11409,
    "]2": 11410,
    "]3": 11411,
    "]4": 11412,
    "]5": 11413,
    "]6": 11414,
    "]7": 11415,
    "]8": 11416,
    "]9": 11417,
    "]0": 11418,
    "]!": 11419,
    "]@": 11420,
    "]#": 11421,
    "]$": 11422,
    "]%": 11423,
    "]^": 11424,
    "]&": 11425,
    "]*": 11426,
    "](": 11427,
    "])": 11428,
    "]_": 11429,
    "]+": 11430,
    "]=": 11431,
    "]-": 11432,
    "]?": 11433,
    "]/": 11434,
    "]>": 11435,
    "].": 11436,
    "]<": 11437,
    "],": 11438,
    "]`": 11439,
    "]|": 11440,
    "]\\": 11441,
    "]'": 11442,
    "]\"": 11443,
    "][": 11444,
    "]]": 11445,
    "]{": 11446,
    "]}": 11447,
    "] ": 11448,
    "{a": 11449,
    "{b": 11450,
    "{c": 11451,
    "{d": 11452,
    "{e": 11453,
    "{f": 11454,
    "{g": 11455,
    "{h": 11456,
    "{i": 11457,
    "{j": 11458,
    "{k": 11459,
    "{l": 11460,
    "{m": 11461,
    "{n": 11462,
    "{o": 11463,
    "{p": 11464,
    "{q": 11465,
    "{r": 11466,
    "{s": 11467,
    "{t": 11468,
    "{u": 11469,
    "{v": 11470,
    "{w": 11471,
    "{x": 11472,
    "{y": 11473,
    "{z": 11474,
    "{а": 11475,
    "{б": 11476,
    "{в": 11477,
    "{г": 11478,
    "{д": 11479,
    "{е": 11480,
    "{ё": 11481,
    "{ж": 11482,
    "{з": 11483,
    "{и": 11484,
    "{й": 11485,
    "{к": 11486,
    "{л": 11487,
    "{м": 11488,
    "{н": 11489,
    "{о": 11490,
    "{п": 11491,
    "{р": 11492,
    "{с": 11493,
    "{т": 11494,
    "{у": 11495,
    "{ф": 11496,
    "{х": 11497,
    "{ц": 11498,
    "{ч": 11499,
    "{ш": 11500,
    "{щ": 11501,
    "{ъ": 11502,
    "{ы": 11503,
    "{ь": 11504,
    "{э": 11505,
    "{ю": 11506,
    "{я": 11507,
    "{ә": 11508,
    "{і": 11509,
    "{ң": 11510,
    "{ғ": 11511,
    "{ү": 11512,
    "{ұ": 11513,
    "{қ": 11514,
    "{ө": 11515,
    "{һ": 11516,
    "{1": 11517,
    "{2": 11518,
    "{3": 11519,
    "{4": 11520,
    "{5": 11521,
    "{6": 11522,
    "{7": 11523,
    "{8": 11524,
    "{9": 11525,
    "{0": 11526,
    "{!": 11527,
    "{@": 11528,
    "{#": 11529,
    "{$": 11530,
    "{%": 11531,
    "{^": 11532,
    "{&": 11533,
    "{*": 11534,
    "{(": 11535,
    "{)": 11536,
    "{_": 11537,
    "{+": 11538,
    "{=": 11539,
    "{-": 11540,
    "{?": 11541,
    "{/": 11542,
    "{>": 11543,
    "{.": 11544,
    "{<": 11545,
    "{,": 11546,
    "{`": 11547,
    "{|": 11548,
    "{\\": 11549,
    "{'": 11550,
    "{\"": 11551,
    "{[": 11552,
    "{]": 11553,
    "{{": 11554,
    "{}": 11555,
    "{ ": 11556,
    "}a": 11557,
    "}b": 11558,
    "}c": 11559,
    "}d": 11560,
    "}e": 11561,
    "}f": 11562,
    "}g": 11563,
    "}h": 11564,
    "}i": 11565,
    "}j": 11566,
    "}k": 11567,
    "}l": 11568,
    "}m": 11569,
    "}n": 11570,
    "}o": 11571,
    "}p": 11572,
    "}q": 11573,
    "}r": 11574,
    "}s": 11575,
    "}t": 11576,
    "}u": 11577,
    "}v": 11578,
    "}w": 11579,
    "}x": 11580,
    "}y": 11581,
    "}z": 11582,
    "}а": 11583,
    "}б": 11584,
    "}в": 11585,
    "}г": 11586,
    "}д": 11587,
    "}е": 11588,
    "}ё": 11589,
    "}ж": 11590,
    "}з": 11591,
    "}и": 11592,
    "}й": 11593,
    "}к": 11594,
    "}л": 11595,
    "}м": 11596,
    "}н": 11597,
    "}о": 11598,
    "}п": 11599,
    "}р": 11600,
    "}с": 11601,
    "}т": 11602,
    "}у": 11603,
    "}ф": 11604,
    "}х": 11605,
    "}ц": 11606,
    "}ч": 11607,
    "}ш": 11608,
    "}щ": 11609,
    "}ъ": 11610,
    "}ы": 11611,
    "}ь": 11612,
    "}э": 11613,
    "}ю": 11614,
    "}я": 11615,
    "}ә": 11616,
    "}і": 11617,
    "}ң": 11618,
    "}ғ": 11619,
    "}ү": 11620,
    "}ұ": 11621,
    "}қ": 11622,
    "}ө": 11623,
    "}һ": 11624,
    "}1": 11625,
    "}2": 11626,
    "}3": 11627,
    "}4": 11628,
    "}5": 11629,
    "}6": 11630,
    "}7": 11631,
    "}8": 11632,
    "}9": 11633,
    "}0": 11634,
    "}!": 11635,
    "}@": 11636,
    "}#": 11637,
    "}$": 11638,
    "}%": 11639,
    "}^": 11640,
    "}&": 11641,
    "}*": 11642,
    "}(": 11643,
    "})": 11644,
    "}_": 11645,
    "}+": 11646,
    "}=": 11647,
    "}-": 11648,
    "}?": 11649,
    "}/": 11650,
    "}>": 11651,
    "}.": 11652,
    "}<": 11653,
    "},": 11654,
    "}`": 11655,
    "}|": 11656,
    "}\\": 11657,
    "}'": 11658,
    "}\"": 11659,
    "}[": 11660,
    "}]": 11661,
    "}{": 11662,
    "}}": 11663,
    "} ": 11664,
    " a": 11665,
    " b": 11666,
    " c": 11667,
    " d": 11668,
    " e": 11669,
    " f": 11670,
    " g": 11671,
    " h": 11672,
    " i": 11673,
    " j": 11674,
    " k": 11675,
    " l": 11676,
    " m": 11677,
    " n": 11678,
    " o": 11679,
    " p": 11680,
    " q": 11681,
    " r": 11682,
    " s": 11683,
    " t": 11684,
    " u": 11685,
    " v": 11686,
    " w": 11687,
    " x": 11688,
    " y": 11689,
    " z": 11690,
    " а": 11691,
    " б": 11692,
    " в": 11693,
    " г": 11694,
    " д": 11695,
    " е": 11696,
    " ё": 11697,
    " ж": 11698,
    " з": 11699,
    " и": 11700,
    " й": 11701,
    " к": 11702,
    " л": 11703,
    " м": 11704,
    " н": 11705,
    " о": 11706,
    " п": 11707,
    " р": 11708,
    " с": 11709,
    " т": 11710,
    " у": 11711,
    " ф": 11712,
    " х": 11713,
    " ц": 11714,
    " ч": 11715,
    " ш": 11716,
    " щ": 11717,
    " ъ": 11718,
    " ы": 11719,
    " ь": 11720,
    " э": 11721,
    " ю": 11722,
    " я": 11723,
    " ә": 11724,
    " і": 11725,
    " ң": 11726,
    " ғ": 11727,
    " ү": 11728,
    " ұ": 11729,
    " қ": 11730,
    " ө": 11731,
    " һ": 11732,
    " 1": 11733,
    " 2": 11734,
    " 3": 11735,
    " 4": 11736,
    " 5": 11737,
    " 6": 11738,
    " 7": 11739,
    " 8": 11740,
    " 9": 11741,
    " 0": 11742,
    " !": 11743,
    " @": 11744,
    " #": 11745,
    " $": 11746,
    " %": 11747,
    " ^": 11748,
    " &": 11749,
    " *": 11750,
    " (": 11751,
    " )": 11752,
    " _": 11753,
    " +": 11754,
    " =": 11755,
    " -": 11756,
    " ?": 11757,
    " /": 11758,
    " >": 11759,
    " .": 11760,
    " <": 11761,
    " ,": 11762,
    " `": 11763,
    " |": 11764,
    " \\": 11765,
    " '": 11766,
    " \"": 11767,
    " [": 11768,
    " ]": 11769,
    " {": 11770,
    " }": 11771,
    "  ": 11772
}