{
    "a": 1,
    "b": 2,
    "c": 3,
    "d": 4,
    "e": 5,
    "f": 6,
    "g": 7,
    "h": 8,
    "i": 9,
    "j": 10,
    "k": 11,
    "l": 12,
    "m": 13,
    "n": 14,
    "o": 15,
    "p": 16,
    "q": 17,
    "r": 18,
    "s": 19,
    "t": 20,
    "u": 21,
    "v": 22,
    "w": 23,
    "x": 24,
    "y": 25,
    "z": 26,
    "а": 27,
    "б": 28,
    "в": 29,
    "г": 30,
    "д": 31,
    "е": 32,
    "ё": 33,
    "ж": 34,
    "з": 35,
    "и": 36,
    "й": 37,
    "к": 38,
    "л": 39,
    "м": 40,
    "н": 41,
    "о": 42,
    "п": 43,
    "р": 44,
    "с": 45,
    "т": 46,
    "у": 47,
    "ф": 48,
    "х": 49,
    "ц": 50,
    "ч": 51,
    "ш": 52,
    "щ": 53,
    "ъ": 54,
    "ы": 55,
    "ь": 56,
    "э": 57,
    "ю": 58,
    "я": 59,
    "ә": 60,
    "і": 61,
    "ң": 62,
    "ғ": 63,
    "ү": 64,
    "ұ": 65,
    "қ": 66,
    "ө": 67,
    "һ": 68,
    "1": 69,
    "2": 70,
    "3": 71,
    "4": 72,
    "5": 73,
    "6": 74,
    "7": 75,
    "8": 76,
    "9": 77,
    "0": 78,
    "!": 79,
    "@": 80,
    "#": 81,
    "$": 82,
    "%": 83,
    "^": 84,
    ":": 85,
    "&": 86,
    "*": 87,
    "(": 88,
    ")": 89,
    "_": 90,
    "+": 91,
    "=": 92,
    "-": 93,
    "?": 94,
    "/": 95,
    ">": 96,
    ".": 97,
    "<": 98,
    ",": 99,
    "`": 100,
    "|": 101,
    "\\": 102,
    "'": 103,
    "\"": 104,
    "[": 105,
    "]": 106,
    "{": 107,
    "}": 108,
    " ": 109,
    "aa": 110,
    "ab": 111,
    "ac": 112,
    "ad": 113,
    "ae": 114,
    "af": 115,
    "ag": 116,
    "ah": 117,
    "ai": 118,
    "aj": 119,
    "ak": 120,
    "al": 121,
    "am": 122,
    "an": 123,
    "ao": 124,
    "ap": 125,
    "aq": 126,
    "ar": 127,
    "as": 128,
    "at": 129,
    "au": 130,
    "av": 131,
    "aw": 132,
    "ax": 133,
    "ay": 134,
    "az": 135,
    "aа": 136,
    "aб": 137,
    "aв": 138,
    "aг": 139,
    "aд": 140,
    "aе": 141,
    "aё": 142,
    "aж": 143,
    "aз": 144,
    "aи": 145,
    "aй": 146,
    "aк": 147,
    "aл": 148,
    "aм": 149,
    "aн": 150,
    "aо": 151,
    "aп": 152,
    "aр": 153,
    "aс": 154,
    "aт": 155,
    "aу": 156,
    "aф": 157,
    "aх": 158,
    "aц": 159,
    "aч": 160,
    "aш": 161,
    "aщ": 162,
    "aъ": 163,
    "aы": 164,
    "aь": 165,
    "aэ": 166,
    "aю": 167,
    "aя": 168,
    "aә": 169,
    "aі": 170,
    "aң": 171,
    "aғ": 172,
    "aү": 173,
    "aұ": 174,
    "aқ": 175,
    "aө": 176,
    "aһ": 177,
    "a1": 178,
    "a2": 179,
    "a3": 180,
    "a4": 181,
    "a5": 182,
    "a6": 183,
    "a7": 184,
    "a8": 185,
    "a9": 186,
    "a0": 187,
    "a!": 188,
    "a@": 189,
    "a#": 190,
    "a$": 191,
    "a%": 192,
    "a^": 193,
    "a:": 194,
    "a&": 195,
    "a*": 196,
    "a(": 197,
    "a)": 198,
    "a_": 199,
    "a+": 200,
    "a=": 201,
    "a-": 202,
    "a?": 203,
    "a/": 204,
    "a>": 205,
    "a.": 206,
    "a<": 207,
    "a,": 208,
    "a`": 209,
    "a|": 210,
    "a\\": 211,
    "a'": 212,
    "a\"": 213,
    "a[": 214,
    "a]": 215,
    "a{": 216,
    "a}": 217,
    "a ": 218,
    "ba": 219,
    "bb": 220,
    "bc": 221,
    "bd": 222,
    "be": 223,
    "bf": 224,
    "bg": 225,
    "bh": 226,
    "bi": 227,
    "bj": 228,
    "bk": 229,
    "bl": 230,
    "bm": 231,
    "bn": 232,
    "bo": 233,
    "bp": 234,
    "bq": 235,
    "br": 236,
    "bs": 237,
    "bt": 238,
    "bu": 239,
    "bv": 240,
    "bw": 241,
    "bx": 242,
    "by": 243,
    "bz": 244,
    "bа": 245,
    "bб": 246,
    "bв": 247,
    "bг": 248,
    "bд": 249,
    "bе": 250,
    "bё": 251,
    "bж": 252,
    "bз": 253,
    "bи": 254,
    "bй": 255,
    "bк": 256,
    "bл": 257,
    "bм": 258,
    "bн": 259,
    "bо": 260,
    "bп": 261,
    "bр": 262,
    "bс": 263,
    "bт": 264,
    "bу": 265,
    "bф": 266,
    "bх": 267,
    "bц": 268,
    "bч": 269,
    "bш": 270,
    "bщ": 271,
    "bъ": 272,
    "bы": 273,
    "bь": 274,
    "bэ": 275,
    "bю": 276,
    "bя": 277,
    "bә": 278,
    "bі": 279,
    "bң": 280,
    "bғ": 281,
    "bү": 282,
    "bұ": 283,
    "bқ": 284,
    "bө": 285,
    "bһ": 286,
    "b1": 287,
    "b2": 288,
    "b3": 289,
    "b4": 290,
    "b5": 291,
    "b6": 292,
    "b7": 293,
    "b8": 294,
    "b9": 295,
    "b0": 296,
    "b!": 297,
    "b@": 298,
    "b#": 299,
    "b$": 300,
    "b%": 301,
    "b^": 302,
    "b:": 303,
    "b&": 304,
    "b*": 305,
    "b(": 306,
    "b)": 307,
    "b_": 308,
    "b+": 309,
    "b=": 310,
    "b-": 311,
    "b?": 312,
    "b/": 313,
    "b>": 314,
    "b.": 315,
    "b<": 316,
    "b,": 317,
    "b`": 318,
    "b|": 319,
    "b\\": 320,
    "b'": 321,
    "b\"": 322,
    "b[": 323,
    "b]": 324,
    "b{": 325,
    "b}": 326,
    "b ": 327,
    "ca": 328,
    "cb": 329,
    "cc": 330,
    "cd": 331,
    "ce": 332,
    "cf": 333,
    "cg": 334,
    "ch": 335,
    "ci": 336,
    "cj": 337,
    "ck": 338,
    "cl": 339,
    "cm": 340,
    "cn": 341,
    "co": 342,
    "cp": 343,
    "cq": 344,
    "cr": 345,
    "cs": 346,
    "ct": 347,
    "cu": 348,
    "cv": 349,
    "cw": 350,
    "cx": 351,
    "cy": 352,
    "cz": 353,
    "cа": 354,
    "cб": 355,
    "cв": 356,
    "cг": 357,
    "cд": 358,
    "cе": 359,
    "cё": 360,
    "cж": 361,
    "cз": 362,
    "cи": 363,
    "cй": 364,
    "cк": 365,
    "cл": 366,
    "cм": 367,
    "cн": 368,
    "cо": 369,
    "cп": 370,
    "cр": 371,
    "cс": 372,
    "cт": 373,
    "cу": 374,
    "cф": 375,
    "cх": 376,
    "cц": 377,
    "cч": 378,
    "cш": 379,
    "cщ": 380,
    "cъ": 381,
    "cы": 382,
    "cь": 383,
    "cэ": 384,
    "cю": 385,
    "cя": 386,
    "cә": 387,
    "cі": 388,
    "cң": 389,
    "cғ": 390,
    "cү": 391,
    "cұ": 392,
    "cқ": 393,
    "cө": 394,
    "cһ": 395,
    "c1": 396,
    "c2": 397,
    "c3": 398,
    "c4": 399,
    "c5": 400,
    "c6": 401,
    "c7": 402,
    "c8": 403,
    "c9": 404,
    "c0": 405,
    "c!": 406,
    "c@": 407,
    "c#": 408,
    "c$": 409,
    "c%": 410,
    "c^": 411,
    "c:": 412,
    "c&": 413,
    "c*": 414,
    "c(": 415,
    "c)": 416,
    "c_": 417,
    "c+": 418,
    "c=": 419,
    "c-": 420,
    "c?": 421,
    "c/": 422,
    "c>": 423,
    "c.": 424,
    "c<": 425,
    "c,": 426,
    "c`": 427,
    "c|": 428,
    "c\\": 429,
    "c'": 430,
    "c\"": 431,
    "c[": 432,
    "c]": 433,
    "c{": 434,
    "c}": 435,
    "c ": 436,
    "da": 437,
    "db": 438,
    "dc": 439,
    "dd": 440,
    "de": 441,
    "df": 442,
    "dg": 443,
    "dh": 444,
    "di": 445,
    "dj": 446,
    "dk": 447,
    "dl": 448,
    "dm": 449,
    "dn": 450,
    "do": 451,
    "dp": 452,
    "dq": 453,
    "dr": 454,
    "ds": 455,
    "dt": 456,
    "du": 457,
    "dv": 458,
    "dw": 459,
    "dx": 460,
    "dy": 461,
    "dz": 462,
    "dа": 463,
    "dб": 464,
    "dв": 465,
    "dг": 466,
    "dд": 467,
    "dе": 468,
    "dё": 469,
    "dж": 470,
    "dз": 471,
    "dи": 472,
    "dй": 473,
    "dк": 474,
    "dл": 475,
    "dм": 476,
    "dн": 477,
    "dо": 478,
    "dп": 479,
    "dр": 480,
    "dс": 481,
    "dт": 482,
    "dу": 483,
    "dф": 484,
    "dх": 485,
    "dц": 486,
    "dч": 487,
    "dш": 488,
    "dщ": 489,
    "dъ": 490,
    "dы": 491,
    "dь": 492,
    "dэ": 493,
    "dю": 494,
    "dя": 495,
    "dә": 496,
    "dі": 497,
    "dң": 498,
    "dғ": 499,
    "dү": 500,
    "dұ": 501,
    "dқ": 502,
    "dө": 503,
    "dһ": 504,
    "d1": 505,
    "d2": 506,
    "d3": 507,
    "d4": 508,
    "d5": 509,
    "d6": 510,
    "d7": 511,
    "d8": 512,
    "d9": 513,
    "d0": 514,
    "d!": 515,
    "d@": 516,
    "d#": 517,
    "d$": 518,
    "d%": 519,
    "d^": 520,
    "d:": 521,
    "d&": 522,
    "d*": 523,
    "d(": 524,
    "d)": 525,
    "d_": 526,
    "d+": 527,
    "d=": 528,
    "d-": 529,
    "d?": 530,
    "d/": 531,
    "d>": 532,
    "d.": 533,
    "d<": 534,
    "d,": 535,
    "d`": 536,
    "d|": 537,
    "d\\": 538,
    "d'": 539,
    "d\"": 540,
    "d[": 541,
    "d]": 542,
    "d{": 543,
    "d}": 544,
    "d ": 545,
    "ea": 546,
    "eb": 547,
    "ec": 548,
    "ed": 549,
    "ee": 550,
    "ef": 551,
    "eg": 552,
    "eh": 553,
    "ei": 554,
    "ej": 555,
    "ek": 556,
    "el": 557,
    "em": 558,
    "en": 559,
    "eo": 560,
    "ep": 561,
    "eq": 562,
    "er": 563,
    "es": 564,
    "et": 565,
    "eu": 566,
    "ev": 567,
    "ew": 568,
    "ex": 569,
    "ey": 570,
    "ez": 571,
    "eа": 572,
    "eб": 573,
    "eв": 574,
    "eг": 575,
    "eд": 576,
    "eе": 577,
    "eё": 578,
    "eж": 579,
    "eз": 580,
    "eи": 581,
    "eй": 582,
    "eк": 583,
    "eл": 584,
    "eм": 585,
    "eн": 586,
    "eо": 587,
    "eп": 588,
    "eр": 589,
    "eс": 590,
    "eт": 591,
    "eу": 592,
    "eф": 593,
    "eх": 594,
    "eц": 595,
    "eч": 596,
    "eш": 597,
    "eщ": 598,
    "eъ": 599,
    "eы": 600,
    "eь": 601,
    "eэ": 602,
    "eю": 603,
    "eя": 604,
    "eә": 605,
    "eі": 606,
    "eң": 607,
    "eғ": 608,
    "eү": 609,
    "eұ": 610,
    "eқ": 611,
    "eө": 612,
    "eһ": 613,
    "e1": 614,
    "e2": 615,
    "e3": 616,
    "e4": 617,
    "e5": 618,
    "e6": 619,
    "e7": 620,
    "e8": 621,
    "e9": 622,
    "e0": 623,
    "e!": 624,
    "e@": 625,
    "e#": 626,
    "e$": 627,
    "e%": 628,
    "e^": 629,
    "e:": 630,
    "e&": 631,
    "e*": 632,
    "e(": 633,
    "e)": 634,
    "e_": 635,
    "e+": 636,
    "e=": 637,
    "e-": 638,
    "e?": 639,
    "e/": 640,
    "e>": 641,
    "e.": 642,
    "e<": 643,
    "e,": 644,
    "e`": 645,
    "e|": 646,
    "e\\": 647,
    "e'": 648,
    "e\"": 649,
    "e[": 650,
    "e]": 651,
    "e{": 652,
    "e}": 653,
    "e ": 654,
    "fa": 655,
    "fb": 656,
    "fc": 657,
    "fd": 658,
    "fe": 659,
    "ff": 660,
    "fg": 661,
    "fh": 662,
    "fi": 663,
    "fj": 664,
    "fk": 665,
    "fl": 666,
    "fm": 667,
    "fn": 668,
    "fo": 669,
    "fp": 670,
    "fq": 671,
    "fr": 672,
    "fs": 673,
    "ft": 674,
    "fu": 675,
    "fv": 676,
    "fw": 677,
    "fx": 678,
    "fy": 679,
    "fz": 680,
    "fа": 681,
    "fб": 682,
    "fв": 683,
    "fг": 684,
    "fд": 685,
    "fе": 686,
    "fё": 687,
    "fж": 688,
    "fз": 689,
    "fи": 690,
    "fй": 691,
    "fк": 692,
    "fл": 693,
    "fм": 694,
    "fн": 695,
    "fо": 696,
    "fп": 697,
    "fр": 698,
    "fс": 699,
    "fт": 700,
    "fу": 701,
    "fф": 702,
    "fх": 703,
    "fц": 704,
    "fч": 705,
    "fш": 706,
    "fщ": 707,
    "fъ": 708,
    "fы": 709,
    "fь": 710,
    "fэ": 711,
    "fю": 712,
    "fя": 713,
    "fә": 714,
    "fі": 715,
    "fң": 716,
    "fғ": 717,
    "fү": 718,
    "fұ": 719,
    "fқ": 720,
    "fө": 721,
    "fһ": 722,
    "f1": 723,
    "f2": 724,
    "f3": 725,
    "f4": 726,
    "f5": 727,
    "f6": 728,
    "f7": 729,
    "f8": 730,
    "f9": 731,
    "f0": 732,
    "f!": 733,
    "f@": 734,
    "f#": 735,
    "f$": 736,
    "f%": 737,
    "f^": 738,
    "f:": 739,
    "f&": 740,
    "f*": 741,
    "f(": 742,
    "f)": 743,
    "f_": 744,
    "f+": 745,
    "f=": 746,
    "f-": 747,
    "f?": 748,
    "f/": 749,
    "f>": 750,
    "f.": 751,
    "f<": 752,
    "f,": 753,
    "f`": 754,
    "f|": 755,
    "f\\": 756,
    "f'": 757,
    "f\"": 758,
    "f[": 759,
    "f]": 760,
    "f{": 761,
    "f}": 762,
    "f ": 763,
    "ga": 764,
    "gb": 765,
    "gc": 766,
    "gd": 767,
    "ge": 768,
    "gf": 769,
    "gg": 770,
    "gh": 771,
    "gi": 772,
    "gj": 773,
    "gk": 774,
    "gl": 775,
    "gm": 776,
    "gn": 777,
    "go": 778,
    "gp": 779,
    "gq": 780,
    "gr": 781,
    "gs": 782,
    "gt": 783,
    "gu": 784,
    "gv": 785,
    "gw": 786,
    "gx": 787,
    "gy": 788,
    "gz": 789,
    "gа": 790,
    "gб": 791,
    "gв": 792,
    "gг": 793,
    "gд": 794,
    "gе": 795,
    "gё": 796,
    "gж": 797,
    "gз": 798,
    "gи": 799,
    "gй": 800,
    "gк": 801,
    "gл": 802,
    "gм": 803,
    "gн": 804,
    "gо": 805,
    "gп": 806,
    "gр": 807,
    "gс": 808,
    "gт": 809,
    "gу": 810,
    "gф": 811,
    "gх": 812,
    "gц": 813,
    "gч": 814,
    "gш": 815,
    "gщ": 816,
    "gъ": 817,
    "gы": 818,
    "gь": 819,
    "gэ": 820,
    "gю": 821,
    "gя": 822,
    "gә": 823,
    "gі": 824,
    "gң": 825,
    "gғ": 826,
    "gү": 827,
    "gұ": 828,
    "gқ": 829,
    "gө": 830,
    "gһ": 831,
    "g1": 832,
    "g2": 833,
    "g3": 834,
    "g4": 835,
    "g5": 836,
    "g6": 837,
    "g7": 838,
    "g8": 839,
    "g9": 840,
    "g0": 841,
    "g!": 842,
    "g@": 843,
    "g#": 844,
    "g$": 845,
    "g%": 846,
    "g^": 847,
    "g:": 848,
    "g&": 849,
    "g*": 850,
    "g(": 851,
    "g)": 852,
    "g_": 853,
    "g+": 854,
    "g=": 855,
    "g-": 856,
    "g?": 857,
    "g/": 858,
    "g>": 859,
    "g.": 860,
    "g<": 861,
    "g,": 862,
    "g`": 863,
    "g|": 864,
    "g\\": 865,
    "g'": 866,
    "g\"": 867,
    "g[": 868,
    "g]": 869,
    "g{": 870,
    "g}": 871,
    "g ": 872,
    "ha": 873,
    "hb": 874,
    "hc": 875,
    "hd": 876,
    "he": 877,
    "hf": 878,
    "hg": 879,
    "hh": 880,
    "hi": 881,
    "hj": 882,
    "hk": 883,
    "hl": 884,
    "hm": 885,
    "hn": 886,
    "ho": 887,
    "hp": 888,
    "hq": 889,
    "hr": 890,
    "hs": 891,
    "ht": 892,
    "hu": 893,
    "hv": 894,
    "hw": 895,
    "hx": 896,
    "hy": 897,
    "hz": 898,
    "hа": 899,
    "hб": 900,
    "hв": 901,
    "hг": 902,
    "hд": 903,
    "hе": 904,
    "hё": 905,
    "hж": 906,
    "hз": 907,
    "hи": 908,
    "hй": 909,
    "hк": 910,
    "hл": 911,
    "hм": 912,
    "hн": 913,
    "hо": 914,
    "hп": 915,
    "hр": 916,
    "hс": 917,
    "hт": 918,
    "hу": 919,
    "hф": 920,
    "hх": 921,
    "hц": 922,
    "hч": 923,
    "hш": 924,
    "hщ": 925,
    "hъ": 926,
    "hы": 927,
    "hь": 928,
    "hэ": 929,
    "hю": 930,
    "hя": 931,
    "hә": 932,
    "hі": 933,
    "hң": 934,
    "hғ": 935,
    "hү": 936,
    "hұ": 937,
    "hқ": 938,
    "hө": 939,
    "hһ": 940,
    "h1": 941,
    "h2": 942,
    "h3": 943,
    "h4": 944,
    "h5": 945,
    "h6": 946,
    "h7": 947,
    "h8": 948,
    "h9": 949,
    "h0": 950,
    "h!": 951,
    "h@": 952,
    "h#": 953,
    "h$": 954,
    "h%": 955,
    "h^": 956,
    "h:": 957,
    "h&": 958,
    "h*": 959,
    "h(": 960,
    "h)": 961,
    "h_": 962,
    "h+": 963,
    "h=": 964,
    "h-": 965,
    "h?": 966,
    "h/": 967,
    "h>": 968,
    "h.": 969,
    "h<": 970,
    "h,": 971,
    "h`": 972,
    "h|": 973,
    "h\\": 974,
    "h'": 975,
    "h\"": 976,
    "h[": 977,
    "h]": 978,
    "h{": 979,
    "h}": 980,
    "h ": 981,
    "ia": 982,
    "ib": 983,
    "ic": 984,
    "id": 985,
    "ie": 986,
    "if": 987,
    "ig": 988,
    "ih": 989,
    "ii": 990,
    "ij": 991,
    "ik": 992,
    "il": 993,
    "im": 994,
    "in": 995,
    "io": 996,
    "ip": 997,
    "iq": 998,
    "ir": 999,
    "is": 1000,
    "it": 1001,
    "iu": 1002,
    "iv": 1003,
    "iw": 1004,
    "ix": 1005,
    "iy": 1006,
    "iz": 1007,
    "iа": 1008,
    "iб": 1009,
    "iв": 1010,
    "iг": 1011,
    "iд": 1012,
    "iе": 1013,
    "iё": 1014,
    "iж": 1015,
    "iз": 1016,
    "iи": 1017,
    "iй": 1018,
    "iк": 1019,
    "iл": 1020,
    "iм": 1021,
    "iн": 1022,
    "iо": 1023,
    "iп": 1024,
    "iр": 1025,
    "iс": 1026,
    "iт": 1027,
    "iу": 1028,
    "iф": 1029,
    "iх": 1030,
    "iц": 1031,
    "iч": 1032,
    "iш": 1033,
    "iщ": 1034,
    "iъ": 1035,
    "iы": 1036,
    "iь": 1037,
    "iэ": 1038,
    "iю": 1039,
    "iя": 1040,
    "iә": 1041,
    "iі": 1042,
    "iң": 1043,
    "iғ": 1044,
    "iү": 1045,
    "iұ": 1046,
    "iқ": 1047,
    "iө": 1048,
    "iһ": 1049,
    "i1": 1050,
    "i2": 1051,
    "i3": 1052,
    "i4": 1053,
    "i5": 1054,
    "i6": 1055,
    "i7": 1056,
    "i8": 1057,
    "i9": 1058,
    "i0": 1059,
    "i!": 1060,
    "i@": 1061,
    "i#": 1062,
    "i$": 1063,
    "i%": 1064,
    "i^": 1065,
    "i:": 1066,
    "i&": 1067,
    "i*": 1068,
    "i(": 1069,
    "i)": 1070,
    "i_": 1071,
    "i+": 1072,
    "i=": 1073,
    "i-": 1074,
    "i?": 1075,
    "i/": 1076,
    "i>": 1077,
    "i.": 1078,
    "i<": 1079,
    "i,": 1080,
    "i`": 1081,
    "i|": 1082,
    "i\\": 1083,
    "i'": 1084,
    "i\"": 1085,
    "i[": 1086,
    "i]": 1087,
    "i{": 1088,
    "i}": 1089,
    "i ": 1090,
    "ja": 1091,
    "jb": 1092,
    "jc": 1093,
    "jd": 1094,
    "je": 1095,
    "jf": 1096,
    "jg": 1097,
    "jh": 1098,
    "ji": 1099,
    "jj": 1100,
    "jk": 1101,
    "jl": 1102,
    "jm": 1103,
    "jn": 1104,
    "jo": 1105,
    "jp": 1106,
    "jq": 1107,
    "jr": 1108,
    "js": 1109,
    "jt": 1110,
    "ju": 1111,
    "jv": 1112,
    "jw": 1113,
    "jx": 1114,
    "jy": 1115,
    "jz": 1116,
    "jа": 1117,
    "jб": 1118,
    "jв": 1119,
    "jг": 1120,
    "jд": 1121,
    "jе": 1122,
    "jё": 1123,
    "jж": 1124,
    "jз": 1125,
    "jи": 1126,
    "jй": 1127,
    "jк": 1128,
    "jл": 1129,
    "jм": 1130,
    "jн": 1131,
    "jо": 1132,
    "jп": 1133,
    "jр": 1134,
    "jс": 1135,
    "jт": 1136,
    "jу": 1137,
    "jф": 1138,
    "jх": 1139,
    "jц": 1140,
    "jч": 1141,
    "jш": 1142,
    "jщ": 1143,
    "jъ": 1144,
    "jы": 1145,
    "jь": 1146,
    "jэ": 1147,
    "jю": 1148,
    "jя": 1149,
    "jә": 1150,
    "jі": 1151,
    "jң": 1152,
    "jғ": 1153,
    "jү": 1154,
    "jұ": 1155,
    "jқ": 1156,
    "jө": 1157,
    "jһ": 1158,
    "j1": 1159,
    "j2": 1160,
    "j3": 1161,
    "j4": 1162,
    "j5": 1163,
    "j6": 1164,
    "j7": 1165,
    "j8": 1166,
    "j9": 1167,
    "j0": 1168,
    "j!": 1169,
    "j@": 1170,
    "j#": 1171,
    "j$": 1172,
    "j%": 1173,
    "j^": 1174,
    "j:": 1175,
    "j&": 1176,
    "j*": 1177,
    "j(": 1178,
    "j)": 1179,
    "j_": 1180,
    "j+": 1181,
    "j=": 1182,
    "j-": 1183,
    "j?": 1184,
    "j/": 1185,
    "j>": 1186,
    "j.": 1187,
    "j<": 1188,
    "j,": 1189,
    "j`": 1190,
    "j|": 1191,
    "j\\": 1192,
    "j'": 1193,
    "j\"": 1194,
    "j[": 1195,
    "j]": 1196,
    "j{": 1197,
    "j}": 1198,
    "j ": 1199,
    "ka": 1200,
    "kb": 1201,
    "kc": 1202,
    "kd": 1203,
    "ke": 1204,
    "kf": 1205,
    "kg": 1206,
    "kh": 1207,
    "ki": 1208,
    "kj": 1209,
    "kk": 1210,
    "kl": 1211,
    "km": 1212,
    "kn": 1213,
    "ko": 1214,
    "kp": 1215,
    "kq": 1216,
    "kr": 1217,
    "ks": 1218,
    "kt": 1219,
    "ku": 1220,
    "kv": 1221,
    "kw": 1222,
    "kx": 1223,
    "ky": 1224,
    "kz": 1225,
    "kа": 1226,
    "kб": 1227,
    "kв": 1228,
    "kг": 1229,
    "kд": 1230,
    "kе": 1231,
    "kё": 1232,
    "kж": 1233,
    "kз": 1234,
    "kи": 1235,
    "kй": 1236,
    "kк": 1237,
    "kл": 1238,
    "kм": 1239,
    "kн": 1240,
    "kо": 1241,
    "kп": 1242,
    "kр": 1243,
    "kс": 1244,
    "kт": 1245,
    "kу": 1246,
    "kф": 1247,
    "kх": 1248,
    "kц": 1249,
    "kч": 1250,
    "kш": 1251,
    "kщ": 1252,
    "kъ": 1253,
    "kы": 1254,
    "kь": 1255,
    "kэ": 1256,
    "kю": 1257,
    "kя": 1258,
    "kә": 1259,
    "kі": 1260,
    "kң": 1261,
    "kғ": 1262,
    "kү": 1263,
    "kұ": 1264,
    "kқ": 1265,
    "kө": 1266,
    "kһ": 1267,
    "k1": 1268,
    "k2": 1269,
    "k3": 1270,
    "k4": 1271,
    "k5": 1272,
    "k6": 1273,
    "k7": 1274,
    "k8": 1275,
    "k9": 1276,
    "k0": 1277,
    "k!": 1278,
    "k@": 1279,
    "k#": 1280,
    "k$": 1281,
    "k%": 1282,
    "k^": 1283,
    "k:": 1284,
    "k&": 1285,
    "k*": 1286,
    "k(": 1287,
    "k)": 1288,
    "k_": 1289,
    "k+": 1290,
    "k=": 1291,
    "k-": 1292,
    "k?": 1293,
    "k/": 1294,
    "k>": 1295,
    "k.": 1296,
    "k<": 1297,
    "k,": 1298,
    "k`": 1299,
    "k|": 1300,
    "k\\": 1301,
    "k'": 1302,
    "k\"": 1303,
    "k[": 1304,
    "k]": 1305,
    "k{": 1306,
    "k}": 1307,
    "k ": 1308,
    "la": 1309,
    "lb": 1310,
    "lc": 1311,
    "ld": 1312,
    "le": 1313,
    "lf": 1314,
    "lg": 1315,
    "lh": 1316,
    "li": 1317,
    "lj": 1318,
    "lk": 1319,
    "ll": 1320,
    "lm": 1321,
    "ln": 1322,
    "lo": 1323,
    "lp": 1324,
    "lq": 1325,
    "lr": 1326,
    "ls": 1327,
    "lt": 1328,
    "lu": 1329,
    "lv": 1330,
    "lw": 1331,
    "lx": 1332,
    "ly": 1333,
    "lz": 1334,
    "lа": 1335,
    "lб": 1336,
    "lв": 1337,
    "lг": 1338,
    "lд": 1339,
    "lе": 1340,
    "lё": 1341,
    "lж": 1342,
    "lз": 1343,
    "lи": 1344,
    "lй": 1345,
    "lк": 1346,
    "lл": 1347,
    "lм": 1348,
    "lн": 1349,
    "lо": 1350,
    "lп": 1351,
    "lр": 1352,
    "lс": 1353,
    "lт": 1354,
    "lу": 1355,
    "lф": 1356,
    "lх": 1357,
    "lц": 1358,
    "lч": 1359,
    "lш": 1360,
    "lщ": 1361,
    "lъ": 1362,
    "lы": 1363,
    "lь": 1364,
    "lэ": 1365,
    "lю": 1366,
    "lя": 1367,
    "lә": 1368,
    "lі": 1369,
    "lң": 1370,
    "lғ": 1371,
    "lү": 1372,
    "lұ": 1373,
    "lқ": 1374,
    "lө": 1375,
    "lһ": 1376,
    "l1": 1377,
    "l2": 1378,
    "l3": 1379,
    "l4": 1380,
    "l5": 1381,
    "l6": 1382,
    "l7": 1383,
    "l8": 1384,
    "l9": 1385,
    "l0": 1386,
    "l!": 1387,
    "l@": 1388,
    "l#": 1389,
    "l$": 1390,
    "l%": 1391,
    "l^": 1392,
    "l:": 1393,
    "l&": 1394,
    "l*": 1395,
    "l(": 1396,
    "l)": 1397,
    "l_": 1398,
    "l+": 1399,
    "l=": 1400,
    "l-": 1401,
    "l?": 1402,
    "l/": 1403,
    "l>": 1404,
    "l.": 1405,
    "l<": 1406,
    "l,": 1407,
    "l`": 1408,
    "l|": 1409,
    "l\\": 1410,
    "l'": 1411,
    "l\"": 1412,
    "l[": 1413,
    "l]": 1414,
    "l{": 1415,
    "l}": 1416,
    "l ": 1417,
    "ma": 1418,
    "mb": 1419,
    "mc": 1420,
    "md": 1421,
    "me": 1422,
    "mf": 1423,
    "mg": 1424,
    "mh": 1425,
    "mi": 1426,
    "mj": 1427,
    "mk": 1428,
    "ml": 1429,
    "mm": 1430,
    "mn": 1431,
    "mo": 1432,
    "mp": 1433,
    "mq": 1434,
    "mr": 1435,
    "ms": 1436,
    "mt": 1437,
    "mu": 1438,
    "mv": 1439,
    "mw": 1440,
    "mx": 1441,
    "my": 1442,
    "mz": 1443,
    "mа": 1444,
    "mб": 1445,
    "mв": 1446,
    "mг": 1447,
    "mд": 1448,
    "mе": 1449,
    "mё": 1450,
    "mж": 1451,
    "mз": 1452,
    "mи": 1453,
    "mй": 1454,
    "mк": 1455,
    "mл": 1456,
    "mм": 1457,
    "mн": 1458,
    "mо": 1459,
    "mп": 1460,
    "mр": 1461,
    "mс": 1462,
    "mт": 1463,
    "mу": 1464,
    "mф": 1465,
    "mх": 1466,
    "mц": 1467,
    "mч": 1468,
    "mш": 1469,
    "mщ": 1470,
    "mъ": 1471,
    "mы": 1472,
    "mь": 1473,
    "mэ": 1474,
    "mю": 1475,
    "mя": 1476,
    "mә": 1477,
    "mі": 1478,
    "mң": 1479,
    "mғ": 1480,
    "mү": 1481,
    "mұ": 1482,
    "mқ": 1483,
    "mө": 1484,
    "mһ": 1485,
    "m1": 1486,
    "m2": 1487,
    "m3": 1488,
    "m4": 1489,
    "m5": 1490,
    "m6": 1491,
    "m7": 1492,
    "m8": 1493,
    "m9": 1494,
    "m0": 1495,
    "m!": 1496,
    "m@": 1497,
    "m#": 1498,
    "m$": 1499,
    "m%": 1500,
    "m^": 1501,
    "m:": 1502,
    "m&": 1503,
    "m*": 1504,
    "m(": 1505,
    "m)": 1506,
    "m_": 1507,
    "m+": 1508,
    "m=": 1509,
    "m-": 1510,
    "m?": 1511,
    "m/": 1512,
    "m>": 1513,
    "m.": 1514,
    "m<": 1515,
    "m,": 1516,
    "m`": 1517,
    "m|": 1518,
    "m\\": 1519,
    "m'": 1520,
    "m\"": 1521,
    "m[": 1522,
    "m]": 1523,
    "m{": 1524,
    "m}": 1525,
    "m ": 1526,
    "na": 1527,
    "nb": 1528,
    "nc": 1529,
    "nd": 1530,
    "ne": 1531,
    "nf": 1532,
    "ng": 1533,
    "nh": 1534,
    "ni": 1535,
    "nj": 1536,
    "nk": 1537,
    "nl": 1538,
    "nm": 1539,
    "nn": 1540,
    "no": 1541,
    "np": 1542,
    "nq": 1543,
    "nr": 1544,
    "ns": 1545,
    "nt": 1546,
    "nu": 1547,
    "nv": 1548,
    "nw": 1549,
    "nx": 1550,
    "ny": 1551,
    "nz": 1552,
    "nа": 1553,
    "nб": 1554,
    "nв": 1555,
    "nг": 1556,
    "nд": 1557,
    "nе": 1558,
    "nё": 1559,
    "nж": 1560,
    "nз": 1561,
    "nи": 1562,
    "nй": 1563,
    "nк": 1564,
    "nл": 1565,
    "nм": 1566,
    "nн": 1567,
    "nо": 1568,
    "nп": 1569,
    "nр": 1570,
    "nс": 1571,
    "nт": 1572,
    "nу": 1573,
    "nф": 1574,
    "nх": 1575,
    "nц": 1576,
    "nч": 1577,
    "nш": 1578,
    "nщ": 1579,
    "nъ": 1580,
    "nы": 1581,
    "nь": 1582,
    "nэ": 1583,
    "nю": 1584,
    "nя": 1585,
    "nә": 1586,
    "nі": 1587,
    "nң": 1588,
    "nғ": 1589,
    "nү": 1590,
    "nұ": 1591,
    "nқ": 1592,
    "nө": 1593,
    "nһ": 1594,
    "n1": 1595,
    "n2": 1596,
    "n3": 1597,
    "n4": 1598,
    "n5": 1599,
    "n6": 1600,
    "n7": 1601,
    "n8": 1602,
    "n9": 1603,
    "n0": 1604,
    "n!": 1605,
    "n@": 1606,
    "n#": 1607,
    "n$": 1608,
    "n%": 1609,
    "n^": 1610,
    "n:": 1611,
    "n&": 1612,
    "n*": 1613,
    "n(": 1614,
    "n)": 1615,
    "n_": 1616,
    "n+": 1617,
    "n=": 1618,
    "n-": 1619,
    "n?": 1620,
    "n/": 1621,
    "n>": 1622,
    "n.": 1623,
    "n<": 1624,
    "n,": 1625,
    "n`": 1626,
    "n|": 1627,
    "n\\": 1628,
    "n'": 1629,
    "n\"": 1630,
    "n[": 1631,
    "n]": 1632,
    "n{": 1633,
    "n}": 1634,
    "n ": 1635,
    "oa": 1636,
    "ob": 1637,
    "oc": 1638,
    "od": 1639,
    "oe": 1640,
    "of": 1641,
    "og": 1642,
    "oh": 1643,
    "oi": 1644,
    "oj": 1645,
    "ok": 1646,
    "ol": 1647,
    "om": 1648,
    "on": 1649,
    "oo": 1650,
    "op": 1651,
    "oq": 1652,
    "or": 1653,
    "os": 1654,
    "ot": 1655,
    "ou": 1656,
    "ov": 1657,
    "ow": 1658,
    "ox": 1659,
    "oy": 1660,
    "oz": 1661,
    "oа": 1662,
    "oб": 1663,
    "oв": 1664,
    "oг": 1665,
    "oд": 1666,
    "oе": 1667,
    "oё": 1668,
    "oж": 1669,
    "oз": 1670,
    "oи": 1671,
    "oй": 1672,
    "oк": 1673,
    "oл": 1674,
    "oм": 1675,
    "oн": 1676,
    "oо": 1677,
    "oп": 1678,
    "oр": 1679,
    "oс": 1680,
    "oт": 1681,
    "oу": 1682,
    "oф": 1683,
    "oх": 1684,
    "oц": 1685,
    "oч": 1686,
    "oш": 1687,
    "oщ": 1688,
    "oъ": 1689,
    "oы": 1690,
    "oь": 1691,
    "oэ": 1692,
    "oю": 1693,
    "oя": 1694,
    "oә": 1695,
    "oі": 1696,
    "oң": 1697,
    "oғ": 1698,
    "oү": 1699,
    "oұ": 1700,
    "oқ": 1701,
    "oө": 1702,
    "oһ": 1703,
    "o1": 1704,
    "o2": 1705,
    "o3": 1706,
    "o4": 1707,
    "o5": 1708,
    "o6": 1709,
    "o7": 1710,
    "o8": 1711,
    "o9": 1712,
    "o0": 1713,
    "o!": 1714,
    "o@": 1715,
    "o#": 1716,
    "o$": 1717,
    "o%": 1718,
    "o^": 1719,
    "o:": 1720,
    "o&": 1721,
    "o*": 1722,
    "o(": 1723,
    "o)": 1724,
    "o_": 1725,
    "o+": 1726,
    "o=": 1727,
    "o-": 1728,
    "o?": 1729,
    "o/": 1730,
    "o>": 1731,
    "o.": 1732,
    "o<": 1733,
    "o,": 1734,
    "o`": 1735,
    "o|": 1736,
    "o\\": 1737,
    "o'": 1738,
    "o\"": 1739,
    "o[": 1740,
    "o]": 1741,
    "o{": 1742,
    "o}": 1743,
    "o ": 1744,
    "pa": 1745,
    "pb": 1746,
    "pc": 1747,
    "pd": 1748,
    "pe": 1749,
    "pf": 1750,
    "pg": 1751,
    "ph": 1752,
    "pi": 1753,
    "pj": 1754,
    "pk": 1755,
    "pl": 1756,
    "pm": 1757,
    "pn": 1758,
    "po": 1759,
    "pp": 1760,
    "pq": 1761,
    "pr": 1762,
    "ps": 1763,
    "pt": 1764,
    "pu": 1765,
    "pv": 1766,
    "pw": 1767,
    "px": 1768,
    "py": 1769,
    "pz": 1770,
    "pа": 1771,
    "pб": 1772,
    "pв": 1773,
    "pг": 1774,
    "pд": 1775,
    "pе": 1776,
    "pё": 1777,
    "pж": 1778,
    "pз": 1779,
    "pи": 1780,
    "pй": 1781,
    "pк": 1782,
    "pл": 1783,
    "pм": 1784,
    "pн": 1785,
    "pо": 1786,
    "pп": 1787,
    "pр": 1788,
    "pс": 1789,
    "pт": 1790,
    "pу": 1791,
    "pф": 1792,
    "pх": 1793,
    "pц": 1794,
    "pч": 1795,
    "pш": 1796,
    "pщ": 1797,
    "pъ": 1798,
    "pы": 1799,
    "pь": 1800,
    "pэ": 1801,
    "pю": 1802,
    "pя": 1803,
    "pә": 1804,
    "pі": 1805,
    "pң": 1806,
    "pғ": 1807,
    "pү": 1808,
    "pұ": 1809,
    "pқ": 1810,
    "pө": 1811,
    "pһ": 1812,
    "p1": 1813,
    "p2": 1814,
    "p3": 1815,
    "p4": 1816,
    "p5": 1817,
    "p6": 1818,
    "p7": 1819,
    "p8": 1820,
    "p9": 1821,
    "p0": 1822,
    "p!": 1823,
    "p@": 1824,
    "p#": 1825,
    "p$": 1826,
    "p%": 1827,
    "p^": 1828,
    "p:": 1829,
    "p&": 1830,
    "p*": 1831,
    "p(": 1832,
    "p)": 1833,
    "p_": 1834,
    "p+": 1835,
    "p=": 1836,
    "p-": 1837,
    "p?": 1838,
    "p/": 1839,
    "p>": 1840,
    "p.": 1841,
    "p<": 1842,
    "p,": 1843,
    "p`": 1844,
    "p|": 1845,
    "p\\": 1846,
    "p'": 1847,
    "p\"": 1848,
    "p[": 1849,
    "p]": 1850,
    "p{": 1851,
    "p}": 1852,
    "p ": 1853,
    "qa": 1854,
    "qb": 1855,
    "qc": 1856,
    "qd": 1857,
    "qe": 1858,
    "qf": 1859,
    "qg": 1860,
    "qh": 1861,
    "qi": 1862,
    "qj": 1863,
    "qk": 1864,
    "ql": 1865,
    "qm": 1866,
    "qn": 1867,
    "qo": 1868,
    "qp": 1869,
    "qq": 1870,
    "qr": 1871,
    "qs": 1872,
    "qt": 1873,
    "qu": 1874,
    "qv": 1875,
    "qw": 1876,
    "qx": 1877,
    "qy": 1878,
    "qz": 1879,
    "qа": 1880,
    "qб": 1881,
    "qв": 1882,
    "qг": 1883,
    "qд": 1884,
    "qе": 1885,
    "qё": 1886,
    "qж": 1887,
    "qз": 1888,
    "qи": 1889,
    "qй": 1890,
    "qк": 1891,
    "qл": 1892,
    "qм": 1893,
    "qн": 1894,
    "qо": 1895,
    "qп": 1896,
    "qр": 1897,
    "qс": 1898,
    "qт": 1899,
    "qу": 1900,
    "qф": 1901,
    "qх": 1902,
    "qц": 1903,
    "qч": 1904,
    "qш": 1905,
    "qщ": 1906,
    "qъ": 1907,
    "qы": 1908,
    "qь": 1909,
    "qэ": 1910,
    "qю": 1911,
    "qя": 1912,
    "qә": 1913,
    "qі": 1914,
    "qң": 1915,
    "qғ": 1916,
    "qү": 1917,
    "qұ": 1918,
    "qқ": 1919,
    "qө": 1920,
    "qһ": 1921,
    "q1": 1922,
    "q2": 1923,
    "q3": 1924,
    "q4": 1925,
    "q5": 1926,
    "q6": 1927,
    "q7": 1928,
    "q8": 1929,
    "q9": 1930,
    "q0": 1931,
    "q!": 1932,
    "q@": 1933,
    "q#": 1934,
    "q$": 1935,
    "q%": 1936,
    "q^": 1937,
    "q:": 1938,
    "q&": 1939,
    "q*": 1940,
    "q(": 1941,
    "q)": 1942,
    "q_": 1943,
    "q+": 1944,
    "q=": 1945,
    "q-": 1946,
    "q?": 1947,
    "q/": 1948,
    "q>": 1949,
    "q.": 1950,
    "q<": 1951,
    "q,": 1952,
    "q`": 1953,
    "q|": 1954,
    "q\\": 1955,
    "q'": 1956,
    "q\"": 1957,
    "q[": 1958,
    "q]": 1959,
    "q{": 1960,
    "q}": 1961,
    "q ": 1962,
    "ra": 1963,
    "rb": 1964,
    "rc": 1965,
    "rd": 1966,
    "re": 1967,
    "rf": 1968,
    "rg": 1969,
    "rh": 1970,
    "ri": 1971,
    "rj": 1972,
    "rk": 1973,
    "rl": 1974,
    "rm": 1975,
    "rn": 1976,
    "ro": 1977,
    "rp": 1978,
    "rq": 1979,
    "rr": 1980,
    "rs": 1981,
    "rt": 1982,
    "ru": 1983,
    "rv": 1984,
    "rw": 1985,
    "rx": 1986,
    "ry": 1987,
    "rz": 1988,
    "rа": 1989,
    "rб": 1990,
    "rв": 1991,
    "rг": 1992,
    "rд": 1993,
    "rе": 1994,
    "rё": 1995,
    "rж": 1996,
    "rз": 1997,
    "rи": 1998,
    "rй": 1999,
    "rк": 2000,
    "rл": 2001,
    "rм": 2002,
    "rн": 2003,
    "rо": 2004,
    "rп": 2005,
    "rр": 2006,
    "rс": 2007,
    "rт": 2008,
    "rу": 2009,
    "rф": 2010,
    "rх": 2011,
    "rц": 2012,
    "rч": 2013,
    "rш": 2014,
    "rщ": 2015,
    "rъ": 2016,
    "rы": 2017,
    "rь": 2018,
    "rэ": 2019,
    "rю": 2020,
    "rя": 2021,
    "rә": 2022,
    "rі": 2023,
    "rң": 2024,
    "rғ": 2025,
    "rү": 2026,
    "rұ": 2027,
    "rқ": 2028,
    "rө": 2029,
    "rһ": 2030,
    "r1": 2031,
    "r2": 2032,
    "r3": 2033,
    "r4": 2034,
    "r5": 2035,
    "r6": 2036,
    "r7": 2037,
    "r8": 2038,
    "r9": 2039,
    "r0": 2040,
    "r!": 2041,
    "r@": 2042,
    "r#": 2043,
    "r$": 2044,
    "r%": 2045,
    "r^": 2046,
    "r:": 2047,
    "r&": 2048,
    "r*": 2049,
    "r(": 2050,
    "r)": 2051,
    "r_": 2052,
    "r+": 2053,
    "r=": 2054,
    "r-": 2055,
    "r?": 2056,
    "r/": 2057,
    "r>": 2058,
    "r.": 2059,
    "r<": 2060,
    "r,": 2061,
    "r`": 2062,
    "r|": 2063,
    "r\\": 2064,
    "r'": 2065,
    "r\"": 2066,
    "r[": 2067,
    "r]": 2068,
    "r{": 2069,
    "r}": 2070,
    "r ": 2071,
    "sa": 2072,
    "sb": 2073,
    "sc": 2074,
    "sd": 2075,
    "se": 2076,
    "sf": 2077,
    "sg": 2078,
    "sh": 2079,
    "si": 2080,
    "sj": 2081,
    "sk": 2082,
    "sl": 2083,
    "sm": 2084,
    "sn": 2085,
    "so": 2086,
    "sp": 2087,
    "sq": 2088,
    "sr": 2089,
    "ss": 2090,
    "st": 2091,
    "su": 2092,
    "sv": 2093,
    "sw": 2094,
    "sx": 2095,
    "sy": 2096,
    "sz": 2097,
    "sа": 2098,
    "sб": 2099,
    "sв": 2100,
    "sг": 2101,
    "sд": 2102,
    "sе": 2103,
    "sё": 2104,
    "sж": 2105,
    "sз": 2106,
    "sи": 2107,
    "sй": 2108,
    "sк": 2109,
    "sл": 2110,
    "sм": 2111,
    "sн": 2112,
    "sо": 2113,
    "sп": 2114,
    "sр": 2115,
    "sс": 2116,
    "sт": 2117,
    "sу": 2118,
    "sф": 2119,
    "sх": 2120,
    "sц": 2121,
    "sч": 2122,
    "sш": 2123,
    "sщ": 2124,
    "sъ": 2125,
    "sы": 2126,
    "sь": 2127,
    "sэ": 2128,
    "sю": 2129,
    "sя": 2130,
    "sә": 2131,
    "sі": 2132,
    "sң": 2133,
    "sғ": 2134,
    "sү": 2135,
    "sұ": 2136,
    "sқ": 2137,
    "sө": 2138,
    "sһ": 2139,
    "s1": 2140,
    "s2": 2141,
    "s3": 2142,
    "s4": 2143,
    "s5": 2144,
    "s6": 2145,
    "s7": 2146,
    "s8": 2147,
    "s9": 2148,
    "s0": 2149,
    "s!": 2150,
    "s@": 2151,
    "s#": 2152,
    "s$": 2153,
    "s%": 2154,
    "s^": 2155,
    "s:": 2156,
    "s&": 2157,
    "s*": 2158,
    "s(": 2159,
    "s)": 2160,
    "s_": 2161,
    "s+": 2162,
    "s=": 2163,
    "s-": 2164,
    "s?": 2165,
    "s/": 2166,
    "s>": 2167,
    "s.": 2168,
    "s<": 2169,
    "s,": 2170,
    "s`": 2171,
    "s|": 2172,
    "s\\": 2173,
    "s'": 2174,
    "s\"": 2175,
    "s[": 2176,
    "s]": 2177,
    "s{": 2178,
    "s}": 2179,
    "s ": 2180,
    "ta": 2181,
    "tb": 2182,
    "tc": 2183,
    "td": 2184,
    "te": 2185,
    "tf": 2186,
    "tg": 2187,
    "th": 2188,
    "ti": 2189,
    "tj": 2190,
    "tk": 2191,
    "tl": 2192,
    "tm": 2193,
    "tn": 2194,
    "to": 2195,
    "tp": 2196,
    "tq": 2197,
    "tr": 2198,
    "ts": 2199,
    "tt": 2200,
    "tu": 2201,
    "tv": 2202,
    "tw": 2203,
    "tx": 2204,
    "ty": 2205,
    "tz": 2206,
    "tа": 2207,
    "tб": 2208,
    "tв": 2209,
    "tг": 2210,
    "tд": 2211,
    "tе": 2212,
    "tё": 2213,
    "tж": 2214,
    "tз": 2215,
    "tи": 2216,
    "tй": 2217,
    "tк": 2218,
    "tл": 2219,
    "tм": 2220,
    "tн": 2221,
    "tо": 2222,
    "tп": 2223,
    "tр": 2224,
    "tс": 2225,
    "tт": 2226,
    "tу": 2227,
    "tф": 2228,
    "tх": 2229,
    "tц": 2230,
    "tч": 2231,
    "tш": 2232,
    "tщ": 2233,
    "tъ": 2234,
    "tы": 2235,
    "tь": 2236,
    "tэ": 2237,
    "tю": 2238,
    "tя": 2239,
    "tә": 2240,
    "tі": 2241,
    "tң": 2242,
    "tғ": 2243,
    "tү": 2244,
    "tұ": 2245,
    "tқ": 2246,
    "tө": 2247,
    "tһ": 2248,
    "t1": 2249,
    "t2": 2250,
    "t3": 2251,
    "t4": 2252,
    "t5": 2253,
    "t6": 2254,
    "t7": 2255,
    "t8": 2256,
    "t9": 2257,
    "t0": 2258,
    "t!": 2259,
    "t@": 2260,
    "t#": 2261,
    "t$": 2262,
    "t%": 2263,
    "t^": 2264,
    "t:": 2265,
    "t&": 2266,
    "t*": 2267,
    "t(": 2268,
    "t)": 2269,
    "t_": 2270,
    "t+": 2271,
    "t=": 2272,
    "t-": 2273,
    "t?": 2274,
    "t/": 2275,
    "t>": 2276,
    "t.": 2277,
    "t<": 2278,
    "t,": 2279,
    "t`": 2280,
    "t|": 2281,
    "t\\": 2282,
    "t'": 2283,
    "t\"": 2284,
    "t[": 2285,
    "t]": 2286,
    "t{": 2287,
    "t}": 2288,
    "t ": 2289,
    "ua": 2290,
    "ub": 2291,
    "uc": 2292,
    "ud": 2293,
    "ue": 2294,
    "uf": 2295,
    "ug": 2296,
    "uh": 2297,
    "ui": 2298,
    "uj": 2299,
    "uk": 2300,
    "ul": 2301,
    "um": 2302,
    "un": 2303,
    "uo": 2304,
    "up": 2305,
    "uq": 2306,
    "ur": 2307,
    "us": 2308,
    "ut": 2309,
    "uu": 2310,
    "uv": 2311,
    "uw": 2312,
    "ux": 2313,
    "uy": 2314,
    "uz": 2315,
    "uа": 2316,
    "uб": 2317,
    "uв": 2318,
    "uг": 2319,
    "uд": 2320,
    "uе": 2321,
    "uё": 2322,
    "uж": 2323,
    "uз": 2324,
    "uи": 2325,
    "uй": 2326,
    "uк": 2327,
    "uл": 2328,
    "uм": 2329,
    "uн": 2330,
    "uо": 2331,
    "uп": 2332,
    "uр": 2333,
    "uс": 2334,
    "uт": 2335,
    "uу": 2336,
    "uф": 2337,
    "uх": 2338,
    "uц": 2339,
    "uч": 2340,
    "uш": 2341,
    "uщ": 2342,
    "uъ": 2343,
    "uы": 2344,
    "uь": 2345,
    "uэ": 2346,
    "uю": 2347,
    "uя": 2348,
    "uә": 2349,
    "uі": 2350,
    "uң": 2351,
    "uғ": 2352,
    "uү": 2353,
    "uұ": 2354,
    "uқ": 2355,
    "uө": 2356,
    "uһ": 2357,
    "u1": 2358,
    "u2": 2359,
    "u3": 2360,
    "u4": 2361,
    "u5": 2362,
    "u6": 2363,
    "u7": 2364,
    "u8": 2365,
    "u9": 2366,
    "u0": 2367,
    "u!": 2368,
    "u@": 2369,
    "u#": 2370,
    "u$": 2371,
    "u%": 2372,
    "u^": 2373,
    "u:": 2374,
    "u&": 2375,
    "u*": 2376,
    "u(": 2377,
    "u)": 2378,
    "u_": 2379,
    "u+": 2380,
    "u=": 2381,
    "u-": 2382,
    "u?": 2383,
    "u/": 2384,
    "u>": 2385,
    "u.": 2386,
    "u<": 2387,
    "u,": 2388,
    "u`": 2389,
    "u|": 2390,
    "u\\": 2391,
    "u'": 2392,
    "u\"": 2393,
    "u[": 2394,
    "u]": 2395,
    "u{": 2396,
    "u}": 2397,
    "u ": 2398,
    "va": 2399,
    "vb": 2400,
    "vc": 2401,
    "vd": 2402,
    "ve": 2403,
    "vf": 2404,
    "vg": 2405,
    "vh": 2406,
    "vi": 2407,
    "vj": 2408,
    "vk": 2409,
    "vl": 2410,
    "vm": 2411,
    "vn": 2412,
    "vo": 2413,
    "vp": 2414,
    "vq": 2415,
    "vr": 2416,
    "vs": 2417,
    "vt": 2418,
    "vu": 2419,
    "vv": 2420,
    "vw": 2421,
    "vx": 2422,
    "vy": 2423,
    "vz": 2424,
    "vа": 2425,
    "vб": 2426,
    "vв": 2427,
    "vг": 2428,
    "vд": 2429,
    "vе": 2430,
    "vё": 2431,
    "vж": 2432,
    "vз": 2433,
    "vи": 2434,
    "vй": 2435,
    "vк": 2436,
    "vл": 2437,
    "vм": 2438,
    "vн": 2439,
    "vо": 2440,
    "vп": 2441,
    "vр": 2442,
    "vс": 2443,
    "vт": 2444,
    "vу": 2445,
    "vф": 2446,
    "vх": 2447,
    "vц": 2448,
    "vч": 2449,
    "vш": 2450,
    "vщ": 2451,
    "vъ": 2452,
    "vы": 2453,
    "vь": 2454,
    "vэ": 2455,
    "vю": 2456,
    "vя": 2457,
    "vә": 2458,
    "vі": 2459,
    "vң": 2460,
    "vғ": 2461,
    "vү": 2462,
    "vұ": 2463,
    "vқ": 2464,
    "vө": 2465,
    "vһ": 2466,
    "v1": 2467,
    "v2": 2468,
    "v3": 2469,
    "v4": 2470,
    "v5": 2471,
    "v6": 2472,
    "v7": 2473,
    "v8": 2474,
    "v9": 2475,
    "v0": 2476,
    "v!": 2477,
    "v@": 2478,
    "v#": 2479,
    "v$": 2480,
    "v%": 2481,
    "v^": 2482,
    "v:": 2483,
    "v&": 2484,
    "v*": 2485,
    "v(": 2486,
    "v)": 2487,
    "v_": 2488,
    "v+": 2489,
    "v=": 2490,
    "v-": 2491,
    "v?": 2492,
    "v/": 2493,
    "v>": 2494,
    "v.": 2495,
    "v<": 2496,
    "v,": 2497,
    "v`": 2498,
    "v|": 2499,
    "v\\": 2500,
    "v'": 2501,
    "v\"": 2502,
    "v[": 2503,
    "v]": 2504,
    "v{": 2505,
    "v}": 2506,
    "v ": 2507,
    "wa": 2508,
    "wb": 2509,
    "wc": 2510,
    "wd": 2511,
    "we": 2512,
    "wf": 2513,
    "wg": 2514,
    "wh": 2515,
    "wi": 2516,
    "wj": 2517,
    "wk": 2518,
    "wl": 2519,
    "wm": 2520,
    "wn": 2521,
    "wo": 2522,
    "wp": 2523,
    "wq": 2524,
    "wr": 2525,
    "ws": 2526,
    "wt": 2527,
    "wu": 2528,
    "wv": 2529,
    "ww": 2530,
    "wx": 2531,
    "wy": 2532,
    "wz": 2533,
    "wа": 2534,
    "wб": 2535,
    "wв": 2536,
    "wг": 2537,
    "wд": 2538,
    "wе": 2539,
    "wё": 2540,
    "wж": 2541,
    "wз": 2542,
    "wи": 2543,
    "wй": 2544,
    "wк": 2545,
    "wл": 2546,
    "wм": 2547,
    "wн": 2548,
    "wо": 2549,
    "wп": 2550,
    "wр": 2551,
    "wс": 2552,
    "wт": 2553,
    "wу": 2554,
    "wф": 2555,
    "wх": 2556,
    "wц": 2557,
    "wч": 2558,
    "wш": 2559,
    "wщ": 2560,
    "wъ": 2561,
    "wы": 2562,
    "wь": 2563,
    "wэ": 2564,
    "wю": 2565,
    "wя": 2566,
    "wә": 2567,
    "wі": 2568,
    "wң": 2569,
    "wғ": 2570,
    "wү": 2571,
    "wұ": 2572,
    "wқ": 2573,
    "wө": 2574,
    "wһ": 2575,
    "w1": 2576,
    "w2": 2577,
    "w3": 2578,
    "w4": 2579,
    "w5": 2580,
    "w6": 2581,
    "w7": 2582,
    "w8": 2583,
    "w9": 2584,
    "w0": 2585,
    "w!": 2586,
    "w@": 2587,
    "w#": 2588,
    "w$": 2589,
    "w%": 2590,
    "w^": 2591,
    "w:": 2592,
    "w&": 2593,
    "w*": 2594,
    "w(": 2595,
    "w)": 2596,
    "w_": 2597,
    "w+": 2598,
    "w=": 2599,
    "w-": 2600,
    "w?": 2601,
    "w/": 2602,
    "w>": 2603,
    "w.": 2604,
    "w<": 2605,
    "w,": 2606,
    "w`": 2607,
    "w|": 2608,
    "w\\": 2609,
    "w'": 2610,
    "w\"": 2611,
    "w[": 2612,
    "w]": 2613,
    "w{": 2614,
    "w}": 2615,
    "w ": 2616,
    "xa": 2617,
    "xb": 2618,
    "xc": 2619,
    "xd": 2620,
    "xe": 2621,
    "xf": 2622,
    "xg": 2623,
    "xh": 2624,
    "xi": 2625,
    "xj": 2626,
    "xk": 2627,
    "xl": 2628,
    "xm": 2629,
    "xn": 2630,
    "xo": 2631,
    "xp": 2632,
    "xq": 2633,
    "xr": 2634,
    "xs": 2635,
    "xt": 2636,
    "xu": 2637,
    "xv": 2638,
    "xw": 2639,
    "xx": 2640,
    "xy": 2641,
    "xz": 2642,
    "xа": 2643,
    "xб": 2644,
    "xв": 2645,
    "xг": 2646,
    "xд": 2647,
    "xе": 2648,
    "xё": 2649,
    "xж": 2650,
    "xз": 2651,
    "xи": 2652,
    "xй": 2653,
    "xк": 2654,
    "xл": 2655,
    "xм": 2656,
    "xн": 2657,
    "xо": 2658,
    "xп": 2659,
    "xр": 2660,
    "xс": 2661,
    "xт": 2662,
    "xу": 2663,
    "xф": 2664,
    "xх": 2665,
    "xц": 2666,
    "xч": 2667,
    "xш": 2668,
    "xщ": 2669,
    "xъ": 2670,
    "xы": 2671,
    "xь": 2672,
    "xэ": 2673,
    "xю": 2674,
    "xя": 2675,
    "xә": 2676,
    "xі": 2677,
    "xң": 2678,
    "xғ": 2679,
    "xү": 2680,
    "xұ": 2681,
    "xқ": 2682,
    "xө": 2683,
    "xһ": 2684,
    "x1": 2685,
    "x2": 2686,
    "x3": 2687,
    "x4": 2688,
    "x5": 2689,
    "x6": 2690,
    "x7": 2691,
    "x8": 2692,
    "x9": 2693,
    "x0": 2694,
    "x!": 2695,
    "x@": 2696,
    "x#": 2697,
    "x$": 2698,
    "x%": 2699,
    "x^": 2700,
    "x:": 2701,
    "x&": 2702,
    "x*": 2703,
    "x(": 2704,
    "x)": 2705,
    "x_": 2706,
    "x+": 2707,
    "x=": 2708,
    "x-": 2709,
    "x?": 2710,
    "x/": 2711,
    "x>": 2712,
    "x.": 2713,
    "x<": 2714,
    "x,": 2715,
    "x`": 2716,
    "x|": 2717,
    "x\\": 2718,
    "x'": 2719,
    "x\"": 2720,
    "x[": 2721,
    "x]": 2722,
    "x{": 2723,
    "x}": 2724,
    "x ": 2725,
    "ya": 2726,
    "yb": 2727,
    "yc": 2728,
    "yd": 2729,
    "ye": 2730,
    "yf": 2731,
    "yg": 2732,
    "yh": 2733,
    "yi": 2734,
    "yj": 2735,
    "yk": 2736,
    "yl": 2737,
    "ym": 2738,
    "yn": 2739,
    "yo": 2740,
    "yp": 2741,
    "yq": 2742,
    "yr": 2743,
    "ys": 2744,
    "yt": 2745,
    "yu": 2746,
    "yv": 2747,
    "yw": 2748,
    "yx": 2749,
    "yy": 2750,
    "yz": 2751,
    "yа": 2752,
    "yб": 2753,
    "yв": 2754,
    "yг": 2755,
    "yд": 2756,
    "yе": 2757,
    "yё": 2758,
    "yж": 2759,
    "yз": 2760,
    "yи": 2761,
    "yй": 2762,
    "yк": 2763,
    "yл": 2764,
    "yм": 2765,
    "yн": 2766,
    "yо": 2767,
    "yп": 2768,
    "yр": 2769,
    "yс": 2770,
    "yт": 2771,
    "yу": 2772,
    "yф": 2773,
    "yх": 2774,
    "yц": 2775,
    "yч": 2776,
    "yш": 2777,
    "yщ": 2778,
    "yъ": 2779,
    "yы": 2780,
    "yь": 2781,
    "yэ": 2782,
    "yю": 2783,
    "yя": 2784,
    "yә": 2785,
    "yі": 2786,
    "yң": 2787,
    "yғ": 2788,
    "yү": 2789,
    "yұ": 2790,
    "yқ": 2791,
    "yө": 2792,
    "yһ": 2793,
    "y1": 2794,
    "y2": 2795,
    "y3": 2796,
    "y4": 2797,
    "y5": 2798,
    "y6": 2799,
    "y7": 2800,
    "y8": 2801,
    "y9": 2802,
    "y0": 2803,
    "y!": 2804,
    "y@": 2805,
    "y#": 2806,
    "y$": 2807,
    "y%": 2808,
    "y^": 2809,
    "y:": 2810,
    "y&": 2811,
    "y*": 2812,
    "y(": 2813,
    "y)": 2814,
    "y_": 2815,
    "y+": 2816,
    "y=": 2817,
    "y-": 2818,
    "y?": 2819,
    "y/": 2820,
    "y>": 2821,
    "y.": 2822,
    "y<": 2823,
    "y,": 2824,
    "y`": 2825,
    "y|": 2826,
    "y\\": 2827,
    "y'": 2828,
    "y\"": 2829,
    "y[": 2830,
    "y]": 2831,
    "y{": 2832,
    "y}": 2833,
    "y ": 2834,
    "za": 2835,
    "zb": 2836,
    "zc": 2837,
    "zd": 2838,
    "ze": 2839,
    "zf": 2840,
    "zg": 2841,
    "zh": 2842,
    "zi": 2843,
    "zj": 2844,
    "zk": 2845,
    "zl": 2846,
    "zm": 2847,
    "zn": 2848,
    "zo": 2849,
    "zp": 2850,
    "zq": 2851,
    "zr": 2852,
    "zs": 2853,
    "zt": 2854,
    "zu": 2855,
    "zv": 2856,
    "zw": 2857,
    "zx": 2858,
    "zy": 2859,
    "zz": 2860,
    "zа": 2861,
    "zб": 2862,
    "zв": 2863,
    "zг": 2864,
    "zд": 2865,
    "zе": 2866,
    "zё": 2867,
    "zж": 2868,
    "zз": 2869,
    "zи": 2870,
    "zй": 2871,
    "zк": 2872,
    "zл": 2873,
    "zм": 2874,
    "zн": 2875,
    "zо": 2876,
    "zп": 2877,
    "zр": 2878,
    "zс": 2879,
    "zт": 2880,
    "zу": 2881,
    "zф": 2882,
    "zх": 2883,
    "zц": 2884,
    "zч": 2885,
    "zш": 2886,
    "zщ": 2887,
    "zъ": 2888,
    "zы": 2889,
    "zь": 2890,
    "zэ": 2891,
    "zю": 2892,
    "zя": 2893,
    "zә": 2894,
    "zі": 2895,
    "zң": 2896,
    "zғ": 2897,
    "zү": 2898,
    "zұ": 2899,
    "zқ": 2900,
    "zө": 2901,
    "zһ": 2902,
    "z1": 2903,
    "z2": 2904,
    "z3": 2905,
    "z4": 2906,
    "z5": 2907,
    "z6": 2908,
    "z7": 2909,
    "z8": 2910,
    "z9": 2911,
    "z0": 2912,
    "z!": 2913,
    "z@": 2914,
    "z#": 2915,
    "z$": 2916,
    "z%": 2917,
    "z^": 2918,
    "z:": 2919,
    "z&": 2920,
    "z*": 2921,
    "z(": 2922,
    "z)": 2923,
    "z_": 2924,
    "z+": 2925,
    "z=": 2926,
    "z-": 2927,
    "z?": 2928,
    "z/": 2929,
    "z>": 2930,
    "z.": 2931,
    "z<": 2932,
    "z,": 2933,
    "z`": 2934,
    "z|": 2935,
    "z\\": 2936,
    "z'": 2937,
    "z\"": 2938,
    "z[": 2939,
    "z]": 2940,
    "z{": 2941,
    "z}": 2942,
    "z ": 2943,
    "аa": 2944,
    "аb": 2945,
    "аc": 2946,
    "аd": 2947,
    "аe": 2948,
    "аf": 2949,
    "аg": 2950,
    "аh": 2951,
    "аi": 2952,
    "аj": 2953,
    "аk": 2954,
    "аl": 2955,
    "аm": 2956,
    "аn": 2957,
    "аo": 2958,
    "аp": 2959,
    "аq": 2960,
    "аr": 2961,
    "аs": 2962,
    "аt": 2963,
    "аu": 2964,
    "аv": 2965,
    "аw": 2966,
    "аx": 2967,
    "аy": 2968,
    "аz": 2969,
    "аа": 2970,
    "аб": 2971,
    "ав": 2972,
    "аг": 2973,
    "ад": 2974,
    "ае": 2975,
    "аё": 2976,
    "аж": 2977,
    "аз": 2978,
    "аи": 2979,
    "ай": 2980,
    "ак": 2981,
    "ал": 2982,
    "ам": 2983,
    "ан": 2984,
    "ао": 2985,
    "ап": 2986,
    "ар": 2987,
    "ас": 2988,
    "ат": 2989,
    "ау": 2990,
    "аф": 2991,
    "ах": 2992,
    "ац": 2993,
    "ач": 2994,
    "аш": 2995,
    "ащ": 2996,
    "аъ": 2997,
    "аы": 2998,
    "аь": 2999,
    "аэ": 3000,
    "аю": 3001,
    "ая": 3002,
    "аә": 3003,
    "аі": 3004,
    "аң": 3005,
    "ағ": 3006,
    "аү": 3007,
    "аұ": 3008,
    "ақ": 3009,
    "аө": 3010,
    "аһ": 3011,
    "а1": 3012,
    "а2": 3013,
    "а3": 3014,
    "а4": 3015,
    "а5": 3016,
    "а6": 3017,
    "а7": 3018,
    "а8": 3019,
    "а9": 3020,
    "а0": 3021,
    "а!": 3022,
    "а@": 3023,
    "а#": 3024,
    "а$": 3025,
    "а%": 3026,
    "а^": 3027,
    "а:": 3028,
    "а&": 3029,
    "а*": 3030,
    "а(": 3031,
    "а)": 3032,
    "а_": 3033,
    "а+": 3034,
    "а=": 3035,
    "а-": 3036,
    "а?": 3037,
    "а/": 3038,
    "а>": 3039,
    "а.": 3040,
    "а<": 3041,
    "а,": 3042,
    "а`": 3043,
    "а|": 3044,
    "а\\": 3045,
    "а'": 3046,
    "а\"": 3047,
    "а[": 3048,
    "а]": 3049,
    "а{": 3050,
    "а}": 3051,
    "а ": 3052,
    "бa": 3053,
    "бb": 3054,
    "бc": 3055,
    "бd": 3056,
    "бe": 3057,
    "бf": 3058,
    "бg": 3059,
    "бh": 3060,
    "бi": 3061,
    "бj": 3062,
    "бk": 3063,
    "бl": 3064,
    "бm": 3065,
    "бn": 3066,
    "бo": 3067,
    "бp": 3068,
    "бq": 3069,
    "бr": 3070,
    "бs": 3071,
    "бt": 3072,
    "бu": 3073,
    "бv": 3074,
    "бw": 3075,
    "бx": 3076,
    "бy": 3077,
    "бz": 3078,
    "ба": 3079,
    "бб": 3080,
    "бв": 3081,
    "бг": 3082,
    "бд": 3083,
    "бе": 3084,
    "бё": 3085,
    "бж": 3086,
    "бз": 3087,
    "би": 3088,
    "бй": 3089,
    "бк": 3090,
    "бл": 3091,
    "бм": 3092,
    "бн": 3093,
    "бо": 3094,
    "бп": 3095,
    "бр": 3096,
    "бс": 3097,
    "бт": 3098,
    "бу": 3099,
    "бф": 3100,
    "бх": 3101,
    "бц": 3102,
    "бч": 3103,
    "бш": 3104,
    "бщ": 3105,
    "бъ": 3106,
    "бы": 3107,
    "бь": 3108,
    "бэ": 3109,
    "бю": 3110,
    "бя": 3111,
    "бә": 3112,
    "бі": 3113,
    "бң": 3114,
    "бғ": 3115,
    "бү": 3116,
    "бұ": 3117,
    "бқ": 3118,
    "бө": 3119,
    "бһ": 3120,
    "б1": 3121,
    "б2": 3122,
    "б3": 3123,
    "б4": 3124,
    "б5": 3125,
    "б6": 3126,
    "б7": 3127,
    "б8": 3128,
    "б9": 3129,
    "б0": 3130,
    "б!": 3131,
    "б@": 3132,
    "б#": 3133,
    "б$": 3134,
    "б%": 3135,
    "б^": 3136,
    "б:": 3137,
    "б&": 3138,
    "б*": 3139,
    "б(": 3140,
    "б)": 3141,
    "б_": 3142,
    "б+": 3143,
    "б=": 3144,
    "б-": 3145,
    "б?": 3146,
    "б/": 3147,
    "б>": 3148,
    "б.": 3149,
    "б<": 3150,
    "б,": 3151,
    "б`": 3152,
    "б|": 3153,
    "б\\": 3154,
    "б'": 3155,
    "б\"": 3156,
    "б[": 3157,
    "б]": 3158,
    "б{": 3159,
    "б}": 3160,
    "б ": 3161,
    "вa": 3162,
    "вb": 3163,
    "вc": 3164,
    "вd": 3165,
    "вe": 3166,
    "вf": 3167,
    "вg": 3168,
    "вh": 3169,
    "вi": 3170,
    "вj": 3171,
    "вk": 3172,
    "вl": 3173,
    "вm": 3174,
    "вn": 3175,
    "вo": 3176,
    "вp": 3177,
    "вq": 3178,
    "вr": 3179,
    "вs": 3180,
    "вt": 3181,
    "вu": 3182,
    "вv": 3183,
    "вw": 3184,
    "вx": 3185,
    "вy": 3186,
    "вz": 3187,
    "ва": 3188,
    "вб": 3189,
    "вв": 3190,
    "вг": 3191,
    "вд": 3192,
    "ве": 3193,
    "вё": 3194,
    "вж": 3195,
    "вз": 3196,
    "ви": 3197,
    "вй": 3198,
    "вк": 3199,
    "вл": 3200,
    "вм": 3201,
    "вн": 3202,
    "во": 3203,
    "вп": 3204,
    "вр": 3205,
    "вс": 3206,
    "вт": 3207,
    "ву": 3208,
    "вф": 3209,
    "вх": 3210,
    "вц": 3211,
    "вч": 3212,
    "вш": 3213,
    "вщ": 3214,
    "въ": 3215,
    "вы": 3216,
    "вь": 3217,
    "вэ": 3218,
    "вю": 3219,
    "вя": 3220,
    "вә": 3221,
    "ві": 3222,
    "вң": 3223,
    "вғ": 3224,
    "вү": 3225,
    "вұ": 3226,
    "вқ": 3227,
    "вө": 3228,
    "вһ": 3229,
    "в1": 3230,
    "в2": 3231,
    "в3": 3232,
    "в4": 3233,
    "в5": 3234,
    "в6": 3235,
    "в7": 3236,
    "в8": 3237,
    "в9": 3238,
    "в0": 3239,
    "в!": 3240,
    "в@": 3241,
    "в#": 3242,
    "в$": 3243,
    "в%": 3244,
    "в^": 3245,
    "в:": 3246,
    "в&": 3247,
    "в*": 3248,
    "в(": 3249,
    "в)": 3250,
    "в_": 3251,
    "в+": 3252,
    "в=": 3253,
    "в-": 3254,
    "в?": 3255,
    "в/": 3256,
    "в>": 3257,
    "в.": 3258,
    "в<": 3259,
    "в,": 3260,
    "в`": 3261,
    "в|": 3262,
    "в\\": 3263,
    "в'": 3264,
    "в\"": 3265,
    "в[": 3266,
    "в]": 3267,
    "в{": 3268,
    "в}": 3269,
    "в ": 3270,
    "гa": 3271,
    "гb": 3272,
    "гc": 3273,
    "гd": 3274,
    "гe": 3275,
    "гf": 3276,
    "гg": 3277,
    "гh": 3278,
    "гi": 3279,
    "гj": 3280,
    "гk": 3281,
    "гl": 3282,
    "гm": 3283,
    "гn": 3284,
    "гo": 3285,
    "гp": 3286,
    "гq": 3287,
    "гr": 3288,
    "гs": 3289,
    "гt": 3290,
    "гu": 3291,
    "гv": 3292,
    "гw": 3293,
    "гx": 3294,
    "гy": 3295,
    "гz": 3296,
    "га": 3297,
    "гб": 3298,
    "гв": 3299,
    "гг": 3300,
    "гд": 3301,
    "ге": 3302,
    "гё": 3303,
    "гж": 3304,
    "гз": 3305,
    "ги": 3306,
    "гй": 3307,
    "гк": 3308,
    "гл": 3309,
    "гм": 3310,
    "гн": 3311,
    "го": 3312,
    "гп": 3313,
    "гр": 3314,
    "гс": 3315,
    "гт": 3316,
    "гу": 3317,
    "гф": 3318,
    "гх": 3319,
    "гц": 3320,
    "гч": 3321,
    "гш": 3322,
    "гщ": 3323,
    "гъ": 3324,
    "гы": 3325,
    "гь": 3326,
    "гэ": 3327,
    "гю": 3328,
    "гя": 3329,
    "гә": 3330,
    "гі": 3331,
    "гң": 3332,
    "гғ": 3333,
    "гү": 3334,
    "гұ": 3335,
    "гқ": 3336,
    "гө": 3337,
    "гһ": 3338,
    "г1": 3339,
    "г2": 3340,
    "г3": 3341,
    "г4": 3342,
    "г5": 3343,
    "г6": 3344,
    "г7": 3345,
    "г8": 3346,
    "г9": 3347,
    "г0": 3348,
    "г!": 3349,
    "г@": 3350,
    "г#": 3351,
    "г$": 3352,
    "г%": 3353,
    "г^": 3354,
    "г:": 3355,
    "г&": 3356,
    "г*": 3357,
    "г(": 3358,
    "г)": 3359,
    "г_": 3360,
    "г+": 3361,
    "г=": 3362,
    "г-": 3363,
    "г?": 3364,
    "г/": 3365,
    "г>": 3366,
    "г.": 3367,
    "г<": 3368,
    "г,": 3369,
    "г`": 3370,
    "г|": 3371,
    "г\\": 3372,
    "г'": 3373,
    "г\"": 3374,
    "г[": 3375,
    "г]": 3376,
    "г{": 3377,
    "г}": 3378,
    "г ": 3379,
    "дa": 3380,
    "дb": 3381,
    "дc": 3382,
    "дd": 3383,
    "дe": 3384,
    "дf": 3385,
    "дg": 3386,
    "дh": 3387,
    "дi": 3388,
    "дj": 3389,
    "дk": 3390,
    "дl": 3391,
    "дm": 3392,
    "дn": 3393,
    "дo": 3394,
    "дp": 3395,
    "дq": 3396,
    "дr": 3397,
    "дs": 3398,
    "дt": 3399,
    "дu": 3400,
    "дv": 3401,
    "дw": 3402,
    "дx": 3403,
    "дy": 3404,
    "дz": 3405,
    "да": 3406,
    "дб": 3407,
    "дв": 3408,
    "дг": 3409,
    "дд": 3410,
    "де": 3411,
    "дё": 3412,
    "дж": 3413,
    "дз": 3414,
    "ди": 3415,
    "дй": 3416,
    "дк": 3417,
    "дл": 3418,
    "дм": 3419,
    "дн": 3420,
    "до": 3421,
    "дп": 3422,
    "др": 3423,
    "дс": 3424,
    "дт": 3425,
    "ду": 3426,
    "дф": 3427,
    "дх": 3428,
    "дц": 3429,
    "дч": 3430,
    "дш": 3431,
    "дщ": 3432,
    "дъ": 3433,
    "ды": 3434,
    "дь": 3435,
    "дэ": 3436,
    "дю": 3437,
    "дя": 3438,
    "дә": 3439,
    "ді": 3440,
    "дң": 3441,
    "дғ": 3442,
    "дү": 3443,
    "дұ": 3444,
    "дқ": 3445,
    "дө": 3446,
    "дһ": 3447,
    "д1": 3448,
    "д2": 3449,
    "д3": 3450,
    "д4": 3451,
    "д5": 3452,
    "д6": 3453,
    "д7": 3454,
    "д8": 3455,
    "д9": 3456,
    "д0": 3457,
    "д!": 3458,
    "д@": 3459,
    "д#": 3460,
    "д$": 3461,
    "д%": 3462,
    "д^": 3463,
    "д:": 3464,
    "д&": 3465,
    "д*": 3466,
    "д(": 3467,
    "д)": 3468,
    "д_": 3469,
    "д+": 3470,
    "д=": 3471,
    "д-": 3472,
    "д?": 3473,
    "д/": 3474,
    "д>": 3475,
    "д.": 3476,
    "д<": 3477,
    "д,": 3478,
    "д`": 3479,
    "д|": 3480,
    "д\\": 3481,
    "д'": 3482,
    "д\"": 3483,
    "д[": 3484,
    "д]": 3485,
    "д{": 3486,
    "д}": 3487,
    "д ": 3488,
    "еa": 3489,
    "еb": 3490,
    "еc": 3491,
    "еd": 3492,
    "еe": 3493,
    "еf": 3494,
    "еg": 3495,
    "еh": 3496,
    "еi": 3497,
    "еj": 3498,
    "еk": 3499,
    "еl": 3500,
    "еm": 3501,
    "еn": 3502,
    "еo": 3503,
    "еp": 3504,
    "еq": 3505,
    "еr": 3506,
    "еs": 3507,
    "еt": 3508,
    "еu": 3509,
    "еv": 3510,
    "еw": 3511,
    "еx": 3512,
    "еy": 3513,
    "еz": 3514,
    "еа": 3515,
    "еб": 3516,
    "ев": 3517,
    "ег": 3518,
    "ед": 3519,
    "ее": 3520,
    "её": 3521,
    "еж": 3522,
    "ез": 3523,
    "еи": 3524,
    "ей": 3525,
    "ек": 3526,
    "ел": 3527,
    "ем": 3528,
    "ен": 3529,
    "ео": 3530,
    "еп": 3531,
    "ер": 3532,
    "ес": 3533,
    "ет": 3534,
    "еу": 3535,
    "еф": 3536,
    "ех": 3537,
    "ец": 3538,
    "еч": 3539,
    "еш": 3540,
    "ещ": 3541,
    "еъ": 3542,
    "еы": 3543,
    "еь": 3544,
    "еэ": 3545,
    "ею": 3546,
    "ея": 3547,
    "еә": 3548,
    "еі": 3549,
    "ең": 3550,
    "еғ": 3551,
    "еү": 3552,
    "еұ": 3553,
    "еқ": 3554,
    "еө": 3555,
    "еһ": 3556,
    "е1": 3557,
    "е2": 3558,
    "е3": 3559,
    "е4": 3560,
    "е5": 3561,
    "е6": 3562,
    "е7": 3563,
    "е8": 3564,
    "е9": 3565,
    "е0": 3566,
    "е!": 3567,
    "е@": 3568,
    "е#": 3569,
    "е$": 3570,
    "е%": 3571,
    "е^": 3572,
    "е:": 3573,
    "е&": 3574,
    "е*": 3575,
    "е(": 3576,
    "е)": 3577,
    "е_": 3578,
    "е+": 3579,
    "е=": 3580,
    "е-": 3581,
    "е?": 3582,
    "е/": 3583,
    "е>": 3584,
    "е.": 3585,
    "е<": 3586,
    "е,": 3587,
    "е`": 3588,
    "е|": 3589,
    "е\\": 3590,
    "е'": 3591,
    "е\"": 3592,
    "е[": 3593,
    "е]": 3594,
    "е{": 3595,
    "е}": 3596,
    "е ": 3597,
    "ёa": 3598,
    "ёb": 3599,
    "ёc": 3600,
    "ёd": 3601,
    "ёe": 3602,
    "ёf": 3603,
    "ёg": 3604,
    "ёh": 3605,
    "ёi": 3606,
    "ёj": 3607,
    "ёk": 3608,
    "ёl": 3609,
    "ёm": 3610,
    "ёn": 3611,
    "ёo": 3612,
    "ёp": 3613,
    "ёq": 3614,
    "ёr": 3615,
    "ёs": 3616,
    "ёt": 3617,
    "ёu": 3618,
    "ёv": 3619,
    "ёw": 3620,
    "ёx": 3621,
    "ёy": 3622,
    "ёz": 3623,
    "ёа": 3624,
    "ёб": 3625,
    "ёв": 3626,
    "ёг": 3627,
    "ёд": 3628,
    "ёе": 3629,
    "ёё": 3630,
    "ёж": 3631,
    "ёз": 3632,
    "ёи": 3633,
    "ёй": 3634,
    "ёк": 3635,
    "ёл": 3636,
    "ём": 3637,
    "ён": 3638,
    "ёо": 3639,
    "ёп": 3640,
    "ёр": 3641,
    "ёс": 3642,
    "ёт": 3643,
    "ёу": 3644,
    "ёф": 3645,
    "ёх": 3646,
    "ёц": 3647,
    "ёч": 3648,
    "ёш": 3649,
    "ёщ": 3650,
    "ёъ": 3651,
    "ёы": 3652,
    "ёь": 3653,
    "ёэ": 3654,
    "ёю": 3655,
    "ёя": 3656,
    "ёә": 3657,
    "ёі": 3658,
    "ёң": 3659,
    "ёғ": 3660,
    "ёү": 3661,
    "ёұ": 3662,
    "ёқ": 3663,
    "ёө": 3664,
    "ёһ": 3665,
    "ё1": 3666,
    "ё2": 3667,
    "ё3": 3668,
    "ё4": 3669,
    "ё5": 3670,
    "ё6": 3671,
    "ё7": 3672,
    "ё8": 3673,
    "ё9": 3674,
    "ё0": 3675,
    "ё!": 3676,
    "ё@": 3677,
    "ё#": 3678,
    "ё$": 3679,
    "ё%": 3680,
    "ё^": 3681,
    "ё:": 3682,
    "ё&": 3683,
    "ё*": 3684,
    "ё(": 3685,
    "ё)": 3686,
    "ё_": 3687,
    "ё+": 3688,
    "ё=": 3689,
    "ё-": 3690,
    "ё?": 3691,
    "ё/": 3692,
    "ё>": 3693,
    "ё.": 3694,
    "ё<": 3695,
    "ё,": 3696,
    "ё`": 3697,
    "ё|": 3698,
    "ё\\": 3699,
    "ё'": 3700,
    "ё\"": 3701,
    "ё[": 3702,
    "ё]": 3703,
    "ё{": 3704,
    "ё}": 3705,
    "ё ": 3706,
    "жa": 3707,
    "жb": 3708,
    "жc": 3709,
    "жd": 3710,
    "жe": 3711,
    "жf": 3712,
    "жg": 3713,
    "жh": 3714,
    "жi": 3715,
    "жj": 3716,
    "жk": 3717,
    "жl": 3718,
    "жm": 3719,
    "жn": 3720,
    "жo": 3721,
    "жp": 3722,
    "жq": 3723,
    "жr": 3724,
    "жs": 3725,
    "жt": 3726,
    "жu": 3727,
    "жv": 3728,
    "жw": 3729,
    "жx": 3730,
    "жy": 3731,
    "жz": 3732,
    "жа": 3733,
    "жб": 3734,
    "жв": 3735,
    "жг": 3736,
    "жд": 3737,
    "же": 3738,
    "жё": 3739,
    "жж": 3740,
    "жз": 3741,
    "жи": 3742,
    "жй": 3743,
    "жк": 3744,
    "жл": 3745,
    "жм": 3746,
    "жн": 3747,
    "жо": 3748,
    "жп": 3749,
    "жр": 3750,
    "жс": 3751,
    "жт": 3752,
    "жу": 3753,
    "жф": 3754,
    "жх": 3755,
    "жц": 3756,
    "жч": 3757,
    "жш": 3758,
    "жщ": 3759,
    "жъ": 3760,
    "жы": 3761,
    "жь": 3762,
    "жэ": 3763,
    "жю": 3764,
    "жя": 3765,
    "жә": 3766,
    "жі": 3767,
    "жң": 3768,
    "жғ": 3769,
    "жү": 3770,
    "жұ": 3771,
    "жқ": 3772,
    "жө": 3773,
    "жһ": 3774,
    "ж1": 3775,
    "ж2": 3776,
    "ж3": 3777,
    "ж4": 3778,
    "ж5": 3779,
    "ж6": 3780,
    "ж7": 3781,
    "ж8": 3782,
    "ж9": 3783,
    "ж0": 3784,
    "ж!": 3785,
    "ж@": 3786,
    "ж#": 3787,
    "ж$": 3788,
    "ж%": 3789,
    "ж^": 3790,
    "ж:": 3791,
    "ж&": 3792,
    "ж*": 3793,
    "ж(": 3794,
    "ж)": 3795,
    "ж_": 3796,
    "ж+": 3797,
    "ж=": 3798,
    "ж-": 3799,
    "ж?": 3800,
    "ж/": 3801,
    "ж>": 3802,
    "ж.": 3803,
    "ж<": 3804,
    "ж,": 3805,
    "ж`": 3806,
    "ж|": 3807,
    "ж\\": 3808,
    "ж'": 3809,
    "ж\"": 3810,
    "ж[": 3811,
    "ж]": 3812,
    "ж{": 3813,
    "ж}": 3814,
    "ж ": 3815,
    "зa": 3816,
    "зb": 3817,
    "зc": 3818,
    "зd": 3819,
    "зe": 3820,
    "зf": 3821,
    "зg": 3822,
    "зh": 3823,
    "зi": 3824,
    "зj": 3825,
    "зk": 3826,
    "зl": 3827,
    "зm": 3828,
    "зn": 3829,
    "зo": 3830,
    "зp": 3831,
    "зq": 3832,
    "зr": 3833,
    "зs": 3834,
    "зt": 3835,
    "зu": 3836,
    "зv": 3837,
    "зw": 3838,
    "зx": 3839,
    "зy": 3840,
    "зz": 3841,
    "за": 3842,
    "зб": 3843,
    "зв": 3844,
    "зг": 3845,
    "зд": 3846,
    "зе": 3847,
    "зё": 3848,
    "зж": 3849,
    "зз": 3850,
    "зи": 3851,
    "зй": 3852,
    "зк": 3853,
    "зл": 3854,
    "зм": 3855,
    "зн": 3856,
    "зо": 3857,
    "зп": 3858,
    "зр": 3859,
    "зс": 3860,
    "зт": 3861,
    "зу": 3862,
    "зф": 3863,
    "зх": 3864,
    "зц": 3865,
    "зч": 3866,
    "зш": 3867,
    "зщ": 3868,
    "зъ": 3869,
    "зы": 3870,
    "зь": 3871,
    "зэ": 3872,
    "зю": 3873,
    "зя": 3874,
    "зә": 3875,
    "зі": 3876,
    "зң": 3877,
    "зғ": 3878,
    "зү": 3879,
    "зұ": 3880,
    "зқ": 3881,
    "зө": 3882,
    "зһ": 3883,
    "з1": 3884,
    "з2": 3885,
    "з3": 3886,
    "з4": 3887,
    "з5": 3888,
    "з6": 3889,
    "з7": 3890,
    "з8": 3891,
    "з9": 3892,
    "з0": 3893,
    "з!": 3894,
    "з@": 3895,
    "з#": 3896,
    "з$": 3897,
    "з%": 3898,
    "з^": 3899,
    "з:": 3900,
    "з&": 3901,
    "з*": 3902,
    "з(": 3903,
    "з)": 3904,
    "з_": 3905,
    "з+": 3906,
    "з=": 3907,
    "з-": 3908,
    "з?": 3909,
    "з/": 3910,
    "з>": 3911,
    "з.": 3912,
    "з<": 3913,
    "з,": 3914,
    "з`": 3915,
    "з|": 3916,
    "з\\": 3917,
    "з'": 3918,
    "з\"": 3919,
    "з[": 3920,
    "з]": 3921,
    "з{": 3922,
    "з}": 3923,
    "з ": 3924,
    "иa": 3925,
    "иb": 3926,
    "иc": 3927,
    "иd": 3928,
    "иe": 3929,
    "иf": 3930,
    "иg": 3931,
    "иh": 3932,
    "иi": 3933,
    "иj": 3934,
    "иk": 3935,
    "иl": 3936,
    "иm": 3937,
    "иn": 3938,
    "иo": 3939,
    "иp": 3940,
    "иq": 3941,
    "иr": 3942,
    "иs": 3943,
    "иt": 3944,
    "иu": 3945,
    "иv": 3946,
    "иw": 3947,
    "иx": 3948,
    "иy": 3949,
    "иz": 3950,
    "иа": 3951,
    "иб": 3952,
    "ив": 3953,
    "иг": 3954,
    "ид": 3955,
    "ие": 3956,
    "иё": 3957,
    "иж": 3958,
    "из": 3959,
    "ии": 3960,
    "ий": 3961,
    "ик": 3962,
    "ил": 3963,
    "им": 3964,
    "ин": 3965,
    "ио": 3966,
    "ип": 3967,
    "ир": 3968,
    "ис": 3969,
    "ит": 3970,
    "иу": 3971,
    "иф": 3972,
    "их": 3973,
    "иц": 3974,
    "ич": 3975,
    "иш": 3976,
    "ищ": 3977,
    "иъ": 3978,
    "иы": 3979,
    "иь": 3980,
    "иэ": 3981,
    "ию": 3982,
    "ия": 3983,
    "иә": 3984,
    "иі": 3985,
    "иң": 3986,
    "иғ": 3987,
    "иү": 3988,
    "иұ": 3989,
    "иқ": 3990,
    "иө": 3991,
    "иһ": 3992,
    "и1": 3993,
    "и2": 3994,
    "и3": 3995,
    "и4": 3996,
    "и5": 3997,
    "и6": 3998,
    "и7": 3999,
    "и8": 4000,
    "и9": 4001,
    "и0": 4002,
    "и!": 4003,
    "и@": 4004,
    "и#": 4005,
    "и$": 4006,
    "и%": 4007,
    "и^": 4008,
    "и:": 4009,
    "и&": 4010,
    "и*": 4011,
    "и(": 4012,
    "и)": 4013,
    "и_": 4014,
    "и+": 4015,
    "и=": 4016,
    "и-": 4017,
    "и?": 4018,
    "и/": 4019,
    "и>": 4020,
    "и.": 4021,
    "и<": 4022,
    "и,": 4023,
    "и`": 4024,
    "и|": 4025,
    "и\\": 4026,
    "и'": 4027,
    "и\"": 4028,
    "и[": 4029,
    "и]": 4030,
    "и{": 4031,
    "и}": 4032,
    "и ": 4033,
    "йa": 4034,
    "йb": 4035,
    "йc": 4036,
    "йd": 4037,
    "йe": 4038,
    "йf": 4039,
    "йg": 4040,
    "йh": 4041,
    "йi": 4042,
    "йj": 4043,
    "йk": 4044,
    "йl": 4045,
    "йm": 4046,
    "йn": 4047,
    "йo": 4048,
    "йp": 4049,
    "йq": 4050,
    "йr": 4051,
    "йs": 4052,
    "йt": 4053,
    "йu": 4054,
    "йv": 4055,
    "йw": 4056,
    "йx": 4057,
    "йy": 4058,
    "йz": 4059,
    "йа": 4060,
    "йб": 4061,
    "йв": 4062,
    "йг": 4063,
    "йд": 4064,
    "йе": 4065,
    "йё": 4066,
    "йж": 4067,
    "йз": 4068,
    "йи": 4069,
    "йй": 4070,
    "йк": 4071,
    "йл": 4072,
    "йм": 4073,
    "йн": 4074,
    "йо": 4075,
    "йп": 4076,
    "йр": 4077,
    "йс": 4078,
    "йт": 4079,
    "йу": 4080,
    "йф": 4081,
    "йх": 4082,
    "йц": 4083,
    "йч": 4084,
    "йш": 4085,
    "йщ": 4086,
    "йъ": 4087,
    "йы": 4088,
    "йь": 4089,
    "йэ": 4090,
    "йю": 4091,
    "йя": 4092,
    "йә": 4093,
    "йі": 4094,
    "йң": 4095,
    "йғ": 4096,
    "йү": 4097,
    "йұ": 4098,
    "йқ": 4099,
    "йө": 4100,
    "йһ": 4101,
    "й1": 4102,
    "й2": 4103,
    "й3": 4104,
    "й4": 4105,
    "й5": 4106,
    "й6": 4107,
    "й7": 4108,
    "й8": 4109,
    "й9": 4110,
    "й0": 4111,
    "й!": 4112,
    "й@": 4113,
    "й#": 4114,
    "й$": 4115,
    "й%": 4116,
    "й^": 4117,
    "й:": 4118,
    "й&": 4119,
    "й*": 4120,
    "й(": 4121,
    "й)": 4122,
    "й_": 4123,
    "й+": 4124,
    "й=": 4125,
    "й-": 4126,
    "й?": 4127,
    "й/": 4128,
    "й>": 4129,
    "й.": 4130,
    "й<": 4131,
    "й,": 4132,
    "й`": 4133,
    "й|": 4134,
    "й\\": 4135,
    "й'": 4136,
    "й\"": 4137,
    "й[": 4138,
    "й]": 4139,
    "й{": 4140,
    "й}": 4141,
    "й ": 4142,
    "кa": 4143,
    "кb": 4144,
    "кc": 4145,
    "кd": 4146,
    "кe": 4147,
    "кf": 4148,
    "кg": 4149,
    "кh": 4150,
    "кi": 4151,
    "кj": 4152,
    "кk": 4153,
    "кl": 4154,
    "кm": 4155,
    "кn": 4156,
    "кo": 4157,
    "кp": 4158,
    "кq": 4159,
    "кr": 4160,
    "кs": 4161,
    "кt": 4162,
    "кu": 4163,
    "кv": 4164,
    "кw": 4165,
    "кx": 4166,
    "кy": 4167,
    "кz": 4168,
    "ка": 4169,
    "кб": 4170,
    "кв": 4171,
    "кг": 4172,
    "кд": 4173,
    "ке": 4174,
    "кё": 4175,
    "кж": 4176,
    "кз": 4177,
    "ки": 4178,
    "кй": 4179,
    "кк": 4180,
    "кл": 4181,
    "км": 4182,
    "кн": 4183,
    "ко": 4184,
    "кп": 4185,
    "кр": 4186,
    "кс": 4187,
    "кт": 4188,
    "ку": 4189,
    "кф": 4190,
    "кх": 4191,
    "кц": 4192,
    "кч": 4193,
    "кш": 4194,
    "кщ": 4195,
    "къ": 4196,
    "кы": 4197,
    "кь": 4198,
    "кэ": 4199,
    "кю": 4200,
    "кя": 4201,
    "кә": 4202,
    "кі": 4203,
    "кң": 4204,
    "кғ": 4205,
    "кү": 4206,
    "кұ": 4207,
    "кқ": 4208,
    "кө": 4209,
    "кһ": 4210,
    "к1": 4211,
    "к2": 4212,
    "к3": 4213,
    "к4": 4214,
    "к5": 4215,
    "к6": 4216,
    "к7": 4217,
    "к8": 4218,
    "к9": 4219,
    "к0": 4220,
    "к!": 4221,
    "к@": 4222,
    "к#": 4223,
    "к$": 4224,
    "к%": 4225,
    "к^": 4226,
    "к:": 4227,
    "к&": 4228,
    "к*": 4229,
    "к(": 4230,
    "к)": 4231,
    "к_": 4232,
    "к+": 4233,
    "к=": 4234,
    "к-": 4235,
    "к?": 4236,
    "к/": 4237,
    "к>": 4238,
    "к.": 4239,
    "к<": 4240,
    "к,": 4241,
    "к`": 4242,
    "к|": 4243,
    "к\\": 4244,
    "к'": 4245,
    "к\"": 4246,
    "к[": 4247,
    "к]": 4248,
    "к{": 4249,
    "к}": 4250,
    "к ": 4251,
    "лa": 4252,
    "лb": 4253,
    "лc": 4254,
    "лd": 4255,
    "лe": 4256,
    "лf": 4257,
    "лg": 4258,
    "лh": 4259,
    "лi": 4260,
    "лj": 4261,
    "лk": 4262,
    "лl": 4263,
    "лm": 4264,
    "лn": 4265,
    "лo": 4266,
    "лp": 4267,
    "лq": 4268,
    "лr": 4269,
    "лs": 4270,
    "лt": 4271,
    "лu": 4272,
    "лv": 4273,
    "лw": 4274,
    "лx": 4275,
    "лy": 4276,
    "лz": 4277,
    "ла": 4278,
    "лб": 4279,
    "лв": 4280,
    "лг": 4281,
    "лд": 4282,
    "ле": 4283,
    "лё": 4284,
    "лж": 4285,
    "лз": 4286,
    "ли": 4287,
    "лй": 4288,
    "лк": 4289,
    "лл": 4290,
    "лм": 4291,
    "лн": 4292,
    "ло": 4293,
    "лп": 4294,
    "лр": 4295,
    "лс": 4296,
    "лт": 4297,
    "лу": 4298,
    "лф": 4299,
    "лх": 4300,
    "лц": 4301,
    "лч": 4302,
    "лш": 4303,
    "лщ": 4304,
    "лъ": 4305,
    "лы": 4306,
    "ль": 4307,
    "лэ": 4308,
    "лю": 4309,
    "ля": 4310,
    "лә": 4311,
    "лі": 4312,
    "лң": 4313,
    "лғ": 4314,
    "лү": 4315,
    "лұ": 4316,
    "лқ": 4317,
    "лө": 4318,
    "лһ": 4319,
    "л1": 4320,
    "л2": 4321,
    "л3": 4322,
    "л4": 4323,
    "л5": 4324,
    "л6": 4325,
    "л7": 4326,
    "л8": 4327,
    "л9": 4328,
    "л0": 4329,
    "л!": 4330,
    "л@": 4331,
    "л#": 4332,
    "л$": 4333,
    "л%": 4334,
    "л^": 4335,
    "л:": 4336,
    "л&": 4337,
    "л*": 4338,
    "л(": 4339,
    "л)": 4340,
    "л_": 4341,
    "л+": 4342,
    "л=": 4343,
    "л-": 4344,
    "л?": 4345,
    "л/": 4346,
    "л>": 4347,
    "л.": 4348,
    "л<": 4349,
    "л,": 4350,
    "л`": 4351,
    "л|": 4352,
    "л\\": 4353,
    "л'": 4354,
    "л\"": 4355,
    "л[": 4356,
    "л]": 4357,
    "л{": 4358,
    "л}": 4359,
    "л ": 4360,
    "мa": 4361,
    "мb": 4362,
    "мc": 4363,
    "мd": 4364,
    "мe": 4365,
    "мf": 4366,
    "мg": 4367,
    "мh": 4368,
    "мi": 4369,
    "мj": 4370,
    "мk": 4371,
    "мl": 4372,
    "мm": 4373,
    "мn": 4374,
    "мo": 4375,
    "мp": 4376,
    "мq": 4377,
    "мr": 4378,
    "мs": 4379,
    "мt": 4380,
    "мu": 4381,
    "мv": 4382,
    "мw": 4383,
    "мx": 4384,
    "мy": 4385,
    "мz": 4386,
    "ма": 4387,
    "мб": 4388,
    "мв": 4389,
    "мг": 4390,
    "мд": 4391,
    "ме": 4392,
    "мё": 4393,
    "мж": 4394,
    "мз": 4395,
    "ми": 4396,
    "мй": 4397,
    "мк": 4398,
    "мл": 4399,
    "мм": 4400,
    "мн": 4401,
    "мо": 4402,
    "мп": 4403,
    "мр": 4404,
    "мс": 4405,
    "мт": 4406,
    "му": 4407,
    "мф": 4408,
    "мх": 4409,
    "мц": 4410,
    "мч": 4411,
    "мш": 4412,
    "мщ": 4413,
    "мъ": 4414,
    "мы": 4415,
    "мь": 4416,
    "мэ": 4417,
    "мю": 4418,
    "мя": 4419,
    "мә": 4420,
    "мі": 4421,
    "мң": 4422,
    "мғ": 4423,
    "мү": 4424,
    "мұ": 4425,
    "мқ": 4426,
    "мө": 4427,
    "мһ": 4428,
    "м1": 4429,
    "м2": 4430,
    "м3": 4431,
    "м4": 4432,
    "м5": 4433,
    "м6": 4434,
    "м7": 4435,
    "м8": 4436,
    "м9": 4437,
    "м0": 4438,
    "м!": 4439,
    "м@": 4440,
    "м#": 4441,
    "м$": 4442,
    "м%": 4443,
    "м^": 4444,
    "м:": 4445,
    "м&": 4446,
    "м*": 4447,
    "м(": 4448,
    "м)": 4449,
    "м_": 4450,
    "м+": 4451,
    "м=": 4452,
    "м-": 4453,
    "м?": 4454,
    "м/": 4455,
    "м>": 4456,
    "м.": 4457,
    "м<": 4458,
    "м,": 4459,
    "м`": 4460,
    "м|": 4461,
    "м\\": 4462,
    "м'": 4463,
    "м\"": 4464,
    "м[": 4465,
    "м]": 4466,
    "м{": 4467,
    "м}": 4468,
    "м ": 4469,
    "нa": 4470,
    "нb": 4471,
    "нc": 4472,
    "нd": 4473,
    "нe": 4474,
    "нf": 4475,
    "нg": 4476,
    "нh": 4477,
    "нi": 4478,
    "нj": 4479,
    "нk": 4480,
    "нl": 4481,
    "нm": 4482,
    "нn": 4483,
    "нo": 4484,
    "нp": 4485,
    "нq": 4486,
    "нr": 4487,
    "нs": 4488,
    "нt": 4489,
    "нu": 4490,
    "нv": 4491,
    "нw": 4492,
    "нx": 4493,
    "нy": 4494,
    "нz": 4495,
    "на": 4496,
    "нб": 4497,
    "нв": 4498,
    "нг": 4499,
    "нд": 4500,
    "не": 4501,
    "нё": 4502,
    "нж": 4503,
    "нз": 4504,
    "ни": 4505,
    "нй": 4506,
    "нк": 4507,
    "нл": 4508,
    "нм": 4509,
    "нн": 4510,
    "но": 4511,
    "нп": 4512,
    "нр": 4513,
    "нс": 4514,
    "нт": 4515,
    "ну": 4516,
    "нф": 4517,
    "нх": 4518,
    "нц": 4519,
    "нч": 4520,
    "нш": 4521,
    "нщ": 4522,
    "нъ": 4523,
    "ны": 4524,
    "нь": 4525,
    "нэ": 4526,
    "ню": 4527,
    "ня": 4528,
    "нә": 4529,
    "ні": 4530,
    "нң": 4531,
    "нғ": 4532,
    "нү": 4533,
    "нұ": 4534,
    "нқ": 4535,
    "нө": 4536,
    "нһ": 4537,
    "н1": 4538,
    "н2": 4539,
    "н3": 4540,
    "н4": 4541,
    "н5": 4542,
    "н6": 4543,
    "н7": 4544,
    "н8": 4545,
    "н9": 4546,
    "н0": 4547,
    "н!": 4548,
    "н@": 4549,
    "н#": 4550,
    "н$": 4551,
    "н%": 4552,
    "н^": 4553,
    "н:": 4554,
    "н&": 4555,
    "н*": 4556,
    "н(": 4557,
    "н)": 4558,
    "н_": 4559,
    "н+": 4560,
    "н=": 4561,
    "н-": 4562,
    "н?": 4563,
    "н/": 4564,
    "н>": 4565,
    "н.": 4566,
    "н<": 4567,
    "н,": 4568,
    "н`": 4569,
    "н|": 4570,
    "н\\": 4571,
    "н'": 4572,
    "н\"": 4573,
    "н[": 4574,
    "н]": 4575,
    "н{": 4576,
    "н}": 4577,
    "н ": 4578,
    "оa": 4579,
    "оb": 4580,
    "оc": 4581,
    "оd": 4582,
    "оe": 4583,
    "оf": 4584,
    "оg": 4585,
    "оh": 4586,
    "оi": 4587,
    "оj": 4588,
    "оk": 4589,
    "оl": 4590,
    "оm": 4591,
    "оn": 4592,
    "оo": 4593,
    "оp": 4594,
    "оq": 4595,
    "оr": 4596,
    "оs": 4597,
    "оt": 4598,
    "оu": 4599,
    "оv": 4600,
    "оw": 4601,
    "оx": 4602,
    "оy": 4603,
    "оz": 4604,
    "оа": 4605,
    "об": 4606,
    "ов": 4607,
    "ог": 4608,
    "од": 4609,
    "ое": 4610,
    "оё": 4611,
    "ож": 4612,
    "оз": 4613,
    "ои": 4614,
    "ой": 4615,
    "ок": 4616,
    "ол": 4617,
    "ом": 4618,
    "он": 4619,
    "оо": 4620,
    "оп": 4621,
    "ор": 4622,
    "ос": 4623,
    "от": 4624,
    "оу": 4625,
    "оф": 4626,
    "ох": 4627,
    "оц": 4628,
    "оч": 4629,
    "ош": 4630,
    "ощ": 4631,
    "оъ": 4632,
    "оы": 4633,
    "оь": 4634,
    "оэ": 4635,
    "ою": 4636,
    "оя": 4637,
    "оә": 4638,
    "оі": 4639,
    "оң": 4640,
    "оғ": 4641,
    "оү": 4642,
    "оұ": 4643,
    "оқ": 4644,
    "оө": 4645,
    "оһ": 4646,
    "о1": 4647,
    "о2": 4648,
    "о3": 4649,
    "о4": 4650,
    "о5": 4651,
    "о6": 4652,
    "о7": 4653,
    "о8": 4654,
    "о9": 4655,
    "о0": 4656,
    "о!": 4657,
    "о@": 4658,
    "о#": 4659,
    "о$": 4660,
    "о%": 4661,
    "о^": 4662,
    "о:": 4663,
    "о&": 4664,
    "о*": 4665,
    "о(": 4666,
    "о)": 4667,
    "о_": 4668,
    "о+": 4669,
    "о=": 4670,
    "о-": 4671,
    "о?": 4672,
    "о/": 4673,
    "о>": 4674,
    "о.": 4675,
    "о<": 4676,
    "о,": 4677,
    "о`": 4678,
    "о|": 4679,
    "о\\": 4680,
    "о'": 4681,
    "о\"": 4682,
    "о[": 4683,
    "о]": 4684,
    "о{": 4685,
    "о}": 4686,
    "о ": 4687,
    "пa": 4688,
    "пb": 4689,
    "пc": 4690,
    "пd": 4691,
    "пe": 4692,
    "пf": 4693,
    "пg": 4694,
    "пh": 4695,
    "пi": 4696,
    "пj": 4697,
    "пk": 4698,
    "пl": 4699,
    "пm": 4700,
    "пn": 4701,
    "пo": 4702,
    "пp": 4703,
    "пq": 4704,
    "пr": 4705,
    "пs": 4706,
    "пt": 4707,
    "пu": 4708,
    "пv": 4709,
    "пw": 4710,
    "пx": 4711,
    "пy": 4712,
    "пz": 4713,
    "па": 4714,
    "пб": 4715,
    "пв": 4716,
    "пг": 4717,
    "пд": 4718,
    "пе": 4719,
    "пё": 4720,
    "пж": 4721,
    "пз": 4722,
    "пи": 4723,
    "пй": 4724,
    "пк": 4725,
    "пл": 4726,
    "пм": 4727,
    "пн": 4728,
    "по": 4729,
    "пп": 4730,
    "пр": 4731,
    "пс": 4732,
    "пт": 4733,
    "пу": 4734,
    "пф": 4735,
    "пх": 4736,
    "пц": 4737,
    "пч": 4738,
    "пш": 4739,
    "пщ": 4740,
    "пъ": 4741,
    "пы": 4742,
    "пь": 4743,
    "пэ": 4744,
    "пю": 4745,
    "пя": 4746,
    "пә": 4747,
    "пі": 4748,
    "пң": 4749,
    "пғ": 4750,
    "пү": 4751,
    "пұ": 4752,
    "пқ": 4753,
    "пө": 4754,
    "пһ": 4755,
    "п1": 4756,
    "п2": 4757,
    "п3": 4758,
    "п4": 4759,
    "п5": 4760,
    "п6": 4761,
    "п7": 4762,
    "п8": 4763,
    "п9": 4764,
    "п0": 4765,
    "п!": 4766,
    "п@": 4767,
    "п#": 4768,
    "п$": 4769,
    "п%": 4770,
    "п^": 4771,
    "п:": 4772,
    "п&": 4773,
    "п*": 4774,
    "п(": 4775,
    "п)": 4776,
    "п_": 4777,
    "п+": 4778,
    "п=": 4779,
    "п-": 4780,
    "п?": 4781,
    "п/": 4782,
    "п>": 4783,
    "п.": 4784,
    "п<": 4785,
    "п,": 4786,
    "п`": 4787,
    "п|": 4788,
    "п\\": 4789,
    "п'": 4790,
    "п\"": 4791,
    "п[": 4792,
    "п]": 4793,
    "п{": 4794,
    "п}": 4795,
    "п ": 4796,
    "рa": 4797,
    "рb": 4798,
    "рc": 4799,
    "рd": 4800,
    "рe": 4801,
    "рf": 4802,
    "рg": 4803,
    "рh": 4804,
    "рi": 4805,
    "рj": 4806,
    "рk": 4807,
    "рl": 4808,
    "рm": 4809,
    "рn": 4810,
    "рo": 4811,
    "рp": 4812,
    "рq": 4813,
    "рr": 4814,
    "рs": 4815,
    "рt": 4816,
    "рu": 4817,
    "рv": 4818,
    "рw": 4819,
    "рx": 4820,
    "рy": 4821,
    "рz": 4822,
    "ра": 4823,
    "рб": 4824,
    "рв": 4825,
    "рг": 4826,
    "рд": 4827,
    "ре": 4828,
    "рё": 4829,
    "рж": 4830,
    "рз": 4831,
    "ри": 4832,
    "рй": 4833,
    "рк": 4834,
    "рл": 4835,
    "рм": 4836,
    "рн": 4837,
    "ро": 4838,
    "рп": 4839,
    "рр": 4840,
    "рс": 4841,
    "рт": 4842,
    "ру": 4843,
    "рф": 4844,
    "рх": 4845,
    "рц": 4846,
    "рч": 4847,
    "рш": 4848,
    "рщ": 4849,
    "ръ": 4850,
    "ры": 4851,
    "рь": 4852,
    "рэ": 4853,
    "рю": 4854,
    "ря": 4855,
    "рә": 4856,
    "рі": 4857,
    "рң": 4858,
    "рғ": 4859,
    "рү": 4860,
    "рұ": 4861,
    "рқ": 4862,
    "рө": 4863,
    "рһ": 4864,
    "р1": 4865,
    "р2": 4866,
    "р3": 4867,
    "р4": 4868,
    "р5": 4869,
    "р6": 4870,
    "р7": 4871,
    "р8": 4872,
    "р9": 4873,
    "р0": 4874,
    "р!": 4875,
    "р@": 4876,
    "р#": 4877,
    "р$": 4878,
    "р%": 4879,
    "р^": 4880,
    "р:": 4881,
    "р&": 4882,
    "р*": 4883,
    "р(": 4884,
    "р)": 4885,
    "р_": 4886,
    "р+": 4887,
    "р=": 4888,
    "р-": 4889,
    "р?": 4890,
    "р/": 4891,
    "р>": 4892,
    "р.": 4893,
    "р<": 4894,
    "р,": 4895,
    "р`": 4896,
    "р|": 4897,
    "р\\": 4898,
    "р'": 4899,
    "р\"": 4900,
    "р[": 4901,
    "р]": 4902,
    "р{": 4903,
    "р}": 4904,
    "р ": 4905,
    "сa": 4906,
    "сb": 4907,
    "сc": 4908,
    "сd": 4909,
    "сe": 4910,
    "сf": 4911,
    "сg": 4912,
    "сh": 4913,
    "сi": 4914,
    "сj": 4915,
    "сk": 4916,
    "сl": 4917,
    "сm": 4918,
    "сn": 4919,
    "сo": 4920,
    "сp": 4921,
    "сq": 4922,
    "сr": 4923,
    "сs": 4924,
    "сt": 4925,
    "сu": 4926,
    "сv": 4927,
    "сw": 4928,
    "сx": 4929,
    "сy": 4930,
    "сz": 4931,
    "са": 4932,
    "сб": 4933,
    "св": 4934,
    "сг": 4935,
    "сд": 4936,
    "се": 4937,
    "сё": 4938,
    "сж": 4939,
    "сз": 4940,
    "си": 4941,
    "сй": 4942,
    "ск": 4943,
    "сл": 4944,
    "см": 4945,
    "сн": 4946,
    "со": 4947,
    "сп": 4948,
    "ср": 4949,
    "сс": 4950,
    "ст": 4951,
    "су": 4952,
    "сф": 4953,
    "сх": 4954,
    "сц": 4955,
    "сч": 4956,
    "сш": 4957,
    "сщ": 4958,
    "съ": 4959,
    "сы": 4960,
    "сь": 4961,
    "сэ": 4962,
    "сю": 4963,
    "ся": 4964,
    "сә": 4965,
    "сі": 4966,
    "сң": 4967,
    "сғ": 4968,
    "сү": 4969,
    "сұ": 4970,
    "сқ": 4971,
    "сө": 4972,
    "сһ": 4973,
    "с1": 4974,
    "с2": 4975,
    "с3": 4976,
    "с4": 4977,
    "с5": 4978,
    "с6": 4979,
    "с7": 4980,
    "с8": 4981,
    "с9": 4982,
    "с0": 4983,
    "с!": 4984,
    "с@": 4985,
    "с#": 4986,
    "с$": 4987,
    "с%": 4988,
    "с^": 4989,
    "с:": 4990,
    "с&": 4991,
    "с*": 4992,
    "с(": 4993,
    "с)": 4994,
    "с_": 4995,
    "с+": 4996,
    "с=": 4997,
    "с-": 4998,
    "с?": 4999,
    "с/": 5000,
    "с>": 5001,
    "с.": 5002,
    "с<": 5003,
    "с,": 5004,
    "с`": 5005,
    "с|": 5006,
    "с\\": 5007,
    "с'": 5008,
    "с\"": 5009,
    "с[": 5010,
    "с]": 5011,
    "с{": 5012,
    "с}": 5013,
    "с ": 5014,
    "тa": 5015,
    "тb": 5016,
    "тc": 5017,
    "тd": 5018,
    "тe": 5019,
    "тf": 5020,
    "тg": 5021,
    "тh": 5022,
    "тi": 5023,
    "тj": 5024,
    "тk": 5025,
    "тl": 5026,
    "тm": 5027,
    "тn": 5028,
    "тo": 5029,
    "тp": 5030,
    "тq": 5031,
    "тr": 5032,
    "тs": 5033,
    "тt": 5034,
    "тu": 5035,
    "тv": 5036,
    "тw": 5037,
    "тx": 5038,
    "тy": 5039,
    "тz": 5040,
    "та": 5041,
    "тб": 5042,
    "тв": 5043,
    "тг": 5044,
    "тд": 5045,
    "те": 5046,
    "тё": 5047,
    "тж": 5048,
    "тз": 5049,
    "ти": 5050,
    "тй": 5051,
    "тк": 5052,
    "тл": 5053,
    "тм": 5054,
    "тн": 5055,
    "то": 5056,
    "тп": 5057,
    "тр": 5058,
    "тс": 5059,
    "тт": 5060,
    "ту": 5061,
    "тф": 5062,
    "тх": 5063,
    "тц": 5064,
    "тч": 5065,
    "тш": 5066,
    "тщ": 5067,
    "тъ": 5068,
    "ты": 5069,
    "ть": 5070,
    "тэ": 5071,
    "тю": 5072,
    "тя": 5073,
    "тә": 5074,
    "ті": 5075,
    "тң": 5076,
    "тғ": 5077,
    "тү": 5078,
    "тұ": 5079,
    "тқ": 5080,
    "тө": 5081,
    "тһ": 5082,
    "т1": 5083,
    "т2": 5084,
    "т3": 5085,
    "т4": 5086,
    "т5": 5087,
    "т6": 5088,
    "т7": 5089,
    "т8": 5090,
    "т9": 5091,
    "т0": 5092,
    "т!": 5093,
    "т@": 5094,
    "т#": 5095,
    "т$": 5096,
    "т%": 5097,
    "т^": 5098,
    "т:": 5099,
    "т&": 5100,
    "т*": 5101,
    "т(": 5102,
    "т)": 5103,
    "т_": 5104,
    "т+": 5105,
    "т=": 5106,
    "т-": 5107,
    "т?": 5108,
    "т/": 5109,
    "т>": 5110,
    "т.": 5111,
    "т<": 5112,
    "т,": 5113,
    "т`": 5114,
    "т|": 5115,
    "т\\": 5116,
    "т'": 5117,
    "т\"": 5118,
    "т[": 5119,
    "т]": 5120,
    "т{": 5121,
    "т}": 5122,
    "т ": 5123,
    "уa": 5124,
    "уb": 5125,
    "уc": 5126,
    "уd": 5127,
    "уe": 5128,
    "уf": 5129,
    "уg": 5130,
    "уh": 5131,
    "уi": 5132,
    "уj": 5133,
    "уk": 5134,
    "уl": 5135,
    "уm": 5136,
    "уn": 5137,
    "уo": 5138,
    "уp": 5139,
    "уq": 5140,
    "уr": 5141,
    "уs": 5142,
    "уt": 5143,
    "уu": 5144,
    "уv": 5145,
    "уw": 5146,
    "уx": 5147,
    "уy": 5148,
    "уz": 5149,
    "уа": 5150,
    "уб": 5151,
    "ув": 5152,
    "уг": 5153,
    "уд": 5154,
    "уе": 5155,
    "уё": 5156,
    "уж": 5157,
    "уз": 5158,
    "уи": 5159,
    "уй": 5160,
    "ук": 5161,
    "ул": 5162,
    "ум": 5163,
    "ун": 5164,
    "уо": 5165,
    "уп": 5166,
    "ур": 5167,
    "ус": 5168,
    "ут": 5169,
    "уу": 5170,
    "уф": 5171,
    "ух": 5172,
    "уц": 5173,
    "уч": 5174,
    "уш": 5175,
    "ущ": 5176,
    "уъ": 5177,
    "уы": 5178,
    "уь": 5179,
    "уэ": 5180,
    "ую": 5181,
    "уя": 5182,
    "уә": 5183,
    "уі": 5184,
    "уң": 5185,
    "уғ": 5186,
    "уү": 5187,
    "уұ": 5188,
    "уқ": 5189,
    "уө": 5190,
    "уһ": 5191,
    "у1": 5192,
    "у2": 5193,
    "у3": 5194,
    "у4": 5195,
    "у5": 5196,
    "у6": 5197,
    "у7": 5198,
    "у8": 5199,
    "у9": 5200,
    "у0": 5201,
    "у!": 5202,
    "у@": 5203,
    "у#": 5204,
    "у$": 5205,
    "у%": 5206,
    "у^": 5207,
    "у:": 5208,
    "у&": 5209,
    "у*": 5210,
    "у(": 5211,
    "у)": 5212,
    "у_": 5213,
    "у+": 5214,
    "у=": 5215,
    "у-": 5216,
    "у?": 5217,
    "у/": 5218,
    "у>": 5219,
    "у.": 5220,
    "у<": 5221,
    "у,": 5222,
    "у`": 5223,
    "у|": 5224,
    "у\\": 5225,
    "у'": 5226,
    "у\"": 5227,
    "у[": 5228,
    "у]": 5229,
    "у{": 5230,
    "у}": 5231,
    "у ": 5232,
    "фa": 5233,
    "фb": 5234,
    "фc": 5235,
    "фd": 5236,
    "фe": 5237,
    "фf": 5238,
    "фg": 5239,
    "фh": 5240,
    "фi": 5241,
    "фj": 5242,
    "фk": 5243,
    "фl": 5244,
    "фm": 5245,
    "фn": 5246,
    "фo": 5247,
    "фp": 5248,
    "фq": 5249,
    "фr": 5250,
    "фs": 5251,
    "фt": 5252,
    "фu": 5253,
    "фv": 5254,
    "фw": 5255,
    "фx": 5256,
    "фy": 5257,
    "фz": 5258,
    "фа": 5259,
    "фб": 5260,
    "фв": 5261,
    "фг": 5262,
    "фд": 5263,
    "фе": 5264,
    "фё": 5265,
    "фж": 5266,
    "фз": 5267,
    "фи": 5268,
    "фй": 5269,
    "фк": 5270,
    "фл": 5271,
    "фм": 5272,
    "фн": 5273,
    "фо": 5274,
    "фп": 5275,
    "фр": 5276,
    "фс": 5277,
    "фт": 5278,
    "фу": 5279,
    "фф": 5280,
    "фх": 5281,
    "фц": 5282,
    "фч": 5283,
    "фш": 5284,
    "фщ": 5285,
    "фъ": 5286,
    "фы": 5287,
    "фь": 5288,
    "фэ": 5289,
    "фю": 5290,
    "фя": 5291,
    "фә": 5292,
    "фі": 5293,
    "фң": 5294,
    "фғ": 5295,
    "фү": 5296,
    "фұ": 5297,
    "фқ": 5298,
    "фө": 5299,
    "фһ": 5300,
    "ф1": 5301,
    "ф2": 5302,
    "ф3": 5303,
    "ф4": 5304,
    "ф5": 5305,
    "ф6": 5306,
    "ф7": 5307,
    "ф8": 5308,
    "ф9": 5309,
    "ф0": 5310,
    "ф!": 5311,
    "ф@": 5312,
    "ф#": 5313,
    "ф$": 5314,
    "ф%": 5315,
    "ф^": 5316,
    "ф:": 5317,
    "ф&": 5318,
    "ф*": 5319,
    "ф(": 5320,
    "ф)": 5321,
    "ф_": 5322,
    "ф+": 5323,
    "ф=": 5324,
    "ф-": 5325,
    "ф?": 5326,
    "ф/": 5327,
    "ф>": 5328,
    "ф.": 5329,
    "ф<": 5330,
    "ф,": 5331,
    "ф`": 5332,
    "ф|": 5333,
    "ф\\": 5334,
    "ф'": 5335,
    "ф\"": 5336,
    "ф[": 5337,
    "ф]": 5338,
    "ф{": 5339,
    "ф}": 5340,
    "ф ": 5341,
    "хa": 5342,
    "хb": 5343,
    "хc": 5344,
    "хd": 5345,
    "хe": 5346,
    "хf": 5347,
    "хg": 5348,
    "хh": 5349,
    "хi": 5350,
    "хj": 5351,
    "хk": 5352,
    "хl": 5353,
    "хm": 5354,
    "хn": 5355,
    "хo": 5356,
    "хp": 5357,
    "хq": 5358,
    "хr": 5359,
    "хs": 5360,
    "хt": 5361,
    "хu": 5362,
    "хv": 5363,
    "хw": 5364,
    "хx": 5365,
    "хy": 5366,
    "хz": 5367,
    "ха": 5368,
    "хб": 5369,
    "хв": 5370,
    "хг": 5371,
    "хд": 5372,
    "хе": 5373,
    "хё": 5374,
    "хж": 5375,
    "хз": 5376,
    "хи": 5377,
    "хй": 5378,
    "хк": 5379,
    "хл": 5380,
    "хм": 5381,
    "хн": 5382,
    "хо": 5383,
    "хп": 5384,
    "хр": 5385,
    "хс": 5386,
    "хт": 5387,
    "ху": 5388,
    "хф": 5389,
    "хх": 5390,
    "хц": 5391,
    "хч": 5392,
    "хш": 5393,
    "хщ": 5394,
    "хъ": 5395,
    "хы": 5396,
    "хь": 5397,
    "хэ": 5398,
    "хю": 5399,
    "хя": 5400,
    "хә": 5401,
    "хі": 5402,
    "хң": 5403,
    "хғ": 5404,
    "хү": 5405,
    "хұ": 5406,
    "хқ": 5407,
    "хө": 5408,
    "хһ": 5409,
    "х1": 5410,
    "х2": 5411,
    "х3": 5412,
    "х4": 5413,
    "х5": 5414,
    "х6": 5415,
    "х7": 5416,
    "х8": 5417,
    "х9": 5418,
    "х0": 5419,
    "х!": 5420,
    "х@": 5421,
    "х#": 5422,
    "х$": 5423,
    "х%": 5424,
    "х^": 5425,
    "х:": 5426,
    "х&": 5427,
    "х*": 5428,
    "х(": 5429,
    "х)": 5430,
    "х_": 5431,
    "х+": 5432,
    "х=": 5433,
    "х-": 5434,
    "х?": 5435,
    "х/": 5436,
    "х>": 5437,
    "х.": 5438,
    "х<": 5439,
    "х,": 5440,
    "х`": 5441,
    "х|": 5442,
    "х\\": 5443,
    "х'": 5444,
    "х\"": 5445,
    "х[": 5446,
    "х]": 5447,
    "х{": 5448,
    "х}": 5449,
    "х ": 5450,
    "цa": 5451,
    "цb": 5452,
    "цc": 5453,
    "цd": 5454,
    "цe": 5455,
    "цf": 5456,
    "цg": 5457,
    "цh": 5458,
    "цi": 5459,
    "цj": 5460,
    "цk": 5461,
    "цl": 5462,
    "цm": 5463,
    "цn": 5464,
    "цo": 5465,
    "цp": 5466,
    "цq": 5467,
    "цr": 5468,
    "цs": 5469,
    "цt": 5470,
    "цu": 5471,
    "цv": 5472,
    "цw": 5473,
    "цx": 5474,
    "цy": 5475,
    "цz": 5476,
    "ца": 5477,
    "цб": 5478,
    "цв": 5479,
    "цг": 5480,
    "цд": 5481,
    "це": 5482,
    "цё": 5483,
    "цж": 5484,
    "цз": 5485,
    "ци": 5486,
    "цй": 5487,
    "цк": 5488,
    "цл": 5489,
    "цм": 5490,
    "цн": 5491,
    "цо": 5492,
    "цп": 5493,
    "цр": 5494,
    "цс": 5495,
    "цт": 5496,
    "цу": 5497,
    "цф": 5498,
    "цх": 5499,
    "цц": 5500,
    "цч": 5501,
    "цш": 5502,
    "цщ": 5503,
    "цъ": 5504,
    "цы": 5505,
    "ць": 5506,
    "цэ": 5507,
    "цю": 5508,
    "ця": 5509,
    "цә": 5510,
    "ці": 5511,
    "цң": 5512,
    "цғ": 5513,
    "цү": 5514,
    "цұ": 5515,
    "цқ": 5516,
    "цө": 5517,
    "цһ": 5518,
    "ц1": 5519,
    "ц2": 5520,
    "ц3": 5521,
    "ц4": 5522,
    "ц5": 5523,
    "ц6": 5524,
    "ц7": 5525,
    "ц8": 5526,
    "ц9": 5527,
    "ц0": 5528,
    "ц!": 5529,
    "ц@": 5530,
    "ц#": 5531,
    "ц$": 5532,
    "ц%": 5533,
    "ц^": 5534,
    "ц:": 5535,
    "ц&": 5536,
    "ц*": 5537,
    "ц(": 5538,
    "ц)": 5539,
    "ц_": 5540,
    "ц+": 5541,
    "ц=": 5542,
    "ц-": 5543,
    "ц?": 5544,
    "ц/": 5545,
    "ц>": 5546,
    "ц.": 5547,
    "ц<": 5548,
    "ц,": 5549,
    "ц`": 5550,
    "ц|": 5551,
    "ц\\": 5552,
    "ц'": 5553,
    "ц\"": 5554,
    "ц[": 5555,
    "ц]": 5556,
    "ц{": 5557,
    "ц}": 5558,
    "ц ": 5559,
    "чa": 5560,
    "чb": 5561,
    "чc": 5562,
    "чd": 5563,
    "чe": 5564,
    "чf": 5565,
    "чg": 5566,
    "чh": 5567,
    "чi": 5568,
    "чj": 5569,
    "чk": 5570,
    "чl": 5571,
    "чm": 5572,
    "чn": 5573,
    "чo": 5574,
    "чp": 5575,
    "чq": 5576,
    "чr": 5577,
    "чs": 5578,
    "чt": 5579,
    "чu": 5580,
    "чv": 5581,
    "чw": 5582,
    "чx": 5583,
    "чy": 5584,
    "чz": 5585,
    "ча": 5586,
    "чб": 5587,
    "чв": 5588,
    "чг": 5589,
    "чд": 5590,
    "че": 5591,
    "чё": 5592,
    "чж": 5593,
    "чз": 5594,
    "чи": 5595,
    "чй": 5596,
    "чк": 5597,
    "чл": 5598,
    "чм": 5599,
    "чн": 5600,
    "чо": 5601,
    "чп": 5602,
    "чр": 5603,
    "чс": 5604,
    "чт": 5605,
    "чу": 5606,
    "чф": 5607,
    "чх": 5608,
    "чц": 5609,
    "чч": 5610,
    "чш": 5611,
    "чщ": 5612,
    "чъ": 5613,
    "чы": 5614,
    "чь": 5615,
    "чэ": 5616,
    "чю": 5617,
    "чя": 5618,
    "чә": 5619,
    "чі": 5620,
    "чң": 5621,
    "чғ": 5622,
    "чү": 5623,
    "чұ": 5624,
    "чқ": 5625,
    "чө": 5626,
    "чһ": 5627,
    "ч1": 5628,
    "ч2": 5629,
    "ч3": 5630,
    "ч4": 5631,
    "ч5": 5632,
    "ч6": 5633,
    "ч7": 5634,
    "ч8": 5635,
    "ч9": 5636,
    "ч0": 5637,
    "ч!": 5638,
    "ч@": 5639,
    "ч#": 5640,
    "ч$": 5641,
    "ч%": 5642,
    "ч^": 5643,
    "ч:": 5644,
    "ч&": 5645,
    "ч*": 5646,
    "ч(": 5647,
    "ч)": 5648,
    "ч_": 5649,
    "ч+": 5650,
    "ч=": 5651,
    "ч-": 5652,
    "ч?": 5653,
    "ч/": 5654,
    "ч>": 5655,
    "ч.": 5656,
    "ч<": 5657,
    "ч,": 5658,
    "ч`": 5659,
    "ч|": 5660,
    "ч\\": 5661,
    "ч'": 5662,
    "ч\"": 5663,
    "ч[": 5664,
    "ч]": 5665,
    "ч{": 5666,
    "ч}": 5667,
    "ч ": 5668,
    "шa": 5669,
    "шb": 5670,
    "шc": 5671,
    "шd": 5672,
    "шe": 5673,
    "шf": 5674,
    "шg": 5675,
    "шh": 5676,
    "шi": 5677,
    "шj": 5678,
    "шk": 5679,
    "шl": 5680,
    "шm": 5681,
    "шn": 5682,
    "шo": 5683,
    "шp": 5684,
    "шq": 5685,
    "шr": 5686,
    "шs": 5687,
    "шt": 5688,
    "шu": 5689,
    "шv": 5690,
    "шw": 5691,
    "шx": 5692,
    "шy": 5693,
    "шz": 5694,
    "ша": 5695,
    "шб": 5696,
    "шв": 5697,
    "шг": 5698,
    "шд": 5699,
    "ше": 5700,
    "шё": 5701,
    "шж": 5702,
    "шз": 5703,
    "ши": 5704,
    "шй": 5705,
    "шк": 5706,
    "шл": 5707,
    "шм": 5708,
    "шн": 5709,
    "шо": 5710,
    "шп": 5711,
    "шр": 5712,
    "шс": 5713,
    "шт": 5714,
    "шу": 5715,
    "шф": 5716,
    "шх": 5717,
    "шц": 5718,
    "шч": 5719,
    "шш": 5720,
    "шщ": 5721,
    "шъ": 5722,
    "шы": 5723,
    "шь": 5724,
    "шэ": 5725,
    "шю": 5726,
    "шя": 5727,
    "шә": 5728,
    "ші": 5729,
    "шң": 5730,
    "шғ": 5731,
    "шү": 5732,
    "шұ": 5733,
    "шқ": 5734,
    "шө": 5735,
    "шһ": 5736,
    "ш1": 5737,
    "ш2": 5738,
    "ш3": 5739,
    "ш4": 5740,
    "ш5": 5741,
    "ш6": 5742,
    "ш7": 5743,
    "ш8": 5744,
    "ш9": 5745,
    "ш0": 5746,
    "ш!": 5747,
    "ш@": 5748,
    "ш#": 5749,
    "ш$": 5750,
    "ш%": 5751,
    "ш^": 5752,
    "ш:": 5753,
    "ш&": 5754,
    "ш*": 5755,
    "ш(": 5756,
    "ш)": 5757,
    "ш_": 5758,
    "ш+": 5759,
    "ш=": 5760,
    "ш-": 5761,
    "ш?": 5762,
    "ш/": 5763,
    "ш>": 5764,
    "ш.": 5765,
    "ш<": 5766,
    "ш,": 5767,
    "ш`": 5768,
    "ш|": 5769,
    "ш\\": 5770,
    "ш'": 5771,
    "ш\"": 5772,
    "ш[": 5773,
    "ш]": 5774,
    "ш{": 5775,
    "ш}": 5776,
    "ш ": 5777,
    "щa": 5778,
    "щb": 5779,
    "щc": 5780,
    "щd": 5781,
    "щe": 5782,
    "щf": 5783,
    "щg": 5784,
    "щh": 5785,
    "щi": 5786,
    "щj": 5787,
    "щk": 5788,
    "щl": 5789,
    "щm": 5790,
    "щn": 5791,
    "щo": 5792,
    "щp": 5793,
    "щq": 5794,
    "щr": 5795,
    "щs": 5796,
    "щt": 5797,
    "щu": 5798,
    "щv": 5799,
    "щw": 5800,
    "щx": 5801,
    "щy": 5802,
    "щz": 5803,
    "ща": 5804,
    "щб": 5805,
    "щв": 5806,
    "щг": 5807,
    "щд": 5808,
    "ще": 5809,
    "щё": 5810,
    "щж": 5811,
    "щз": 5812,
    "щи": 5813,
    "щй": 5814,
    "щк": 5815,
    "щл": 5816,
    "щм": 5817,
    "щн": 5818,
    "що": 5819,
    "щп": 5820,
    "щр": 5821,
    "щс": 5822,
    "щт": 5823,
    "щу": 5824,
    "щф": 5825,
    "щх": 5826,
    "щц": 5827,
    "щч": 5828,
    "щш": 5829,
    "щщ": 5830,
    "щъ": 5831,
    "щы": 5832,
    "щь": 5833,
    "щэ": 5834,
    "щю": 5835,
    "щя": 5836,
    "щә": 5837,
    "щі": 5838,
    "щң": 5839,
    "щғ": 5840,
    "щү": 5841,
    "щұ": 5842,
    "щқ": 5843,
    "щө": 5844,
    "щһ": 5845,
    "щ1": 5846,
    "щ2": 5847,
    "щ3": 5848,
    "щ4": 5849,
    "щ5": 5850,
    "щ6": 5851,
    "щ7": 5852,
    "щ8": 5853,
    "щ9": 5854,
    "щ0": 5855,
    "щ!": 5856,
    "щ@": 5857,
    "щ#": 5858,
    "щ$": 5859,
    "щ%": 5860,
    "щ^": 5861,
    "щ:": 5862,
    "щ&": 5863,
    "щ*": 5864,
    "щ(": 5865,
    "щ)": 5866,
    "щ_": 5867,
    "щ+": 5868,
    "щ=": 5869,
    "щ-": 5870,
    "щ?": 5871,
    "щ/": 5872,
    "щ>": 5873,
    "щ.": 5874,
    "щ<": 5875,
    "щ,": 5876,
    "щ`": 5877,
    "щ|": 5878,
    "щ\\": 5879,
    "щ'": 5880,
    "щ\"": 5881,
    "щ[": 5882,
    "щ]": 5883,
    "щ{": 5884,
    "щ}": 5885,
    "щ ": 5886,
    "ъa": 5887,
    "ъb": 5888,
    "ъc": 5889,
    "ъd": 5890,
    "ъe": 5891,
    "ъf": 5892,
    "ъg": 5893,
    "ъh": 5894,
    "ъi": 5895,
    "ъj": 5896,
    "ъk": 5897,
    "ъl": 5898,
    "ъm": 5899,
    "ъn": 5900,
    "ъo": 5901,
    "ъp": 5902,
    "ъq": 5903,
    "ъr": 5904,
    "ъs": 5905,
    "ъt": 5906,
    "ъu": 5907,
    "ъv": 5908,
    "ъw": 5909,
    "ъx": 5910,
    "ъy": 5911,
    "ъz": 5912,
    "ъа": 5913,
    "ъб": 5914,
    "ъв": 5915,
    "ъг": 5916,
    "ъд": 5917,
    "ъе": 5918,
    "ъё": 5919,
    "ъж": 5920,
    "ъз": 5921,
    "ъи": 5922,
    "ъй": 5923,
    "ък": 5924,
    "ъл": 5925,
    "ъм": 5926,
    "ън": 5927,
    "ъо": 5928,
    "ъп": 5929,
    "ър": 5930,
    "ъс": 5931,
    "ът": 5932,
    "ъу": 5933,
    "ъф": 5934,
    "ъх": 5935,
    "ъц": 5936,
    "ъч": 5937,
    "ъш": 5938,
    "ъщ": 5939,
    "ъъ": 5940,
    "ъы": 5941,
    "ъь": 5942,
    "ъэ": 5943,
    "ъю": 5944,
    "ъя": 5945,
    "ъә": 5946,
    "ъі": 5947,
    "ъң": 5948,
    "ъғ": 5949,
    "ъү": 5950,
    "ъұ": 5951,
    "ъқ": 5952,
    "ъө": 5953,
    "ъһ": 5954,
    "ъ1": 5955,
    "ъ2": 5956,
    "ъ3": 5957,
    "ъ4": 5958,
    "ъ5": 5959,
    "ъ6": 5960,
    "ъ7": 5961,
    "ъ8": 5962,
    "ъ9": 5963,
    "ъ0": 5964,
    "ъ!": 5965,
    "ъ@": 5966,
    "ъ#": 5967,
    "ъ$": 5968,
    "ъ%": 5969,
    "ъ^": 5970,
    "ъ:": 5971,
    "ъ&": 5972,
    "ъ*": 5973,
    "ъ(": 5974,
    "ъ)": 5975,
    "ъ_": 5976,
    "ъ+": 5977,
    "ъ=": 5978,
    "ъ-": 5979,
    "ъ?": 5980,
    "ъ/": 5981,
    "ъ>": 5982,
    "ъ.": 5983,
    "ъ<": 5984,
    "ъ,": 5985,
    "ъ`": 5986,
    "ъ|": 5987,
    "ъ\\": 5988,
    "ъ'": 5989,
    "ъ\"": 5990,
    "ъ[": 5991,
    "ъ]": 5992,
    "ъ{": 5993,
    "ъ}": 5994,
    "ъ ": 5995,
    "ыa": 5996,
    "ыb": 5997,
    "ыc": 5998,
    "ыd": 5999,
    "ыe": 6000,
    "ыf": 6001,
    "ыg": 6002,
    "ыh": 6003,
    "ыi": 6004,
    "ыj": 6005,
    "ыk": 6006,
    "ыl": 6007,
    "ыm": 6008,
    "ыn": 6009,
    "ыo": 6010,
    "ыp": 6011,
    "ыq": 6012,
    "ыr": 6013,
    "ыs": 6014,
    "ыt": 6015,
    "ыu": 6016,
    "ыv": 6017,
    "ыw": 6018,
    "ыx": 6019,
    "ыy": 6020,
    "ыz": 6021,
    "ыа": 6022,
    "ыб": 6023,
    "ыв": 6024,
    "ыг": 6025,
    "ыд": 6026,
    "ые": 6027,
    "ыё": 6028,
    "ыж": 6029,
    "ыз": 6030,
    "ыи": 6031,
    "ый": 6032,
    "ык": 6033,
    "ыл": 6034,
    "ым": 6035,
    "ын": 6036,
    "ыо": 6037,
    "ып": 6038,
    "ыр": 6039,
    "ыс": 6040,
    "ыт": 6041,
    "ыу": 6042,
    "ыф": 6043,
    "ых": 6044,
    "ыц": 6045,
    "ыч": 6046,
    "ыш": 6047,
    "ыщ": 6048,
    "ыъ": 6049,
    "ыы": 6050,
    "ыь": 6051,
    "ыэ": 6052,
    "ыю": 6053,
    "ыя": 6054,
    "ыә": 6055,
    "ыі": 6056,
    "ың": 6057,
    "ығ": 6058,
    "ыү": 6059,
    "ыұ": 6060,
    "ық": 6061,
    "ыө": 6062,
    "ыһ": 6063,
    "ы1": 6064,
    "ы2": 6065,
    "ы3": 6066,
    "ы4": 6067,
    "ы5": 6068,
    "ы6": 6069,
    "ы7": 6070,
    "ы8": 6071,
    "ы9": 6072,
    "ы0": 6073,
    "ы!": 6074,
    "ы@": 6075,
    "ы#": 6076,
    "ы$": 6077,
    "ы%": 6078,
    "ы^": 6079,
    "ы:": 6080,
    "ы&": 6081,
    "ы*": 6082,
    "ы(": 6083,
    "ы)": 6084,
    "ы_": 6085,
    "ы+": 6086,
    "ы=": 6087,
    "ы-": 6088,
    "ы?": 6089,
    "ы/": 6090,
    "ы>": 6091,
    "ы.": 6092,
    "ы<": 6093,
    "ы,": 6094,
    "ы`": 6095,
    "ы|": 6096,
    "ы\\": 6097,
    "ы'": 6098,
    "ы\"": 6099,
    "ы[": 6100,
    "ы]": 6101,
    "ы{": 6102,
    "ы}": 6103,
    "ы ": 6104,
    "ьa": 6105,
    "ьb": 6106,
    "ьc": 6107,
    "ьd": 6108,
    "ьe": 6109,
    "ьf": 6110,
    "ьg": 6111,
    "ьh": 6112,
    "ьi": 6113,
    "ьj": 6114,
    "ьk": 6115,
    "ьl": 6116,
    "ьm": 6117,
    "ьn": 6118,
    "ьo": 6119,
    "ьp": 6120,
    "ьq": 6121,
    "ьr": 6122,
    "ьs": 6123,
    "ьt": 6124,
    "ьu": 6125,
    "ьv": 6126,
    "ьw": 6127,
    "ьx": 6128,
    "ьy": 6129,
    "ьz": 6130,
    "ьа": 6131,
    "ьб": 6132,
    "ьв": 6133,
    "ьг": 6134,
    "ьд": 6135,
    "ье": 6136,
    "ьё": 6137,
    "ьж": 6138,
    "ьз": 6139,
    "ьи": 6140,
    "ьй": 6141,
    "ьк": 6142,
    "ьл": 6143,
    "ьм": 6144,
    "ьн": 6145,
    "ьо": 6146,
    "ьп": 6147,
    "ьр": 6148,
    "ьс": 6149,
    "ьт": 6150,
    "ьу": 6151,
    "ьф": 6152,
    "ьх": 6153,
    "ьц": 6154,
    "ьч": 6155,
    "ьш": 6156,
    "ьщ": 6157,
    "ьъ": 6158,
    "ьы": 6159,
    "ьь": 6160,
    "ьэ": 6161,
    "ью": 6162,
    "ья": 6163,
    "ьә": 6164,
    "ьі": 6165,
    "ьң": 6166,
    "ьғ": 6167,
    "ьү": 6168,
    "ьұ": 6169,
    "ьқ": 6170,
    "ьө": 6171,
    "ьһ": 6172,
    "ь1": 6173,
    "ь2": 6174,
    "ь3": 6175,
    "ь4": 6176,
    "ь5": 6177,
    "ь6": 6178,
    "ь7": 6179,
    "ь8": 6180,
    "ь9": 6181,
    "ь0": 6182,
    "ь!": 6183,
    "ь@": 6184,
    "ь#": 6185,
    "ь$": 6186,
    "ь%": 6187,
    "ь^": 6188,
    "ь:": 6189,
    "ь&": 6190,
    "ь*": 6191,
    "ь(": 6192,
    "ь)": 6193,
    "ь_": 6194,
    "ь+": 6195,
    "ь=": 6196,
    "ь-": 6197,
    "ь?": 6198,
    "ь/": 6199,
    "ь>": 6200,
    "ь.": 6201,
    "ь<": 6202,
    "ь,": 6203,
    "ь`": 6204,
    "ь|": 6205,
    "ь\\": 6206,
    "ь'": 6207,
    "ь\"": 6208,
    "ь[": 6209,
    "ь]": 6210,
    "ь{": 6211,
    "ь}": 6212,
    "ь ": 6213,
    "эa": 6214,
    "эb": 6215,
    "эc": 6216,
    "эd": 6217,
    "эe": 6218,
    "эf": 6219,
    "эg": 6220,
    "эh": 6221,
    "эi": 6222,
    "эj": 6223,
    "эk": 6224,
    "эl": 6225,
    "эm": 6226,
    "эn": 6227,
    "эo": 6228,
    "эp": 6229,
    "эq": 6230,
    "эr": 6231,
    "эs": 6232,
    "эt": 6233,
    "эu": 6234,
    "эv": 6235,
    "эw": 6236,
    "эx": 6237,
    "эy": 6238,
    "эz": 6239,
    "эа": 6240,
    "эб": 6241,
    "эв": 6242,
    "эг": 6243,
    "эд": 6244,
    "эе": 6245,
    "эё": 6246,
    "эж": 6247,
    "эз": 6248,
    "эи": 6249,
    "эй": 6250,
    "эк": 6251,
    "эл": 6252,
    "эм": 6253,
    "эн": 6254,
    "эо": 6255,
    "эп": 6256,
    "эр": 6257,
    "эс": 6258,
    "эт": 6259,
    "эу": 6260,
    "эф": 6261,
    "эх": 6262,
    "эц": 6263,
    "эч": 6264,
    "эш": 6265,
    "эщ": 6266,
    "эъ": 6267,
    "эы": 6268,
    "эь": 6269,
    "ээ": 6270,
    "эю": 6271,
    "эя": 6272,
    "эә": 6273,
    "эі": 6274,
    "эң": 6275,
    "эғ": 6276,
    "эү": 6277,
    "эұ": 6278,
    "эқ": 6279,
    "эө": 6280,
    "эһ": 6281,
    "э1": 6282,
    "э2": 6283,
    "э3": 6284,
    "э4": 6285,
    "э5": 6286,
    "э6": 6287,
    "э7": 6288,
    "э8": 6289,
    "э9": 6290,
    "э0": 6291,
    "э!": 6292,
    "э@": 6293,
    "э#": 6294,
    "э$": 6295,
    "э%": 6296,
    "э^": 6297,
    "э:": 6298,
    "э&": 6299,
    "э*": 6300,
    "э(": 6301,
    "э)": 6302,
    "э_": 6303,
    "э+": 6304,
    "э=": 6305,
    "э-": 6306,
    "э?": 6307,
    "э/": 6308,
    "э>": 6309,
    "э.": 6310,
    "э<": 6311,
    "э,": 6312,
    "э`": 6313,
    "э|": 6314,
    "э\\": 6315,
    "э'": 6316,
    "э\"": 6317,
    "э[": 6318,
    "э]": 6319,
    "э{": 6320,
    "э}": 6321,
    "э ": 6322,
    "юa": 6323,
    "юb": 6324,
    "юc": 6325,
    "юd": 6326,
    "юe": 6327,
    "юf": 6328,
    "юg": 6329,
    "юh": 6330,
    "юi": 6331,
    "юj": 6332,
    "юk": 6333,
    "юl": 6334,
    "юm": 6335,
    "юn": 6336,
    "юo": 6337,
    "юp": 6338,
    "юq": 6339,
    "юr": 6340,
    "юs": 6341,
    "юt": 6342,
    "юu": 6343,
    "юv": 6344,
    "юw": 6345,
    "юx": 6346,
    "юy": 6347,
    "юz": 6348,
    "юа": 6349,
    "юб": 6350,
    "юв": 6351,
    "юг": 6352,
    "юд": 6353,
    "юе": 6354,
    "юё": 6355,
    "юж": 6356,
    "юз": 6357,
    "юи": 6358,
    "юй": 6359,
    "юк": 6360,
    "юл": 6361,
    "юм": 6362,
    "юн": 6363,
    "юо": 6364,
    "юп": 6365,
    "юр": 6366,
    "юс": 6367,
    "ют": 6368,
    "юу": 6369,
    "юф": 6370,
    "юх": 6371,
    "юц": 6372,
    "юч": 6373,
    "юш": 6374,
    "ющ": 6375,
    "юъ": 6376,
    "юы": 6377,
    "юь": 6378,
    "юэ": 6379,
    "юю": 6380,
    "юя": 6381,
    "юә": 6382,
    "юі": 6383,
    "юң": 6384,
    "юғ": 6385,
    "юү": 6386,
    "юұ": 6387,
    "юқ": 6388,
    "юө": 6389,
    "юһ": 6390,
    "ю1": 6391,
    "ю2": 6392,
    "ю3": 6393,
    "ю4": 6394,
    "ю5": 6395,
    "ю6": 6396,
    "ю7": 6397,
    "ю8": 6398,
    "ю9": 6399,
    "ю0": 6400,
    "ю!": 6401,
    "ю@": 6402,
    "ю#": 6403,
    "ю$": 6404,
    "ю%": 6405,
    "ю^": 6406,
    "ю:": 6407,
    "ю&": 6408,
    "ю*": 6409,
    "ю(": 6410,
    "ю)": 6411,
    "ю_": 6412,
    "ю+": 6413,
    "ю=": 6414,
    "ю-": 6415,
    "ю?": 6416,
    "ю/": 6417,
    "ю>": 6418,
    "ю.": 6419,
    "ю<": 6420,
    "ю,": 6421,
    "ю`": 6422,
    "ю|": 6423,
    "ю\\": 6424,
    "ю'": 6425,
    "ю\"": 6426,
    "ю[": 6427,
    "ю]": 6428,
    "ю{": 6429,
    "ю}": 6430,
    "ю ": 6431,
    "яa": 6432,
    "яb": 6433,
    "яc": 6434,
    "яd": 6435,
    "яe": 6436,
    "яf": 6437,
    "яg": 6438,
    "яh": 6439,
    "яi": 6440,
    "яj": 6441,
    "яk": 6442,
    "яl": 6443,
    "яm": 6444,
    "яn": 6445,
    "яo": 6446,
    "яp": 6447,
    "яq": 6448,
    "яr": 6449,
    "яs": 6450,
    "яt": 6451,
    "яu": 6452,
    "яv": 6453,
    "яw": 6454,
    "яx": 6455,
    "яy": 6456,
    "яz": 6457,
    "яа": 6458,
    "яб": 6459,
    "яв": 6460,
    "яг": 6461,
    "яд": 6462,
    "яе": 6463,
    "яё": 6464,
    "яж": 6465,
    "яз": 6466,
    "яи": 6467,
    "яй": 6468,
    "як": 6469,
    "ял": 6470,
    "ям": 6471,
    "ян": 6472,
    "яо": 6473,
    "яп": 6474,
    "яр": 6475,
    "яс": 6476,
    "ят": 6477,
    "яу": 6478,
    "яф": 6479,
    "ях": 6480,
    "яц": 6481,
    "яч": 6482,
    "яш": 6483,
    "ящ": 6484,
    "яъ": 6485,
    "яы": 6486,
    "яь": 6487,
    "яэ": 6488,
    "яю": 6489,
    "яя": 6490,
    "яә": 6491,
    "яі": 6492,
    "яң": 6493,
    "яғ": 6494,
    "яү": 6495,
    "яұ": 6496,
    "яқ": 6497,
    "яө": 6498,
    "яһ": 6499,
    "я1": 6500,
    "я2": 6501,
    "я3": 6502,
    "я4": 6503,
    "я5": 6504,
    "я6": 6505,
    "я7": 6506,
    "я8": 6507,
    "я9": 6508,
    "я0": 6509,
    "я!": 6510,
    "я@": 6511,
    "я#": 6512,
    "я$": 6513,
    "я%": 6514,
    "я^": 6515,
    "я:": 6516,
    "я&": 6517,
    "я*": 6518,
    "я(": 6519,
    "я)": 6520,
    "я_": 6521,
    "я+": 6522,
    "я=": 6523,
    "я-": 6524,
    "я?": 6525,
    "я/": 6526,
    "я>": 6527,
    "я.": 6528,
    "я<": 6529,
    "я,": 6530,
    "я`": 6531,
    "я|": 6532,
    "я\\": 6533,
    "я'": 6534,
    "я\"": 6535,
    "я[": 6536,
    "я]": 6537,
    "я{": 6538,
    "я}": 6539,
    "я ": 6540,
    "әa": 6541,
    "әb": 6542,
    "әc": 6543,
    "әd": 6544,
    "әe": 6545,
    "әf": 6546,
    "әg": 6547,
    "әh": 6548,
    "әi": 6549,
    "әj": 6550,
    "әk": 6551,
    "әl": 6552,
    "әm": 6553,
    "әn": 6554,
    "әo": 6555,
    "әp": 6556,
    "әq": 6557,
    "әr": 6558,
    "әs": 6559,
    "әt": 6560,
    "әu": 6561,
    "әv": 6562,
    "әw": 6563,
    "әx": 6564,
    "әy": 6565,
    "әz": 6566,
    "әа": 6567,
    "әб": 6568,
    "әв": 6569,
    "әг": 6570,
    "әд": 6571,
    "әе": 6572,
    "әё": 6573,
    "әж": 6574,
    "әз": 6575,
    "әи": 6576,
    "әй": 6577,
    "әк": 6578,
    "әл": 6579,
    "әм": 6580,
    "ән": 6581,
    "әо": 6582,
    "әп": 6583,
    "әр": 6584,
    "әс": 6585,
    "әт": 6586,
    "әу": 6587,
    "әф": 6588,
    "әх": 6589,
    "әц": 6590,
    "әч": 6591,
    "әш": 6592,
    "әщ": 6593,
    "әъ": 6594,
    "әы": 6595,
    "әь": 6596,
    "әэ": 6597,
    "әю": 6598,
    "әя": 6599,
    "әә": 6600,
    "әі": 6601,
    "әң": 6602,
    "әғ": 6603,
    "әү": 6604,
    "әұ": 6605,
    "әқ": 6606,
    "әө": 6607,
    "әһ": 6608,
    "ә1": 6609,
    "ә2": 6610,
    "ә3": 6611,
    "ә4": 6612,
    "ә5": 6613,
    "ә6": 6614,
    "ә7": 6615,
    "ә8": 6616,
    "ә9": 6617,
    "ә0": 6618,
    "ә!": 6619,
    "ә@": 6620,
    "ә#": 6621,
    "ә$": 6622,
    "ә%": 6623,
    "ә^": 6624,
    "ә:": 6625,
    "ә&": 6626,
    "ә*": 6627,
    "ә(": 6628,
    "ә)": 6629,
    "ә_": 6630,
    "ә+": 6631,
    "ә=": 6632,
    "ә-": 6633,
    "ә?": 6634,
    "ә/": 6635,
    "ә>": 6636,
    "ә.": 6637,
    "ә<": 6638,
    "ә,": 6639,
    "ә`": 6640,
    "ә|": 6641,
    "ә\\": 6642,
    "ә'": 6643,
    "ә\"": 6644,
    "ә[": 6645,
    "ә]": 6646,
    "ә{": 6647,
    "ә}": 6648,
    "ә ": 6649,
    "іa": 6650,
    "іb": 6651,
    "іc": 6652,
    "іd": 6653,
    "іe": 6654,
    "іf": 6655,
    "іg": 6656,
    "іh": 6657,
    "іi": 6658,
    "іj": 6659,
    "іk": 6660,
    "іl": 6661,
    "іm": 6662,
    "іn": 6663,
    "іo": 6664,
    "іp": 6665,
    "іq": 6666,
    "іr": 6667,
    "іs": 6668,
    "іt": 6669,
    "іu": 6670,
    "іv": 6671,
    "іw": 6672,
    "іx": 6673,
    "іy": 6674,
    "іz": 6675,
    "іа": 6676,
    "іб": 6677,
    "ів": 6678,
    "іг": 6679,
    "ід": 6680,
    "іе": 6681,
    "іё": 6682,
    "іж": 6683,
    "із": 6684,
    "іи": 6685,
    "ій": 6686,
    "ік": 6687,
    "іл": 6688,
    "ім": 6689,
    "ін": 6690,
    "іо": 6691,
    "іп": 6692,
    "ір": 6693,
    "іс": 6694,
    "іт": 6695,
    "іу": 6696,
    "іф": 6697,
    "іх": 6698,
    "іц": 6699,
    "іч": 6700,
    "іш": 6701,
    "іщ": 6702,
    "іъ": 6703,
    "іы": 6704,
    "іь": 6705,
    "іэ": 6706,
    "ію": 6707,
    "ія": 6708,
    "іә": 6709,
    "іі": 6710,
    "ің": 6711,
    "іғ": 6712,
    "іү": 6713,
    "іұ": 6714,
    "іқ": 6715,
    "іө": 6716,
    "іһ": 6717,
    "і1": 6718,
    "і2": 6719,
    "і3": 6720,
    "і4": 6721,
    "і5": 6722,
    "і6": 6723,
    "і7": 6724,
    "і8": 6725,
    "і9": 6726,
    "і0": 6727,
    "і!": 6728,
    "і@": 6729,
    "і#": 6730,
    "і$": 6731,
    "і%": 6732,
    "і^": 6733,
    "і:": 6734,
    "і&": 6735,
    "і*": 6736,
    "і(": 6737,
    "і)": 6738,
    "і_": 6739,
    "і+": 6740,
    "і=": 6741,
    "і-": 6742,
    "і?": 6743,
    "і/": 6744,
    "і>": 6745,
    "і.": 6746,
    "і<": 6747,
    "і,": 6748,
    "і`": 6749,
    "і|": 6750,
    "і\\": 6751,
    "і'": 6752,
    "і\"": 6753,
    "і[": 6754,
    "і]": 6755,
    "і{": 6756,
    "і}": 6757,
    "і ": 6758,
    "ңa": 6759,
    "ңb": 6760,
    "ңc": 6761,
    "ңd": 6762,
    "ңe": 6763,
    "ңf": 6764,
    "ңg": 6765,
    "ңh": 6766,
    "ңi": 6767,
    "ңj": 6768,
    "ңk": 6769,
    "ңl": 6770,
    "ңm": 6771,
    "ңn": 6772,
    "ңo": 6773,
    "ңp": 6774,
    "ңq": 6775,
    "ңr": 6776,
    "ңs": 6777,
    "ңt": 6778,
    "ңu": 6779,
    "ңv": 6780,
    "ңw": 6781,
    "ңx": 6782,
    "ңy": 6783,
    "ңz": 6784,
    "ңа": 6785,
    "ңб": 6786,
    "ңв": 6787,
    "ңг": 6788,
    "ңд": 6789,
    "ңе": 6790,
    "ңё": 6791,
    "ңж": 6792,
    "ңз": 6793,
    "ңи": 6794,
    "ңй": 6795,
    "ңк": 6796,
    "ңл": 6797,
    "ңм": 6798,
    "ңн": 6799,
    "ңо": 6800,
    "ңп": 6801,
    "ңр": 6802,
    "ңс": 6803,
    "ңт": 6804,
    "ңу": 6805,
    "ңф": 6806,
    "ңх": 6807,
    "ңц": 6808,
    "ңч": 6809,
    "ңш": 6810,
    "ңщ": 6811,
    "ңъ": 6812,
    "ңы": 6813,
    "ңь": 6814,
    "ңэ": 6815,
    "ңю": 6816,
    "ңя": 6817,
    "ңә": 6818,
    "ңі": 6819,
    "ңң": 6820,
    "ңғ": 6821,
    "ңү": 6822,
    "ңұ": 6823,
    "ңқ": 6824,
    "ңө": 6825,
    "ңһ": 6826,
    "ң1": 6827,
    "ң2": 6828,
    "ң3": 6829,
    "ң4": 6830,
    "ң5": 6831,
    "ң6": 6832,
    "ң7": 6833,
    "ң8": 6834,
    "ң9": 6835,
    "ң0": 6836,
    "ң!": 6837,
    "ң@": 6838,
    "ң#": 6839,
    "ң$": 6840,
    "ң%": 6841,
    "ң^": 6842,
    "ң:": 6843,
    "ң&": 6844,
    "ң*": 6845,
    "ң(": 6846,
    "ң)": 6847,
    "ң_": 6848,
    "ң+": 6849,
    "ң=": 6850,
    "ң-": 6851,
    "ң?": 6852,
    "ң/": 6853,
    "ң>": 6854,
    "ң.": 6855,
    "ң<": 6856,
    "ң,": 6857,
    "ң`": 6858,
    "ң|": 6859,
    "ң\\": 6860,
    "ң'": 6861,
    "ң\"": 6862,
    "ң[": 6863,
    "ң]": 6864,
    "ң{": 6865,
    "ң}": 6866,
    "ң ": 6867,
    "ғa": 6868,
    "ғb": 6869,
    "ғc": 6870,
    "ғd": 6871,
    "ғe": 6872,
    "ғf": 6873,
    "ғg": 6874,
    "ғh": 6875,
    "ғi": 6876,
    "ғj": 6877,
    "ғk": 6878,
    "ғl": 6879,
    "ғm": 6880,
    "ғn": 6881,
    "ғo": 6882,
    "ғp": 6883,
    "ғq": 6884,
    "ғr": 6885,
    "ғs": 6886,
    "ғt": 6887,
    "ғu": 6888,
    "ғv": 6889,
    "ғw": 6890,
    "ғx": 6891,
    "ғy": 6892,
    "ғz": 6893,
    "ға": 6894,
    "ғб": 6895,
    "ғв": 6896,
    "ғг": 6897,
    "ғд": 6898,
    "ғе": 6899,
    "ғё": 6900,
    "ғж": 6901,
    "ғз": 6902,
    "ғи": 6903,
    "ғй": 6904,
    "ғк": 6905,
    "ғл": 6906,
    "ғм": 6907,
    "ғн": 6908,
    "ғо": 6909,
    "ғп": 6910,
    "ғр": 6911,
    "ғс": 6912,
    "ғт": 6913,
    "ғу": 6914,
    "ғф": 6915,
    "ғх": 6916,
    "ғц": 6917,
    "ғч": 6918,
    "ғш": 6919,
    "ғщ": 6920,
    "ғъ": 6921,
    "ғы": 6922,
    "ғь": 6923,
    "ғэ": 6924,
    "ғю": 6925,
    "ғя": 6926,
    "ғә": 6927,
    "ғі": 6928,
    "ғң": 6929,
    "ғғ": 6930,
    "ғү": 6931,
    "ғұ": 6932,
    "ғқ": 6933,
    "ғө": 6934,
    "ғһ": 6935,
    "ғ1": 6936,
    "ғ2": 6937,
    "ғ3": 6938,
    "ғ4": 6939,
    "ғ5": 6940,
    "ғ6": 6941,
    "ғ7": 6942,
    "ғ8": 6943,
    "ғ9": 6944,
    "ғ0": 6945,
    "ғ!": 6946,
    "ғ@": 6947,
    "ғ#": 6948,
    "ғ$": 6949,
    "ғ%": 6950,
    "ғ^": 6951,
    "ғ:": 6952,
    "ғ&": 6953,
    "ғ*": 6954,
    "ғ(": 6955,
    "ғ)": 6956,
    "ғ_": 6957,
    "ғ+": 6958,
    "ғ=": 6959,
    "ғ-": 6960,
    "ғ?": 6961,
    "ғ/": 6962,
    "ғ>": 6963,
    "ғ.": 6964,
    "ғ<": 6965,
    "ғ,": 6966,
    "ғ`": 6967,
    "ғ|": 6968,
    "ғ\\": 6969,
    "ғ'": 6970,
    "ғ\"": 6971,
    "ғ[": 6972,
    "ғ]": 6973,
    "ғ{": 6974,
    "ғ}": 6975,
    "ғ ": 6976,
    "үa": 6977,
    "үb": 6978,
    "үc": 6979,
    "үd": 6980,
    "үe": 6981,
    "үf": 6982,
    "үg": 6983,
    "үh": 6984,
    "үi": 6985,
    "үj": 6986,
    "үk": 6987,
    "үl": 6988,
    "үm": 6989,
    "үn": 6990,
    "үo": 6991,
    "үp": 6992,
    "үq": 6993,
    "үr": 6994,
    "үs": 6995,
    "үt": 6996,
    "үu": 6997,
    "үv": 6998,
    "үw": 6999,
    "үx": 7000,
    "үy": 7001,
    "үz": 7002,
    "үа": 7003,
    "үб": 7004,
    "үв": 7005,
    "үг": 7006,
    "үд": 7007,
    "үе": 7008,
    "үё": 7009,
    "үж": 7010,
    "үз": 7011,
    "үи": 7012,
    "үй": 7013,
    "үк": 7014,
    "үл": 7015,
    "үм": 7016,
    "үн": 7017,
    "үо": 7018,
    "үп": 7019,
    "үр": 7020,
    "үс": 7021,
    "үт": 7022,
    "үу": 7023,
    "үф": 7024,
    "үх": 7025,
    "үц": 7026,
    "үч": 7027,
    "үш": 7028,
    "үщ": 7029,
    "үъ": 7030,
    "үы": 7031,
    "үь": 7032,
    "үэ": 7033,
    "үю": 7034,
    "үя": 7035,
    "үә": 7036,
    "үі": 7037,
    "үң": 7038,
    "үғ": 7039,
    "үү": 7040,
    "үұ": 7041,
    "үқ": 7042,
    "үө": 7043,
    "үһ": 7044,
    "ү1": 7045,
    "ү2": 7046,
    "ү3": 7047,
    "ү4": 7048,
    "ү5": 7049,
    "ү6": 7050,
    "ү7": 7051,
    "ү8": 7052,
    "ү9": 7053,
    "ү0": 7054,
    "ү!": 7055,
    "ү@": 7056,
    "ү#": 7057,
    "ү$": 7058,
    "ү%": 7059,
    "ү^": 7060,
    "ү:": 7061,
    "ү&": 7062,
    "ү*": 7063,
    "ү(": 7064,
    "ү)": 7065,
    "ү_": 7066,
    "ү+": 7067,
    "ү=": 7068,
    "ү-": 7069,
    "ү?": 7070,
    "ү/": 7071,
    "ү>": 7072,
    "ү.": 7073,
    "ү<": 7074,
    "ү,": 7075,
    "ү`": 7076,
    "ү|": 7077,
    "ү\\": 7078,
    "ү'": 7079,
    "ү\"": 7080,
    "ү[": 7081,
    "ү]": 7082,
    "ү{": 7083,
    "ү}": 7084,
    "ү ": 7085,
    "ұa": 7086,
    "ұb": 7087,
    "ұc": 7088,
    "ұd": 7089,
    "ұe": 7090,
    "ұf": 7091,
    "ұg": 7092,
    "ұh": 7093,
    "ұi": 7094,
    "ұj": 7095,
    "ұk": 7096,
    "ұl": 7097,
    "ұm": 7098,
    "ұn": 7099,
    "ұo": 7100,
    "ұp": 7101,
    "ұq": 7102,
    "ұr": 7103,
    "ұs": 7104,
    "ұt": 7105,
    "ұu": 7106,
    "ұv": 7107,
    "ұw": 7108,
    "ұx": 7109,
    "ұy": 7110,
    "ұz": 7111,
    "ұа": 7112,
    "ұб": 7113,
    "ұв": 7114,
    "ұг": 7115,
    "ұд": 7116,
    "ұе": 7117,
    "ұё": 7118,
    "ұж": 7119,
    "ұз": 7120,
    "ұи": 7121,
    "ұй": 7122,
    "ұк": 7123,
    "ұл": 7124,
    "ұм": 7125,
    "ұн": 7126,
    "ұо": 7127,
    "ұп": 7128,
    "ұр": 7129,
    "ұс": 7130,
    "ұт": 7131,
    "ұу": 7132,
    "ұф": 7133,
    "ұх": 7134,
    "ұц": 7135,
    "ұч": 7136,
    "ұш": 7137,
    "ұщ": 7138,
    "ұъ": 7139,
    "ұы": 7140,
    "ұь": 7141,
    "ұэ": 7142,
    "ұю": 7143,
    "ұя": 7144,
    "ұә": 7145,
    "ұі": 7146,
    "ұң": 7147,
    "ұғ": 7148,
    "ұү": 7149,
    "ұұ": 7150,
    "ұқ": 7151,
    "ұө": 7152,
    "ұһ": 7153,
    "ұ1": 7154,
    "ұ2": 7155,
    "ұ3": 7156,
    "ұ4": 7157,
    "ұ5": 7158,
    "ұ6": 7159,
    "ұ7": 7160,
    "ұ8": 7161,
    "ұ9": 7162,
    "ұ0": 7163,
    "ұ!": 7164,
    "ұ@": 7165,
    "ұ#": 7166,
    "ұ$": 7167,
    "ұ%": 7168,
    "ұ^": 7169,
    "ұ:": 7170,
    "ұ&": 7171,
    "ұ*": 7172,
    "ұ(": 7173,
    "ұ)": 7174,
    "ұ_": 7175,
    "ұ+": 7176,
    "ұ=": 7177,
    "ұ-": 7178,
    "ұ?": 7179,
    "ұ/": 7180,
    "ұ>": 7181,
    "ұ.": 7182,
    "ұ<": 7183,
    "ұ,": 7184,
    "ұ`": 7185,
    "ұ|": 7186,
    "ұ\\": 7187,
    "ұ'": 7188,
    "ұ\"": 7189,
    "ұ[": 7190,
    "ұ]": 7191,
    "ұ{": 7192,
    "ұ}": 7193,
    "ұ ": 7194,
    "қa": 7195,
    "қb": 7196,
    "қc": 7197,
    "қd": 7198,
    "қe": 7199,
    "қf": 7200,
    "қg": 7201,
    "қh": 7202,
    "қi": 7203,
    "қj": 7204,
    "қk": 7205,
    "қl": 7206,
    "қm": 7207,
    "қn": 7208,
    "қo": 7209,
    "қp": 7210,
    "қq": 7211,
    "қr": 7212,
    "қs": 7213,
    "қt": 7214,
    "қu": 7215,
    "қv": 7216,
    "қw": 7217,
    "қx": 7218,
    "қy": 7219,
    "қz": 7220,
    "қа": 7221,
    "қб": 7222,
    "қв": 7223,
    "қг": 7224,
    "қд": 7225,
    "қе": 7226,
    "қё": 7227,
    "қж": 7228,
    "қз": 7229,
    "қи": 7230,
    "қй": 7231,
    "қк": 7232,
    "қл": 7233,
    "қм": 7234,
    "қн": 7235,
    "қо": 7236,
    "қп": 7237,
    "қр": 7238,
    "қс": 7239,
    "қт": 7240,
    "қу": 7241,
    "қф": 7242,
    "қх": 7243,
    "қц": 7244,
    "қч": 7245,
    "қш": 7246,
    "қщ": 7247,
    "қъ": 7248,
    "қы": 7249,
    "қь": 7250,
    "қэ": 7251,
    "қю": 7252,
    "қя": 7253,
    "қә": 7254,
    "қі": 7255,
    "қң": 7256,
    "қғ": 7257,
    "қү": 7258,
    "құ": 7259,
    "ққ": 7260,
    "қө": 7261,
    "қһ": 7262,
    "қ1": 7263,
    "қ2": 7264,
    "қ3": 7265,
    "қ4": 7266,
    "қ5": 7267,
    "қ6": 7268,
    "қ7": 7269,
    "қ8": 7270,
    "қ9": 7271,
    "қ0": 7272,
    "қ!": 7273,
    "қ@": 7274,
    "қ#": 7275,
    "қ$": 7276,
    "қ%": 7277,
    "қ^": 7278,
    "қ:": 7279,
    "қ&": 7280,
    "қ*": 7281,
    "қ(": 7282,
    "қ)": 7283,
    "қ_": 7284,
    "қ+": 7285,
    "қ=": 7286,
    "қ-": 7287,
    "қ?": 7288,
    "қ/": 7289,
    "қ>": 7290,
    "қ.": 7291,
    "қ<": 7292,
    "қ,": 7293,
    "қ`": 7294,
    "қ|": 7295,
    "қ\\": 7296,
    "қ'": 7297,
    "қ\"": 7298,
    "қ[": 7299,
    "қ]": 7300,
    "қ{": 7301,
    "қ}": 7302,
    "қ ": 7303,
    "өa": 7304,
    "өb": 7305,
    "өc": 7306,
    "өd": 7307,
    "өe": 7308,
    "өf": 7309,
    "өg": 7310,
    "өh": 7311,
    "өi": 7312,
    "өj": 7313,
    "өk": 7314,
    "өl": 7315,
    "өm": 7316,
    "өn": 7317,
    "өo": 7318,
    "өp": 7319,
    "өq": 7320,
    "өr": 7321,
    "өs": 7322,
    "өt": 7323,
    "өu": 7324,
    "өv": 7325,
    "өw": 7326,
    "өx": 7327,
    "өy": 7328,
    "өz": 7329,
    "өа": 7330,
    "өб": 7331,
    "өв": 7332,
    "өг": 7333,
    "өд": 7334,
    "өе": 7335,
    "өё": 7336,
    "өж": 7337,
    "өз": 7338,
    "өи": 7339,
    "өй": 7340,
    "өк": 7341,
    "өл": 7342,
    "өм": 7343,
    "өн": 7344,
    "өо": 7345,
    "өп": 7346,
    "өр": 7347,
    "өс": 7348,
    "өт": 7349,
    "өу": 7350,
    "өф": 7351,
    "өх": 7352,
    "өц": 7353,
    "өч": 7354,
    "өш": 7355,
    "өщ": 7356,
    "өъ": 7357,
    "өы": 7358,
    "өь": 7359,
    "өэ": 7360,
    "өю": 7361,
    "өя": 7362,
    "өә": 7363,
    "өі": 7364,
    "өң": 7365,
    "өғ": 7366,
    "өү": 7367,
    "өұ": 7368,
    "өқ": 7369,
    "өө": 7370,
    "өһ": 7371,
    "ө1": 7372,
    "ө2": 7373,
    "ө3": 7374,
    "ө4": 7375,
    "ө5": 7376,
    "ө6": 7377,
    "ө7": 7378,
    "ө8": 7379,
    "ө9": 7380,
    "ө0": 7381,
    "ө!": 7382,
    "ө@": 7383,
    "ө#": 7384,
    "ө$": 7385,
    "ө%": 7386,
    "ө^": 7387,
    "ө:": 7388,
    "ө&": 7389,
    "ө*": 7390,
    "ө(": 7391,
    "ө)": 7392,
    "ө_": 7393,
    "ө+": 7394,
    "ө=": 7395,
    "ө-": 7396,
    "ө?": 7397,
    "ө/": 7398,
    "ө>": 7399,
    "ө.": 7400,
    "ө<": 7401,
    "ө,": 7402,
    "ө`": 7403,
    "ө|": 7404,
    "ө\\": 7405,
    "ө'": 7406,
    "ө\"": 7407,
    "ө[": 7408,
    "ө]": 7409,
    "ө{": 7410,
    "ө}": 7411,
    "ө ": 7412,
    "һa": 7413,
    "һb": 7414,
    "һc": 7415,
    "һd": 7416,
    "һe": 7417,
    "һf": 7418,
    "һg": 7419,
    "һh": 7420,
    "һi": 7421,
    "һj": 7422,
    "һk": 7423,
    "һl": 7424,
    "һm": 7425,
    "һn": 7426,
    "һo": 7427,
    "һp": 7428,
    "һq": 7429,
    "һr": 7430,
    "һs": 7431,
    "һt": 7432,
    "һu": 7433,
    "һv": 7434,
    "һw": 7435,
    "һx": 7436,
    "һy": 7437,
    "һz": 7438,
    "һа": 7439,
    "һб": 7440,
    "һв": 7441,
    "һг": 7442,
    "һд": 7443,
    "һе": 7444,
    "һё": 7445,
    "һж": 7446,
    "һз": 7447,
    "һи": 7448,
    "һй": 7449,
    "һк": 7450,
    "һл": 7451,
    "һм": 7452,
    "һн": 7453,
    "һо": 7454,
    "һп": 7455,
    "һр": 7456,
    "һс": 7457,
    "һт": 7458,
    "һу": 7459,
    "һф": 7460,
    "һх": 7461,
    "һц": 7462,
    "һч": 7463,
    "һш": 7464,
    "һщ": 7465,
    "һъ": 7466,
    "һы": 7467,
    "һь": 7468,
    "һэ": 7469,
    "һю": 7470,
    "һя": 7471,
    "һә": 7472,
    "һі": 7473,
    "һң": 7474,
    "һғ": 7475,
    "һү": 7476,
    "һұ": 7477,
    "һқ": 7478,
    "һө": 7479,
    "һһ": 7480,
    "һ1": 7481,
    "һ2": 7482,
    "һ3": 7483,
    "һ4": 7484,
    "һ5": 7485,
    "һ6": 7486,
    "һ7": 7487,
    "һ8": 7488,
    "һ9": 7489,
    "һ0": 7490,
    "һ!": 7491,
    "һ@": 7492,
    "һ#": 7493,
    "һ$": 7494,
    "һ%": 7495,
    "һ^": 7496,
    "һ:": 7497,
    "һ&": 7498,
    "һ*": 7499,
    "һ(": 7500,
    "һ)": 7501,
    "һ_": 7502,
    "һ+": 7503,
    "һ=": 7504,
    "һ-": 7505,
    "һ?": 7506,
    "һ/": 7507,
    "һ>": 7508,
    "һ.": 7509,
    "һ<": 7510,
    "һ,": 7511,
    "һ`": 7512,
    "һ|": 7513,
    "һ\\": 7514,
    "һ'": 7515,
    "һ\"": 7516,
    "һ[": 7517,
    "һ]": 7518,
    "һ{": 7519,
    "һ}": 7520,
    "һ ": 7521,
    "1a": 7522,
    "1b": 7523,
    "1c": 7524,
    "1d": 7525,
    "1e": 7526,
    "1f": 7527,
    "1g": 7528,
    "1h": 7529,
    "1i": 7530,
    "1j": 7531,
    "1k": 7532,
    "1l": 7533,
    "1m": 7534,
    "1n": 7535,
    "1o": 7536,
    "1p": 7537,
    "1q": 7538,
    "1r": 7539,
    "1s": 7540,
    "1t": 7541,
    "1u": 7542,
    "1v": 7543,
    "1w": 7544,
    "1x": 7545,
    "1y": 7546,
    "1z": 7547,
    "1а": 7548,
    "1б": 7549,
    "1в": 7550,
    "1г": 7551,
    "1д": 7552,
    "1е": 7553,
    "1ё": 7554,
    "1ж": 7555,
    "1з": 7556,
    "1и": 7557,
    "1й": 7558,
    "1к": 7559,
    "1л": 7560,
    "1м": 7561,
    "1н": 7562,
    "1о": 7563,
    "1п": 7564,
    "1р": 7565,
    "1с": 7566,
    "1т": 7567,
    "1у": 7568,
    "1ф": 7569,
    "1х": 7570,
    "1ц": 7571,
    "1ч": 7572,
    "1ш": 7573,
    "1щ": 7574,
    "1ъ": 7575,
    "1ы": 7576,
    "1ь": 7577,
    "1э": 7578,
    "1ю": 7579,
    "1я": 7580,
    "1ә": 7581,
    "1і": 7582,
    "1ң": 7583,
    "1ғ": 7584,
    "1ү": 7585,
    "1ұ": 7586,
    "1қ": 7587,
    "1ө": 7588,
    "1һ": 7589,
    "11": 7590,
    "12": 7591,
    "13": 7592,
    "14": 7593,
    "15": 7594,
    "16": 7595,
    "17": 7596,
    "18": 7597,
    "19": 7598,
    "10": 7599,
    "1!": 7600,
    "1@": 7601,
    "1#": 7602,
    "1$": 7603,
    "1%": 7604,
    "1^": 7605,
    "1:": 7606,
    "1&": 7607,
    "1*": 7608,
    "1(": 7609,
    "1)": 7610,
    "1_": 7611,
    "1+": 7612,
    "1=": 7613,
    "1-": 7614,
    "1?": 7615,
    "1/": 7616,
    "1>": 7617,
    "1.": 7618,
    "1<": 7619,
    "1,": 7620,
    "1`": 7621,
    "1|": 7622,
    "1\\": 7623,
    "1'": 7624,
    "1\"": 7625,
    "1[": 7626,
    "1]": 7627,
    "1{": 7628,
    "1}": 7629,
    "1 ": 7630,
    "2a": 7631,
    "2b": 7632,
    "2c": 7633,
    "2d": 7634,
    "2e": 7635,
    "2f": 7636,
    "2g": 7637,
    "2h": 7638,
    "2i": 7639,
    "2j": 7640,
    "2k": 7641,
    "2l": 7642,
    "2m": 7643,
    "2n": 7644,
    "2o": 7645,
    "2p": 7646,
    "2q": 7647,
    "2r": 7648,
    "2s": 7649,
    "2t": 7650,
    "2u": 7651,
    "2v": 7652,
    "2w": 7653,
    "2x": 7654,
    "2y": 7655,
    "2z": 7656,
    "2а": 7657,
    "2б": 7658,
    "2в": 7659,
    "2г": 7660,
    "2д": 7661,
    "2е": 7662,
    "2ё": 7663,
    "2ж": 7664,
    "2з": 7665,
    "2и": 7666,
    "2й": 7667,
    "2к": 7668,
    "2л": 7669,
    "2м": 7670,
    "2н": 7671,
    "2о": 7672,
    "2п": 7673,
    "2р": 7674,
    "2с": 7675,
    "2т": 7676,
    "2у": 7677,
    "2ф": 7678,
    "2х": 7679,
    "2ц": 7680,
    "2ч": 7681,
    "2ш": 7682,
    "2щ": 7683,
    "2ъ": 7684,
    "2ы": 7685,
    "2ь": 7686,
    "2э": 7687,
    "2ю": 7688,
    "2я": 7689,
    "2ә": 7690,
    "2і": 7691,
    "2ң": 7692,
    "2ғ": 7693,
    "2ү": 7694,
    "2ұ": 7695,
    "2қ": 7696,
    "2ө": 7697,
    "2һ": 7698,
    "21": 7699,
    "22": 7700,
    "23": 7701,
    "24": 7702,
    "25": 7703,
    "26": 7704,
    "27": 7705,
    "28": 7706,
    "29": 7707,
    "20": 7708,
    "2!": 7709,
    "2@": 7710,
    "2#": 7711,
    "2$": 7712,
    "2%": 7713,
    "2^": 7714,
    "2:": 7715,
    "2&": 7716,
    "2*": 7717,
    "2(": 7718,
    "2)": 7719,
    "2_": 7720,
    "2+": 7721,
    "2=": 7722,
    "2-": 7723,
    "2?": 7724,
    "2/": 7725,
    "2>": 7726,
    "2.": 7727,
    "2<": 7728,
    "2,": 7729,
    "2`": 7730,
    "2|": 7731,
    "2\\": 7732,
    "2'": 7733,
    "2\"": 7734,
    "2[": 7735,
    "2]": 7736,
    "2{": 7737,
    "2}": 7738,
    "2 ": 7739,
    "3a": 7740,
    "3b": 7741,
    "3c": 7742,
    "3d": 7743,
    "3e": 7744,
    "3f": 7745,
    "3g": 7746,
    "3h": 7747,
    "3i": 7748,
    "3j": 7749,
    "3k": 7750,
    "3l": 7751,
    "3m": 7752,
    "3n": 7753,
    "3o": 7754,
    "3p": 7755,
    "3q": 7756,
    "3r": 7757,
    "3s": 7758,
    "3t": 7759,
    "3u": 7760,
    "3v": 7761,
    "3w": 7762,
    "3x": 7763,
    "3y": 7764,
    "3z": 7765,
    "3а": 7766,
    "3б": 7767,
    "3в": 7768,
    "3г": 7769,
    "3д": 7770,
    "3е": 7771,
    "3ё": 7772,
    "3ж": 7773,
    "3з": 7774,
    "3и": 7775,
    "3й": 7776,
    "3к": 7777,
    "3л": 7778,
    "3м": 7779,
    "3н": 7780,
    "3о": 7781,
    "3п": 7782,
    "3р": 7783,
    "3с": 7784,
    "3т": 7785,
    "3у": 7786,
    "3ф": 7787,
    "3х": 7788,
    "3ц": 7789,
    "3ч": 7790,
    "3ш": 7791,
    "3щ": 7792,
    "3ъ": 7793,
    "3ы": 7794,
    "3ь": 7795,
    "3э": 7796,
    "3ю": 7797,
    "3я": 7798,
    "3ә": 7799,
    "3і": 7800,
    "3ң": 7801,
    "3ғ": 7802,
    "3ү": 7803,
    "3ұ": 7804,
    "3қ": 7805,
    "3ө": 7806,
    "3һ": 7807,
    "31": 7808,
    "32": 7809,
    "33": 7810,
    "34": 7811,
    "35": 7812,
    "36": 7813,
    "37": 7814,
    "38": 7815,
    "39": 7816,
    "30": 7817,
    "3!": 7818,
    "3@": 7819,
    "3#": 7820,
    "3$": 7821,
    "3%": 7822,
    "3^": 7823,
    "3:": 7824,
    "3&": 7825,
    "3*": 7826,
    "3(": 7827,
    "3)": 7828,
    "3_": 7829,
    "3+": 7830,
    "3=": 7831,
    "3-": 7832,
    "3?": 7833,
    "3/": 7834,
    "3>": 7835,
    "3.": 7836,
    "3<": 7837,
    "3,": 7838,
    "3`": 7839,
    "3|": 7840,
    "3\\": 7841,
    "3'": 7842,
    "3\"": 7843,
    "3[": 7844,
    "3]": 7845,
    "3{": 7846,
    "3}": 7847,
    "3 ": 7848,
    "4a": 7849,
    "4b": 7850,
    "4c": 7851,
    "4d": 7852,
    "4e": 7853,
    "4f": 7854,
    "4g": 7855,
    "4h": 7856,
    "4i": 7857,
    "4j": 7858,
    "4k": 7859,
    "4l": 7860,
    "4m": 7861,
    "4n": 7862,
    "4o": 7863,
    "4p": 7864,
    "4q": 7865,
    "4r": 7866,
    "4s": 7867,
    "4t": 7868,
    "4u": 7869,
    "4v": 7870,
    "4w": 7871,
    "4x": 7872,
    "4y": 7873,
    "4z": 7874,
    "4а": 7875,
    "4б": 7876,
    "4в": 7877,
    "4г": 7878,
    "4д": 7879,
    "4е": 7880,
    "4ё": 7881,
    "4ж": 7882,
    "4з": 7883,
    "4и": 7884,
    "4й": 7885,
    "4к": 7886,
    "4л": 7887,
    "4м": 7888,
    "4н": 7889,
    "4о": 7890,
    "4п": 7891,
    "4р": 7892,
    "4с": 7893,
    "4т": 7894,
    "4у": 7895,
    "4ф": 7896,
    "4х": 7897,
    "4ц": 7898,
    "4ч": 7899,
    "4ш": 7900,
    "4щ": 7901,
    "4ъ": 7902,
    "4ы": 7903,
    "4ь": 7904,
    "4э": 7905,
    "4ю": 7906,
    "4я": 7907,
    "4ә": 7908,
    "4і": 7909,
    "4ң": 7910,
    "4ғ": 7911,
    "4ү": 7912,
    "4ұ": 7913,
    "4қ": 7914,
    "4ө": 7915,
    "4һ": 7916,
    "41": 7917,
    "42": 7918,
    "43": 7919,
    "44": 7920,
    "45": 7921,
    "46": 7922,
    "47": 7923,
    "48": 7924,
    "49": 7925,
    "40": 7926,
    "4!": 7927,
    "4@": 7928,
    "4#": 7929,
    "4$": 7930,
    "4%": 7931,
    "4^": 7932,
    "4:": 7933,
    "4&": 7934,
    "4*": 7935,
    "4(": 7936,
    "4)": 7937,
    "4_": 7938,
    "4+": 7939,
    "4=": 7940,
    "4-": 7941,
    "4?": 7942,
    "4/": 7943,
    "4>": 7944,
    "4.": 7945,
    "4<": 7946,
    "4,": 7947,
    "4`": 7948,
    "4|": 7949,
    "4\\": 7950,
    "4'": 7951,
    "4\"": 7952,
    "4[": 7953,
    "4]": 7954,
    "4{": 7955,
    "4}": 7956,
    "4 ": 7957,
    "5a": 7958,
    "5b": 7959,
    "5c": 7960,
    "5d": 7961,
    "5e": 7962,
    "5f": 7963,
    "5g": 7964,
    "5h": 7965,
    "5i": 7966,
    "5j": 7967,
    "5k": 7968,
    "5l": 7969,
    "5m": 7970,
    "5n": 7971,
    "5o": 7972,
    "5p": 7973,
    "5q": 7974,
    "5r": 7975,
    "5s": 7976,
    "5t": 7977,
    "5u": 7978,
    "5v": 7979,
    "5w": 7980,
    "5x": 7981,
    "5y": 7982,
    "5z": 7983,
    "5а": 7984,
    "5б": 7985,
    "5в": 7986,
    "5г": 7987,
    "5д": 7988,
    "5е": 7989,
    "5ё": 7990,
    "5ж": 7991,
    "5з": 7992,
    "5и": 7993,
    "5й": 7994,
    "5к": 7995,
    "5л": 7996,
    "5м": 7997,
    "5н": 7998,
    "5о": 7999,
    "5п": 8000,
    "5р": 8001,
    "5с": 8002,
    "5т": 8003,
    "5у": 8004,
    "5ф": 8005,
    "5х": 8006,
    "5ц": 8007,
    "5ч": 8008,
    "5ш": 8009,
    "5щ": 8010,
    "5ъ": 8011,
    "5ы": 8012,
    "5ь": 8013,
    "5э": 8014,
    "5ю": 8015,
    "5я": 8016,
    "5ә": 8017,
    "5і": 8018,
    "5ң": 8019,
    "5ғ": 8020,
    "5ү": 8021,
    "5ұ": 8022,
    "5қ": 8023,
    "5ө": 8024,
    "5һ": 8025,
    "51": 8026,
    "52": 8027,
    "53": 8028,
    "54": 8029,
    "55": 8030,
    "56": 8031,
    "57": 8032,
    "58": 8033,
    "59": 8034,
    "50": 8035,
    "5!": 8036,
    "5@": 8037,
    "5#": 8038,
    "5$": 8039,
    "5%": 8040,
    "5^": 8041,
    "5:": 8042,
    "5&": 8043,
    "5*": 8044,
    "5(": 8045,
    "5)": 8046,
    "5_": 8047,
    "5+": 8048,
    "5=": 8049,
    "5-": 8050,
    "5?": 8051,
    "5/": 8052,
    "5>": 8053,
    "5.": 8054,
    "5<": 8055,
    "5,": 8056,
    "5`": 8057,
    "5|": 8058,
    "5\\": 8059,
    "5'": 8060,
    "5\"": 8061,
    "5[": 8062,
    "5]": 8063,
    "5{": 8064,
    "5}": 8065,
    "5 ": 8066,
    "6a": 8067,
    "6b": 8068,
    "6c": 8069,
    "6d": 8070,
    "6e": 8071,
    "6f": 8072,
    "6g": 8073,
    "6h": 8074,
    "6i": 8075,
    "6j": 8076,
    "6k": 8077,
    "6l": 8078,
    "6m": 8079,
    "6n": 8080,
    "6o": 8081,
    "6p": 8082,
    "6q": 8083,
    "6r": 8084,
    "6s": 8085,
    "6t": 8086,
    "6u": 8087,
    "6v": 8088,
    "6w": 8089,
    "6x": 8090,
    "6y": 8091,
    "6z": 8092,
    "6а": 8093,
    "6б": 8094,
    "6в": 8095,
    "6г": 8096,
    "6д": 8097,
    "6е": 8098,
    "6ё": 8099,
    "6ж": 8100,
    "6з": 8101,
    "6и": 8102,
    "6й": 8103,
    "6к": 8104,
    "6л": 8105,
    "6м": 8106,
    "6н": 8107,
    "6о": 8108,
    "6п": 8109,
    "6р": 8110,
    "6с": 8111,
    "6т": 8112,
    "6у": 8113,
    "6ф": 8114,
    "6х": 8115,
    "6ц": 8116,
    "6ч": 8117,
    "6ш": 8118,
    "6щ": 8119,
    "6ъ": 8120,
    "6ы": 8121,
    "6ь": 8122,
    "6э": 8123,
    "6ю": 8124,
    "6я": 8125,
    "6ә": 8126,
    "6і": 8127,
    "6ң": 8128,
    "6ғ": 8129,
    "6ү": 8130,
    "6ұ": 8131,
    "6қ": 8132,
    "6ө": 8133,
    "6һ": 8134,
    "61": 8135,
    "62": 8136,
    "63": 8137,
    "64": 8138,
    "65": 8139,
    "66": 8140,
    "67": 8141,
    "68": 8142,
    "69": 8143,
    "60": 8144,
    "6!": 8145,
    "6@": 8146,
    "6#": 8147,
    "6$": 8148,
    "6%": 8149,
    "6^": 8150,
    "6:": 8151,
    "6&": 8152,
    "6*": 8153,
    "6(": 8154,
    "6)": 8155,
    "6_": 8156,
    "6+": 8157,
    "6=": 8158,
    "6-": 8159,
    "6?": 8160,
    "6/": 8161,
    "6>": 8162,
    "6.": 8163,
    "6<": 8164,
    "6,": 8165,
    "6`": 8166,
    "6|": 8167,
    "6\\": 8168,
    "6'": 8169,
    "6\"": 8170,
    "6[": 8171,
    "6]": 8172,
    "6{": 8173,
    "6}": 8174,
    "6 ": 8175,
    "7a": 8176,
    "7b": 8177,
    "7c": 8178,
    "7d": 8179,
    "7e": 8180,
    "7f": 8181,
    "7g": 8182,
    "7h": 8183,
    "7i": 8184,
    "7j": 8185,
    "7k": 8186,
    "7l": 8187,
    "7m": 8188,
    "7n": 8189,
    "7o": 8190,
    "7p": 8191,
    "7q": 8192,
    "7r": 8193,
    "7s": 8194,
    "7t": 8195,
    "7u": 8196,
    "7v": 8197,
    "7w": 8198,
    "7x": 8199,
    "7y": 8200,
    "7z": 8201,
    "7а": 8202,
    "7б": 8203,
    "7в": 8204,
    "7г": 8205,
    "7д": 8206,
    "7е": 8207,
    "7ё": 8208,
    "7ж": 8209,
    "7з": 8210,
    "7и": 8211,
    "7й": 8212,
    "7к": 8213,
    "7л": 8214,
    "7м": 8215,
    "7н": 8216,
    "7о": 8217,
    "7п": 8218,
    "7р": 8219,
    "7с": 8220,
    "7т": 8221,
    "7у": 8222,
    "7ф": 8223,
    "7х": 8224,
    "7ц": 8225,
    "7ч": 8226,
    "7ш": 8227,
    "7щ": 8228,
    "7ъ": 8229,
    "7ы": 8230,
    "7ь": 8231,
    "7э": 8232,
    "7ю": 8233,
    "7я": 8234,
    "7ә": 8235,
    "7і": 8236,
    "7ң": 8237,
    "7ғ": 8238,
    "7ү": 8239,
    "7ұ": 8240,
    "7қ": 8241,
    "7ө": 8242,
    "7һ": 8243,
    "71": 8244,
    "72": 8245,
    "73": 8246,
    "74": 8247,
    "75": 8248,
    "76": 8249,
    "77": 8250,
    "78": 8251,
    "79": 8252,
    "70": 8253,
    "7!": 8254,
    "7@": 8255,
    "7#": 8256,
    "7$": 8257,
    "7%": 8258,
    "7^": 8259,
    "7:": 8260,
    "7&": 8261,
    "7*": 8262,
    "7(": 8263,
    "7)": 8264,
    "7_": 8265,
    "7+": 8266,
    "7=": 8267,
    "7-": 8268,
    "7?": 8269,
    "7/": 8270,
    "7>": 8271,
    "7.": 8272,
    "7<": 8273,
    "7,": 8274,
    "7`": 8275,
    "7|": 8276,
    "7\\": 8277,
    "7'": 8278,
    "7\"": 8279,
    "7[": 8280,
    "7]": 8281,
    "7{": 8282,
    "7}": 8283,
    "7 ": 8284,
    "8a": 8285,
    "8b": 8286,
    "8c": 8287,
    "8d": 8288,
    "8e": 8289,
    "8f": 8290,
    "8g": 8291,
    "8h": 8292,
    "8i": 8293,
    "8j": 8294,
    "8k": 8295,
    "8l": 8296,
    "8m": 8297,
    "8n": 8298,
    "8o": 8299,
    "8p": 8300,
    "8q": 8301,
    "8r": 8302,
    "8s": 8303,
    "8t": 8304,
    "8u": 8305,
    "8v": 8306,
    "8w": 8307,
    "8x": 8308,
    "8y": 8309,
    "8z": 8310,
    "8а": 8311,
    "8б": 8312,
    "8в": 8313,
    "8г": 8314,
    "8д": 8315,
    "8е": 8316,
    "8ё": 8317,
    "8ж": 8318,
    "8з": 8319,
    "8и": 8320,
    "8й": 8321,
    "8к": 8322,
    "8л": 8323,
    "8м": 8324,
    "8н": 8325,
    "8о": 8326,
    "8п": 8327,
    "8р": 8328,
    "8с": 8329,
    "8т": 8330,
    "8у": 8331,
    "8ф": 8332,
    "8х": 8333,
    "8ц": 8334,
    "8ч": 8335,
    "8ш": 8336,
    "8щ": 8337,
    "8ъ": 8338,
    "8ы": 8339,
    "8ь": 8340,
    "8э": 8341,
    "8ю": 8342,
    "8я": 8343,
    "8ә": 8344,
    "8і": 8345,
    "8ң": 8346,
    "8ғ": 8347,
    "8ү": 8348,
    "8ұ": 8349,
    "8қ": 8350,
    "8ө": 8351,
    "8һ": 8352,
    "81": 8353,
    "82": 8354,
    "83": 8355,
    "84": 8356,
    "85": 8357,
    "86": 8358,
    "87": 8359,
    "88": 8360,
    "89": 8361,
    "80": 8362,
    "8!": 8363,
    "8@": 8364,
    "8#": 8365,
    "8$": 8366,
    "8%": 8367,
    "8^": 8368,
    "8:": 8369,
    "8&": 8370,
    "8*": 8371,
    "8(": 8372,
    "8)": 8373,
    "8_": 8374,
    "8+": 8375,
    "8=": 8376,
    "8-": 8377,
    "8?": 8378,
    "8/": 8379,
    "8>": 8380,
    "8.": 8381,
    "8<": 8382,
    "8,": 8383,
    "8`": 8384,
    "8|": 8385,
    "8\\": 8386,
    "8'": 8387,
    "8\"": 8388,
    "8[": 8389,
    "8]": 8390,
    "8{": 8391,
    "8}": 8392,
    "8 ": 8393,
    "9a": 8394,
    "9b": 8395,
    "9c": 8396,
    "9d": 8397,
    "9e": 8398,
    "9f": 8399,
    "9g": 8400,
    "9h": 8401,
    "9i": 8402,
    "9j": 8403,
    "9k": 8404,
    "9l": 8405,
    "9m": 8406,
    "9n": 8407,
    "9o": 8408,
    "9p": 8409,
    "9q": 8410,
    "9r": 8411,
    "9s": 8412,
    "9t": 8413,
    "9u": 8414,
    "9v": 8415,
    "9w": 8416,
    "9x": 8417,
    "9y": 8418,
    "9z": 8419,
    "9а": 8420,
    "9б": 8421,
    "9в": 8422,
    "9г": 8423,
    "9д": 8424,
    "9е": 8425,
    "9ё": 8426,
    "9ж": 8427,
    "9з": 8428,
    "9и": 8429,
    "9й": 8430,
    "9к": 8431,
    "9л": 8432,
    "9м": 8433,
    "9н": 8434,
    "9о": 8435,
    "9п": 8436,
    "9р": 8437,
    "9с": 8438,
    "9т": 8439,
    "9у": 8440,
    "9ф": 8441,
    "9х": 8442,
    "9ц": 8443,
    "9ч": 8444,
    "9ш": 8445,
    "9щ": 8446,
    "9ъ": 8447,
    "9ы": 8448,
    "9ь": 8449,
    "9э": 8450,
    "9ю": 8451,
    "9я": 8452,
    "9ә": 8453,
    "9і": 8454,
    "9ң": 8455,
    "9ғ": 8456,
    "9ү": 8457,
    "9ұ": 8458,
    "9қ": 8459,
    "9ө": 8460,
    "9һ": 8461,
    "91": 8462,
    "92": 8463,
    "93": 8464,
    "94": 8465,
    "95": 8466,
    "96": 8467,
    "97": 8468,
    "98": 8469,
    "99": 8470,
    "90": 8471,
    "9!": 8472,
    "9@": 8473,
    "9#": 8474,
    "9$": 8475,
    "9%": 8476,
    "9^": 8477,
    "9:": 8478,
    "9&": 8479,
    "9*": 8480,
    "9(": 8481,
    "9)": 8482,
    "9_": 8483,
    "9+": 8484,
    "9=": 8485,
    "9-": 8486,
    "9?": 8487,
    "9/": 8488,
    "9>": 8489,
    "9.": 8490,
    "9<": 8491,
    "9,": 8492,
    "9`": 8493,
    "9|": 8494,
    "9\\": 8495,
    "9'": 8496,
    "9\"": 8497,
    "9[": 8498,
    "9]": 8499,
    "9{": 8500,
    "9}": 8501,
    "9 ": 8502,
    "0a": 8503,
    "0b": 8504,
    "0c": 8505,
    "0d": 8506,
    "0e": 8507,
    "0f": 8508,
    "0g": 8509,
    "0h": 8510,
    "0i": 8511,
    "0j": 8512,
    "0k": 8513,
    "0l": 8514,
    "0m": 8515,
    "0n": 8516,
    "0o": 8517,
    "0p": 8518,
    "0q": 8519,
    "0r": 8520,
    "0s": 8521,
    "0t": 8522,
    "0u": 8523,
    "0v": 8524,
    "0w": 8525,
    "0x": 8526,
    "0y": 8527,
    "0z": 8528,
    "0а": 8529,
    "0б": 8530,
    "0в": 8531,
    "0г": 8532,
    "0д": 8533,
    "0е": 8534,
    "0ё": 8535,
    "0ж": 8536,
    "0з": 8537,
    "0и": 8538,
    "0й": 8539,
    "0к": 8540,
    "0л": 8541,
    "0м": 8542,
    "0н": 8543,
    "0о": 8544,
    "0п": 8545,
    "0р": 8546,
    "0с": 8547,
    "0т": 8548,
    "0у": 8549,
    "0ф": 8550,
    "0х": 8551,
    "0ц": 8552,
    "0ч": 8553,
    "0ш": 8554,
    "0щ": 8555,
    "0ъ": 8556,
    "0ы": 8557,
    "0ь": 8558,
    "0э": 8559,
    "0ю": 8560,
    "0я": 8561,
    "0ә": 8562,
    "0і": 8563,
    "0ң": 8564,
    "0ғ": 8565,
    "0ү": 8566,
    "0ұ": 8567,
    "0қ": 8568,
    "0ө": 8569,
    "0һ": 8570,
    "01": 8571,
    "02": 8572,
    "03": 8573,
    "04": 8574,
    "05": 8575,
    "06": 8576,
    "07": 8577,
    "08": 8578,
    "09": 8579,
    "00": 8580,
    "0!": 8581,
    "0@": 8582,
    "0#": 8583,
    "0$": 8584,
    "0%": 8585,
    "0^": 8586,
    "0:": 8587,
    "0&": 8588,
    "0*": 8589,
    "0(": 8590,
    "0)": 8591,
    "0_": 8592,
    "0+": 8593,
    "0=": 8594,
    "0-": 8595,
    "0?": 8596,
    "0/": 8597,
    "0>": 8598,
    "0.": 8599,
    "0<": 8600,
    "0,": 8601,
    "0`": 8602,
    "0|": 8603,
    "0\\": 8604,
    "0'": 8605,
    "0\"": 8606,
    "0[": 8607,
    "0]": 8608,
    "0{": 8609,
    "0}": 8610,
    "0 ": 8611,
    "!a": 8612,
    "!b": 8613,
    "!c": 8614,
    "!d": 8615,
    "!e": 8616,
    "!f": 8617,
    "!g": 8618,
    "!h": 8619,
    "!i": 8620,
    "!j": 8621,
    "!k": 8622,
    "!l": 8623,
    "!m": 8624,
    "!n": 8625,
    "!o": 8626,
    "!p": 8627,
    "!q": 8628,
    "!r": 8629,
    "!s": 8630,
    "!t": 8631,
    "!u": 8632,
    "!v": 8633,
    "!w": 8634,
    "!x": 8635,
    "!y": 8636,
    "!z": 8637,
    "!а": 8638,
    "!б": 8639,
    "!в": 8640,
    "!г": 8641,
    "!д": 8642,
    "!е": 8643,
    "!ё": 8644,
    "!ж": 8645,
    "!з": 8646,
    "!и": 8647,
    "!й": 8648,
    "!к": 8649,
    "!л": 8650,
    "!м": 8651,
    "!н": 8652,
    "!о": 8653,
    "!п": 8654,
    "!р": 8655,
    "!с": 8656,
    "!т": 8657,
    "!у": 8658,
    "!ф": 8659,
    "!х": 8660,
    "!ц": 8661,
    "!ч": 8662,
    "!ш": 8663,
    "!щ": 8664,
    "!ъ": 8665,
    "!ы": 8666,
    "!ь": 8667,
    "!э": 8668,
    "!ю": 8669,
    "!я": 8670,
    "!ә": 8671,
    "!і": 8672,
    "!ң": 8673,
    "!ғ": 8674,
    "!ү": 8675,
    "!ұ": 8676,
    "!қ": 8677,
    "!ө": 8678,
    "!һ": 8679,
    "!1": 8680,
    "!2": 8681,
    "!3": 8682,
    "!4": 8683,
    "!5": 8684,
    "!6": 8685,
    "!7": 8686,
    "!8": 8687,
    "!9": 8688,
    "!0": 8689,
    "!!": 8690,
    "!@": 8691,
    "!#": 8692,
    "!$": 8693,
    "!%": 8694,
    "!^": 8695,
    "!:": 8696,
    "!&": 8697,
    "!*": 8698,
    "!(": 8699,
    "!)": 8700,
    "!_": 8701,
    "!+": 8702,
    "!=": 8703,
    "!-": 8704,
    "!?": 8705,
    "!/": 8706,
    "!>": 8707,
    "!.": 8708,
    "!<": 8709,
    "!,": 8710,
    "!`": 8711,
    "!|": 8712,
    "!\\": 8713,
    "!'": 8714,
    "!\"": 8715,
    "![": 8716,
    "!]": 8717,
    "!{": 8718,
    "!}": 8719,
    "! ": 8720,
    "@a": 8721,
    "@b": 8722,
    "@c": 8723,
    "@d": 8724,
    "@e": 8725,
    "@f": 8726,
    "@g": 8727,
    "@h": 8728,
    "@i": 8729,
    "@j": 8730,
    "@k": 8731,
    "@l": 8732,
    "@m": 8733,
    "@n": 8734,
    "@o": 8735,
    "@p": 8736,
    "@q": 8737,
    "@r": 8738,
    "@s": 8739,
    "@t": 8740,
    "@u": 8741,
    "@v": 8742,
    "@w": 8743,
    "@x": 8744,
    "@y": 8745,
    "@z": 8746,
    "@а": 8747,
    "@б": 8748,
    "@в": 8749,
    "@г": 8750,
    "@д": 8751,
    "@е": 8752,
    "@ё": 8753,
    "@ж": 8754,
    "@з": 8755,
    "@и": 8756,
    "@й": 8757,
    "@к": 8758,
    "@л": 8759,
    "@м": 8760,
    "@н": 8761,
    "@о": 8762,
    "@п": 8763,
    "@р": 8764,
    "@с": 8765,
    "@т": 8766,
    "@у": 8767,
    "@ф": 8768,
    "@х": 8769,
    "@ц": 8770,
    "@ч": 8771,
    "@ш": 8772,
    "@щ": 8773,
    "@ъ": 8774,
    "@ы": 8775,
    "@ь": 8776,
    "@э": 8777,
    "@ю": 8778,
    "@я": 8779,
    "@ә": 8780,
    "@і": 8781,
    "@ң": 8782,
    "@ғ": 8783,
    "@ү": 8784,
    "@ұ": 8785,
    "@қ": 8786,
    "@ө": 8787,
    "@һ": 8788,
    "@1": 8789,
    "@2": 8790,
    "@3": 8791,
    "@4": 8792,
    "@5": 8793,
    "@6": 8794,
    "@7": 8795,
    "@8": 8796,
    "@9": 8797,
    "@0": 8798,
    "@!": 8799,
    "@@": 8800,
    "@#": 8801,
    "@$": 8802,
    "@%": 8803,
    "@^": 8804,
    "@:": 8805,
    "@&": 8806,
    "@*": 8807,
    "@(": 8808,
    "@)": 8809,
    "@_": 8810,
    "@+": 8811,
    "@=": 8812,
    "@-": 8813,
    "@?": 8814,
    "@/": 8815,
    "@>": 8816,
    "@.": 8817,
    "@<": 8818,
    "@,": 8819,
    "@`": 8820,
    "@|": 8821,
    "@\\": 8822,
    "@'": 8823,
    "@\"": 8824,
    "@[": 8825,
    "@]": 8826,
    "@{": 8827,
    "@}": 8828,
    "@ ": 8829,
    "#a": 8830,
    "#b": 8831,
    "#c": 8832,
    "#d": 8833,
    "#e": 8834,
    "#f": 8835,
    "#g": 8836,
    "#h": 8837,
    "#i": 8838,
    "#j": 8839,
    "#k": 8840,
    "#l": 8841,
    "#m": 8842,
    "#n": 8843,
    "#o": 8844,
    "#p": 8845,
    "#q": 8846,
    "#r": 8847,
    "#s": 8848,
    "#t": 8849,
    "#u": 8850,
    "#v": 8851,
    "#w": 8852,
    "#x": 8853,
    "#y": 8854,
    "#z": 8855,
    "#а": 8856,
    "#б": 8857,
    "#в": 8858,
    "#г": 8859,
    "#д": 8860,
    "#е": 8861,
    "#ё": 8862,
    "#ж": 8863,
    "#з": 8864,
    "#и": 8865,
    "#й": 8866,
    "#к": 8867,
    "#л": 8868,
    "#м": 8869,
    "#н": 8870,
    "#о": 8871,
    "#п": 8872,
    "#р": 8873,
    "#с": 8874,
    "#т": 8875,
    "#у": 8876,
    "#ф": 8877,
    "#х": 8878,
    "#ц": 8879,
    "#ч": 8880,
    "#ш": 8881,
    "#щ": 8882,
    "#ъ": 8883,
    "#ы": 8884,
    "#ь": 8885,
    "#э": 8886,
    "#ю": 8887,
    "#я": 8888,
    "#ә": 8889,
    "#і": 8890,
    "#ң": 8891,
    "#ғ": 8892,
    "#ү": 8893,
    "#ұ": 8894,
    "#қ": 8895,
    "#ө": 8896,
    "#һ": 8897,
    "#1": 8898,
    "#2": 8899,
    "#3": 8900,
    "#4": 8901,
    "#5": 8902,
    "#6": 8903,
    "#7": 8904,
    "#8": 8905,
    "#9": 8906,
    "#0": 8907,
    "#!": 8908,
    "#@": 8909,
    "##": 8910,
    "#$": 8911,
    "#%": 8912,
    "#^": 8913,
    "#:": 8914,
    "#&": 8915,
    "#*": 8916,
    "#(": 8917,
    "#)": 8918,
    "#_": 8919,
    "#+": 8920,
    "#=": 8921,
    "#-": 8922,
    "#?": 8923,
    "#/": 8924,
    "#>": 8925,
    "#.": 8926,
    "#<": 8927,
    "#,": 8928,
    "#`": 8929,
    "#|": 8930,
    "#\\": 8931,
    "#'": 8932,
    "#\"": 8933,
    "#[": 8934,
    "#]": 8935,
    "#{": 8936,
    "#}": 8937,
    "# ": 8938,
    "$a": 8939,
    "$b": 8940,
    "$c": 8941,
    "$d": 8942,
    "$e": 8943,
    "$f": 8944,
    "$g": 8945,
    "$h": 8946,
    "$i": 8947,
    "$j": 8948,
    "$k": 8949,
    "$l": 8950,
    "$m": 8951,
    "$n": 8952,
    "$o": 8953,
    "$p": 8954,
    "$q": 8955,
    "$r": 8956,
    "$s": 8957,
    "$t": 8958,
    "$u": 8959,
    "$v": 8960,
    "$w": 8961,
    "$x": 8962,
    "$y": 8963,
    "$z": 8964,
    "$а": 8965,
    "$б": 8966,
    "$в": 8967,
    "$г": 8968,
    "$д": 8969,
    "$е": 8970,
    "$ё": 8971,
    "$ж": 8972,
    "$з": 8973,
    "$и": 8974,
    "$й": 8975,
    "$к": 8976,
    "$л": 8977,
    "$м": 8978,
    "$н": 8979,
    "$о": 8980,
    "$п": 8981,
    "$р": 8982,
    "$с": 8983,
    "$т": 8984,
    "$у": 8985,
    "$ф": 8986,
    "$х": 8987,
    "$ц": 8988,
    "$ч": 8989,
    "$ш": 8990,
    "$щ": 8991,
    "$ъ": 8992,
    "$ы": 8993,
    "$ь": 8994,
    "$э": 8995,
    "$ю": 8996,
    "$я": 8997,
    "$ә": 8998,
    "$і": 8999,
    "$ң": 9000,
    "$ғ": 9001,
    "$ү": 9002,
    "$ұ": 9003,
    "$қ": 9004,
    "$ө": 9005,
    "$һ": 9006,
    "$1": 9007,
    "$2": 9008,
    "$3": 9009,
    "$4": 9010,
    "$5": 9011,
    "$6": 9012,
    "$7": 9013,
    "$8": 9014,
    "$9": 9015,
    "$0": 9016,
    "$!": 9017,
    "$@": 9018,
    "$#": 9019,
    "$$": 9020,
    "$%": 9021,
    "$^": 9022,
    "$:": 9023,
    "$&": 9024,
    "$*": 9025,
    "$(": 9026,
    "$)": 9027,
    "$_": 9028,
    "$+": 9029,
    "$=": 9030,
    "$-": 9031,
    "$?": 9032,
    "$/": 9033,
    "$>": 9034,
    "$.": 9035,
    "$<": 9036,
    "$,": 9037,
    "$`": 9038,
    "$|": 9039,
    "$\\": 9040,
    "$'": 9041,
    "$\"": 9042,
    "$[": 9043,
    "$]": 9044,
    "${": 9045,
    "$}": 9046,
    "$ ": 9047,
    "%a": 9048,
    "%b": 9049,
    "%c": 9050,
    "%d": 9051,
    "%e": 9052,
    "%f": 9053,
    "%g": 9054,
    "%h": 9055,
    "%i": 9056,
    "%j": 9057,
    "%k": 9058,
    "%l": 9059,
    "%m": 9060,
    "%n": 9061,
    "%o": 9062,
    "%p": 9063,
    "%q": 9064,
    "%r": 9065,
    "%s": 9066,
    "%t": 9067,
    "%u": 9068,
    "%v": 9069,
    "%w": 9070,
    "%x": 9071,
    "%y": 9072,
    "%z": 9073,
    "%а": 9074,
    "%б": 9075,
    "%в": 9076,
    "%г": 9077,
    "%д": 9078,
    "%е": 9079,
    "%ё": 9080,
    "%ж": 9081,
    "%з": 9082,
    "%и": 9083,
    "%й": 9084,
    "%к": 9085,
    "%л": 9086,
    "%м": 9087,
    "%н": 9088,
    "%о": 9089,
    "%п": 9090,
    "%р": 9091,
    "%с": 9092,
    "%т": 9093,
    "%у": 9094,
    "%ф": 9095,
    "%х": 9096,
    "%ц": 9097,
    "%ч": 9098,
    "%ш": 9099,
    "%щ": 9100,
    "%ъ": 9101,
    "%ы": 9102,
    "%ь": 9103,
    "%э": 9104,
    "%ю": 9105,
    "%я": 9106,
    "%ә": 9107,
    "%і": 9108,
    "%ң": 9109,
    "%ғ": 9110,
    "%ү": 9111,
    "%ұ": 9112,
    "%қ": 9113,
    "%ө": 9114,
    "%һ": 9115,
    "%1": 9116,
    "%2": 9117,
    "%3": 9118,
    "%4": 9119,
    "%5": 9120,
    "%6": 9121,
    "%7": 9122,
    "%8": 9123,
    "%9": 9124,
    "%0": 9125,
    "%!": 9126,
    "%@": 9127,
    "%#": 9128,
    "%$": 9129,
    "%%": 9130,
    "%^": 9131,
    "%:": 9132,
    "%&": 9133,
    "%*": 9134,
    "%(": 9135,
    "%)": 9136,
    "%_": 9137,
    "%+": 9138,
    "%=": 9139,
    "%-": 9140,
    "%?": 9141,
    "%/": 9142,
    "%>": 9143,
    "%.": 9144,
    "%<": 9145,
    "%,": 9146,
    "%`": 9147,
    "%|": 9148,
    "%\\": 9149,
    "%'": 9150,
    "%\"": 9151,
    "%[": 9152,
    "%]": 9153,
    "%{": 9154,
    "%}": 9155,
    "% ": 9156,
    "^a": 9157,
    "^b": 9158,
    "^c": 9159,
    "^d": 9160,
    "^e": 9161,
    "^f": 9162,
    "^g": 9163,
    "^h": 9164,
    "^i": 9165,
    "^j": 9166,
    "^k": 9167,
    "^l": 9168,
    "^m": 9169,
    "^n": 9170,
    "^o": 9171,
    "^p": 9172,
    "^q": 9173,
    "^r": 9174,
    "^s": 9175,
    "^t": 9176,
    "^u": 9177,
    "^v": 9178,
    "^w": 9179,
    "^x": 9180,
    "^y": 9181,
    "^z": 9182,
    "^а": 9183,
    "^б": 9184,
    "^в": 9185,
    "^г": 9186,
    "^д": 9187,
    "^е": 9188,
    "^ё": 9189,
    "^ж": 9190,
    "^з": 9191,
    "^и": 9192,
    "^й": 9193,
    "^к": 9194,
    "^л": 9195,
    "^м": 9196,
    "^н": 9197,
    "^о": 9198,
    "^п": 9199,
    "^р": 9200,
    "^с": 9201,
    "^т": 9202,
    "^у": 9203,
    "^ф": 9204,
    "^х": 9205,
    "^ц": 9206,
    "^ч": 9207,
    "^ш": 9208,
    "^щ": 9209,
    "^ъ": 9210,
    "^ы": 9211,
    "^ь": 9212,
    "^э": 9213,
    "^ю": 9214,
    "^я": 9215,
    "^ә": 9216,
    "^і": 9217,
    "^ң": 9218,
    "^ғ": 9219,
    "^ү": 9220,
    "^ұ": 9221,
    "^қ": 9222,
    "^ө": 9223,
    "^һ": 9224,
    "^1": 9225,
    "^2": 9226,
    "^3": 9227,
    "^4": 9228,
    "^5": 9229,
    "^6": 9230,
    "^7": 9231,
    "^8": 9232,
    "^9": 9233,
    "^0": 9234,
    "^!": 9235,
    "^@": 9236,
    "^#": 9237,
    "^$": 9238,
    "^%": 9239,
    "^^": 9240,
    "^:": 9241,
    "^&": 9242,
    "^*": 9243,
    "^(": 9244,
    "^)": 9245,
    "^_": 9246,
    "^+": 9247,
    "^=": 9248,
    "^-": 9249,
    "^?": 9250,
    "^/": 9251,
    "^>": 9252,
    "^.": 9253,
    "^<": 9254,
    "^,": 9255,
    "^`": 9256,
    "^|": 9257,
    "^\\": 9258,
    "^'": 9259,
    "^\"": 9260,
    "^[": 9261,
    "^]": 9262,
    "^{": 9263,
    "^}": 9264,
    "^ ": 9265,
    ":a": 9266,
    ":b": 9267,
    ":c": 9268,
    ":d": 9269,
    ":e": 9270,
    ":f": 9271,
    ":g": 9272,
    ":h": 9273,
    ":i": 9274,
    ":j": 9275,
    ":k": 9276,
    ":l": 9277,
    ":m": 9278,
    ":n": 9279,
    ":o": 9280,
    ":p": 9281,
    ":q": 9282,
    ":r": 9283,
    ":s": 9284,
    ":t": 9285,
    ":u": 9286,
    ":v": 9287,
    ":w": 9288,
    ":x": 9289,
    ":y": 9290,
    ":z": 9291,
    ":а": 9292,
    ":б": 9293,
    ":в": 9294,
    ":г": 9295,
    ":д": 9296,
    ":е": 9297,
    ":ё": 9298,
    ":ж": 9299,
    ":з": 9300,
    ":и": 9301,
    ":й": 9302,
    ":к": 9303,
    ":л": 9304,
    ":м": 9305,
    ":н": 9306,
    ":о": 9307,
    ":п": 9308,
    ":р": 9309,
    ":с": 9310,
    ":т": 9311,
    ":у": 9312,
    ":ф": 9313,
    ":х": 9314,
    ":ц": 9315,
    ":ч": 9316,
    ":ш": 9317,
    ":щ": 9318,
    ":ъ": 9319,
    ":ы": 9320,
    ":ь": 9321,
    ":э": 9322,
    ":ю": 9323,
    ":я": 9324,
    ":ә": 9325,
    ":і": 9326,
    ":ң": 9327,
    ":ғ": 9328,
    ":ү": 9329,
    ":ұ": 9330,
    ":қ": 9331,
    ":ө": 9332,
    ":һ": 9333,
    ":1": 9334,
    ":2": 9335,
    ":3": 9336,
    ":4": 9337,
    ":5": 9338,
    ":6": 9339,
    ":7": 9340,
    ":8": 9341,
    ":9": 9342,
    ":0": 9343,
    ":!": 9344,
    ":@": 9345,
    ":#": 9346,
    ":$": 9347,
    ":%": 9348,
    ":^": 9349,
    "::": 9350,
    ":&": 9351,
    ":*": 9352,
    ":(": 9353,
    ":)": 9354,
    ":_": 9355,
    ":+": 9356,
    ":=": 9357,
    ":-": 9358,
    ":?": 9359,
    ":/": 9360,
    ":>": 9361,
    ":.": 9362,
    ":<": 9363,
    ":,": 9364,
    ":`": 9365,
    ":|": 9366,
    ":\\": 9367,
    ":'": 9368,
    ":\"": 9369,
    ":[": 9370,
    ":]": 9371,
    ":{": 9372,
    ":}": 9373,
    ": ": 9374,
    "&a": 9375,
    "&b": 9376,
    "&c": 9377,
    "&d": 9378,
    "&e": 9379,
    "&f": 9380,
    "&g": 9381,
    "&h": 9382,
    "&i": 9383,
    "&j": 9384,
    "&k": 9385,
    "&l": 9386,
    "&m": 9387,
    "&n": 9388,
    "&o": 9389,
    "&p": 9390,
    "&q": 9391,
    "&r": 9392,
    "&s": 9393,
    "&t": 9394,
    "&u": 9395,
    "&v": 9396,
    "&w": 9397,
    "&x": 9398,
    "&y": 9399,
    "&z": 9400,
    "&а": 9401,
    "&б": 9402,
    "&в": 9403,
    "&г": 9404,
    "&д": 9405,
    "&е": 9406,
    "&ё": 9407,
    "&ж": 9408,
    "&з": 9409,
    "&и": 9410,
    "&й": 9411,
    "&к": 9412,
    "&л": 9413,
    "&м": 9414,
    "&н": 9415,
    "&о": 9416,
    "&п": 9417,
    "&р": 9418,
    "&с": 9419,
    "&т": 9420,
    "&у": 9421,
    "&ф": 9422,
    "&х": 9423,
    "&ц": 9424,
    "&ч": 9425,
    "&ш": 9426,
    "&щ": 9427,
    "&ъ": 9428,
    "&ы": 9429,
    "&ь": 9430,
    "&э": 9431,
    "&ю": 9432,
    "&я": 9433,
    "&ә": 9434,
    "&і": 9435,
    "&ң": 9436,
    "&ғ": 9437,
    "&ү": 9438,
    "&ұ": 9439,
    "&қ": 9440,
    "&ө": 9441,
    "&һ": 9442,
    "&1": 9443,
    "&2": 9444,
    "&3": 9445,
    "&4": 9446,
    "&5": 9447,
    "&6": 9448,
    "&7": 9449,
    "&8": 9450,
    "&9": 9451,
    "&0": 9452,
    "&!": 9453,
    "&@": 9454,
    "&#": 9455,
    "&$": 9456,
    "&%": 9457,
    "&^": 9458,
    "&:": 9459,
    "&&": 9460,
    "&*": 9461,
    "&(": 9462,
    "&)": 9463,
    "&_": 9464,
    "&+": 9465,
    "&=": 9466,
    "&-": 9467,
    "&?": 9468,
    "&/": 9469,
    "&>": 9470,
    "&.": 9471,
    "&<": 9472,
    "&,": 9473,
    "&`": 9474,
    "&|": 9475,
    "&\\": 9476,
    "&'": 9477,
    "&\"": 9478,
    "&[": 9479,
    "&]": 9480,
    "&{": 9481,
    "&}": 9482,
    "& ": 9483,
    "*a": 9484,
    "*b": 9485,
    "*c": 9486,
    "*d": 9487,
    "*e": 9488,
    "*f": 9489,
    "*g": 9490,
    "*h": 9491,
    "*i": 9492,
    "*j": 9493,
    "*k": 9494,
    "*l": 9495,
    "*m": 9496,
    "*n": 9497,
    "*o": 9498,
    "*p": 9499,
    "*q": 9500,
    "*r": 9501,
    "*s": 9502,
    "*t": 9503,
    "*u": 9504,
    "*v": 9505,
    "*w": 9506,
    "*x": 9507,
    "*y": 9508,
    "*z": 9509,
    "*а": 9510,
    "*б": 9511,
    "*в": 9512,
    "*г": 9513,
    "*д": 9514,
    "*е": 9515,
    "*ё": 9516,
    "*ж": 9517,
    "*з": 9518,
    "*и": 9519,
    "*й": 9520,
    "*к": 9521,
    "*л": 9522,
    "*м": 9523,
    "*н": 9524,
    "*о": 9525,
    "*п": 9526,
    "*р": 9527,
    "*с": 9528,
    "*т": 9529,
    "*у": 9530,
    "*ф": 9531,
    "*х": 9532,
    "*ц": 9533,
    "*ч": 9534,
    "*ш": 9535,
    "*щ": 9536,
    "*ъ": 9537,
    "*ы": 9538,
    "*ь": 9539,
    "*э": 9540,
    "*ю": 9541,
    "*я": 9542,
    "*ә": 9543,
    "*і": 9544,
    "*ң": 9545,
    "*ғ": 9546,
    "*ү": 9547,
    "*ұ": 9548,
    "*қ": 9549,
    "*ө": 9550,
    "*һ": 9551,
    "*1": 9552,
    "*2": 9553,
    "*3": 9554,
    "*4": 9555,
    "*5": 9556,
    "*6": 9557,
    "*7": 9558,
    "*8": 9559,
    "*9": 9560,
    "*0": 9561,
    "*!": 9562,
    "*@": 9563,
    "*#": 9564,
    "*$": 9565,
    "*%": 9566,
    "*^": 9567,
    "*:": 9568,
    "*&": 9569,
    "**": 9570,
    "*(": 9571,
    "*)": 9572,
    "*_": 9573,
    "*+": 9574,
    "*=": 9575,
    "*-": 9576,
    "*?": 9577,
    "*/": 9578,
    "*>": 9579,
    "*.": 9580,
    "*<": 9581,
    "*,": 9582,
    "*`": 9583,
    "*|": 9584,
    "*\\": 9585,
    "*'": 9586,
    "*\"": 9587,
    "*[": 9588,
    "*]": 9589,
    "*{": 9590,
    "*}": 9591,
    "* ": 9592,
    "(a": 9593,
    "(b": 9594,
    "(c": 9595,
    "(d": 9596,
    "(e": 9597,
    "(f": 9598,
    "(g": 9599,
    "(h": 9600,
    "(i": 9601,
    "(j": 9602,
    "(k": 9603,
    "(l": 9604,
    "(m": 9605,
    "(n": 9606,
    "(o": 9607,
    "(p": 9608,
    "(q": 9609,
    "(r": 9610,
    "(s": 9611,
    "(t": 9612,
    "(u": 9613,
    "(v": 9614,
    "(w": 9615,
    "(x": 9616,
    "(y": 9617,
    "(z": 9618,
    "(а": 9619,
    "(б": 9620,
    "(в": 9621,
    "(г": 9622,
    "(д": 9623,
    "(е": 9624,
    "(ё": 9625,
    "(ж": 9626,
    "(з": 9627,
    "(и": 9628,
    "(й": 9629,
    "(к": 9630,
    "(л": 9631,
    "(м": 9632,
    "(н": 9633,
    "(о": 9634,
    "(п": 9635,
    "(р": 9636,
    "(с": 9637,
    "(т": 9638,
    "(у": 9639,
    "(ф": 9640,
    "(х": 9641,
    "(ц": 9642,
    "(ч": 9643,
    "(ш": 9644,
    "(щ": 9645,
    "(ъ": 9646,
    "(ы": 9647,
    "(ь": 9648,
    "(э": 9649,
    "(ю": 9650,
    "(я": 9651,
    "(ә": 9652,
    "(і": 9653,
    "(ң": 9654,
    "(ғ": 9655,
    "(ү": 9656,
    "(ұ": 9657,
    "(қ": 9658,
    "(ө": 9659,
    "(һ": 9660,
    "(1": 9661,
    "(2": 9662,
    "(3": 9663,
    "(4": 9664,
    "(5": 9665,
    "(6": 9666,
    "(7": 9667,
    "(8": 9668,
    "(9": 9669,
    "(0": 9670,
    "(!": 9671,
    "(@": 9672,
    "(#": 9673,
    "($": 9674,
    "(%": 9675,
    "(^": 9676,
    "(:": 9677,
    "(&": 9678,
    "(*": 9679,
    "((": 9680,
    "()": 9681,
    "(_": 9682,
    "(+": 9683,
    "(=": 9684,
    "(-": 9685,
    "(?": 9686,
    "(/": 9687,
    "(>": 9688,
    "(.": 9689,
    "(<": 9690,
    "(,": 9691,
    "(`": 9692,
    "(|": 9693,
    "(\\": 9694,
    "('": 9695,
    "(\"": 9696,
    "([": 9697,
    "(]": 9698,
    "({": 9699,
    "(}": 9700,
    "( ": 9701,
    ")a": 9702,
    ")b": 9703,
    ")c": 9704,
    ")d": 9705,
    ")e": 9706,
    ")f": 9707,
    ")g": 9708,
    ")h": 9709,
    ")i": 9710,
    ")j": 9711,
    ")k": 9712,
    ")l": 9713,
    ")m": 9714,
    ")n": 9715,
    ")o": 9716,
    ")p": 9717,
    ")q": 9718,
    ")r": 9719,
    ")s": 9720,
    ")t": 9721,
    ")u": 9722,
    ")v": 9723,
    ")w": 9724,
    ")x": 9725,
    ")y": 9726,
    ")z": 9727,
    ")а": 9728,
    ")б": 9729,
    ")в": 9730,
    ")г": 9731,
    ")д": 9732,
    ")е": 9733,
    ")ё": 9734,
    ")ж": 9735,
    ")з": 9736,
    ")и": 9737,
    ")й": 9738,
    ")к": 9739,
    ")л": 9740,
    ")м": 9741,
    ")н": 9742,
    ")о": 9743,
    ")п": 9744,
    ")р": 9745,
    ")с": 9746,
    ")т": 9747,
    ")у": 9748,
    ")ф": 9749,
    ")х": 9750,
    ")ц": 9751,
    ")ч": 9752,
    ")ш": 9753,
    ")щ": 9754,
    ")ъ": 9755,
    ")ы": 9756,
    ")ь": 9757,
    ")э": 9758,
    ")ю": 9759,
    ")я": 9760,
    ")ә": 9761,
    ")і": 9762,
    ")ң": 9763,
    ")ғ": 9764,
    ")ү": 9765,
    ")ұ": 9766,
    ")қ": 9767,
    ")ө": 9768,
    ")һ": 9769,
    ")1": 9770,
    ")2": 9771,
    ")3": 9772,
    ")4": 9773,
    ")5": 9774,
    ")6": 9775,
    ")7": 9776,
    ")8": 9777,
    ")9": 9778,
    ")0": 9779,
    ")!": 9780,
    ")@": 9781,
    ")#": 9782,
    ")$": 9783,
    ")%": 9784,
    ")^": 9785,
    "):": 9786,
    ")&": 9787,
    ")*": 9788,
    ")(": 9789,
    "))": 9790,
    ")_": 9791,
    ")+": 9792,
    ")=": 9793,
    ")-": 9794,
    ")?": 9795,
    ")/": 9796,
    ")>": 9797,
    ").": 9798,
    ")<": 9799,
    "),": 9800,
    ")`": 9801,
    ")|": 9802,
    ")\\": 9803,
    ")'": 9804,
    ")\"": 9805,
    ")[": 9806,
    ")]": 9807,
    "){": 9808,
    ")}": 9809,
    ") ": 9810,
    "_a": 9811,
    "_b": 9812,
    "_c": 9813,
    "_d": 9814,
    "_e": 9815,
    "_f": 9816,
    "_g": 9817,
    "_h": 9818,
    "_i": 9819,
    "_j": 9820,
    "_k": 9821,
    "_l": 9822,
    "_m": 9823,
    "_n": 9824,
    "_o": 9825,
    "_p": 9826,
    "_q": 9827,
    "_r": 9828,
    "_s": 9829,
    "_t": 9830,
    "_u": 9831,
    "_v": 9832,
    "_w": 9833,
    "_x": 9834,
    "_y": 9835,
    "_z": 9836,
    "_а": 9837,
    "_б": 9838,
    "_в": 9839,
    "_г": 9840,
    "_д": 9841,
    "_е": 9842,
    "_ё": 9843,
    "_ж": 9844,
    "_з": 9845,
    "_и": 9846,
    "_й": 9847,
    "_к": 9848,
    "_л": 9849,
    "_м": 9850,
    "_н": 9851,
    "_о": 9852,
    "_п": 9853,
    "_р": 9854,
    "_с": 9855,
    "_т": 9856,
    "_у": 9857,
    "_ф": 9858,
    "_х": 9859,
    "_ц": 9860,
    "_ч": 9861,
    "_ш": 9862,
    "_щ": 9863,
    "_ъ": 9864,
    "_ы": 9865,
    "_ь": 9866,
    "_э": 9867,
    "_ю": 9868,
    "_я": 9869,
    "_ә": 9870,
    "_і": 9871,
    "_ң": 9872,
    "_ғ": 9873,
    "_ү": 9874,
    "_ұ": 9875,
    "_қ": 9876,
    "_ө": 9877,
    "_һ": 9878,
    "_1": 9879,
    "_2": 9880,
    "_3": 9881,
    "_4": 9882,
    "_5": 9883,
    "_6": 9884,
    "_7": 9885,
    "_8": 9886,
    "_9": 9887,
    "_0": 9888,
    "_!": 9889,
    "_@": 9890,
    "_#": 9891,
    "_$": 9892,
    "_%": 9893,
    "_^": 9894,
    "_:": 9895,
    "_&": 9896,
    "_*": 9897,
    "_(": 9898,
    "_)": 9899,
    "__": 9900,
    "_+": 9901,
    "_=": 9902,
    "_-": 9903,
    "_?": 9904,
    "_/": 9905,
    "_>": 9906,
    "_.": 9907,
    "_<": 9908,
    "_,": 9909,
    "_`": 9910,
    "_|": 9911,
    "_\\": 9912,
    "_'": 9913,
    "_\"": 9914,
    "_[": 9915,
    "_]": 9916,
    "_{": 9917,
    "_}": 9918,
    "_ ": 9919,
    "+a": 9920,
    "+b": 9921,
    "+c": 9922,
    "+d": 9923,
    "+e": 9924,
    "+f": 9925,
    "+g": 9926,
    "+h": 9927,
    "+i": 9928,
    "+j": 9929,
    "+k": 9930,
    "+l": 9931,
    "+m": 9932,
    "+n": 9933,
    "+o": 9934,
    "+p": 9935,
    "+q": 9936,
    "+r": 9937,
    "+s": 9938,
    "+t": 9939,
    "+u": 9940,
    "+v": 9941,
    "+w": 9942,
    "+x": 9943,
    "+y": 9944,
    "+z": 9945,
    "+а": 9946,
    "+б": 9947,
    "+в": 9948,
    "+г": 9949,
    "+д": 9950,
    "+е": 9951,
    "+ё": 9952,
    "+ж": 9953,
    "+з": 9954,
    "+и": 9955,
    "+й": 9956,
    "+к": 9957,
    "+л": 9958,
    "+м": 9959,
    "+н": 9960,
    "+о": 9961,
    "+п": 9962,
    "+р": 9963,
    "+с": 9964,
    "+т": 9965,
    "+у": 9966,
    "+ф": 9967,
    "+х": 9968,
    "+ц": 9969,
    "+ч": 9970,
    "+ш": 9971,
    "+щ": 9972,
    "+ъ": 9973,
    "+ы": 9974,
    "+ь": 9975,
    "+э": 9976,
    "+ю": 9977,
    "+я": 9978,
    "+ә": 9979,
    "+і": 9980,
    "+ң": 9981,
    "+ғ": 9982,
    "+ү": 9983,
    "+ұ": 9984,
    "+қ": 9985,
    "+ө": 9986,
    "+һ": 9987,
    "+1": 9988,
    "+2": 9989,
    "+3": 9990,
    "+4": 9991,
    "+5": 9992,
    "+6": 9993,
    "+7": 9994,
    "+8": 9995,
    "+9": 9996,
    "+0": 9997,
    "+!": 9998,
    "+@": 9999,
    "+#": 10000,
    "+$": 10001,
    "+%": 10002,
    "+^": 10003,
    "+:": 10004,
    "+&": 10005,
    "+*": 10006,
    "+(": 10007,
    "+)": 10008,
    "+_": 10009,
    "++": 10010,
    "+=": 10011,
    "+-": 10012,
    "+?": 10013,
    "+/": 10014,
    "+>": 10015,
    "+.": 10016,
    "+<": 10017,
    "+,": 10018,
    "+`": 10019,
    "+|": 10020,
    "+\\": 10021,
    "+'": 10022,
    "+\"": 10023,
    "+[": 10024,
    "+]": 10025,
    "+{": 10026,
    "+}": 10027,
    "+ ": 10028,
    "=a": 10029,
    "=b": 10030,
    "=c": 10031,
    "=d": 10032,
    "=e": 10033,
    "=f": 10034,
    "=g": 10035,
    "=h": 10036,
    "=i": 10037,
    "=j": 10038,
    "=k": 10039,
    "=l": 10040,
    "=m": 10041,
    "=n": 10042,
    "=o": 10043,
    "=p": 10044,
    "=q": 10045,
    "=r": 10046,
    "=s": 10047,
    "=t": 10048,
    "=u": 10049,
    "=v": 10050,
    "=w": 10051,
    "=x": 10052,
    "=y": 10053,
    "=z": 10054,
    "=а": 10055,
    "=б": 10056,
    "=в": 10057,
    "=г": 10058,
    "=д": 10059,
    "=е": 10060,
    "=ё": 10061,
    "=ж": 10062,
    "=з": 10063,
    "=и": 10064,
    "=й": 10065,
    "=к": 10066,
    "=л": 10067,
    "=м": 10068,
    "=н": 10069,
    "=о": 10070,
    "=п": 10071,
    "=р": 10072,
    "=с": 10073,
    "=т": 10074,
    "=у": 10075,
    "=ф": 10076,
    "=х": 10077,
    "=ц": 10078,
    "=ч": 10079,
    "=ш": 10080,
    "=щ": 10081,
    "=ъ": 10082,
    "=ы": 10083,
    "=ь": 10084,
    "=э": 10085,
    "=ю": 10086,
    "=я": 10087,
    "=ә": 10088,
    "=і": 10089,
    "=ң": 10090,
    "=ғ": 10091,
    "=ү": 10092,
    "=ұ": 10093,
    "=қ": 10094,
    "=ө": 10095,
    "=һ": 10096,
    "=1": 10097,
    "=2": 10098,
    "=3": 10099,
    "=4": 10100,
    "=5": 10101,
    "=6": 10102,
    "=7": 10103,
    "=8": 10104,
    "=9": 10105,
    "=0": 10106,
    "=!": 10107,
    "=@": 10108,
    "=#": 10109,
    "=$": 10110,
    "=%": 10111,
    "=^": 10112,
    "=:": 10113,
    "=&": 10114,
    "=*": 10115,
    "=(": 10116,
    "=)": 10117,
    "=_": 10118,
    "=+": 10119,
    "==": 10120,
    "=-": 10121,
    "=?": 10122,
    "=/": 10123,
    "=>": 10124,
    "=.": 10125,
    "=<": 10126,
    "=,": 10127,
    "=`": 10128,
    "=|": 10129,
    "=\\": 10130,
    "='": 10131,
    "=\"": 10132,
    "=[": 10133,
    "=]": 10134,
    "={": 10135,
    "=}": 10136,
    "= ": 10137,
    "-a": 10138,
    "-b": 10139,
    "-c": 10140,
    "-d": 10141,
    "-e": 10142,
    "-f": 10143,
    "-g": 10144,
    "-h": 10145,
    "-i": 10146,
    "-j": 10147,
    "-k": 10148,
    "-l": 10149,
    "-m": 10150,
    "-n": 10151,
    "-o": 10152,
    "-p": 10153,
    "-q": 10154,
    "-r": 10155,
    "-s": 10156,
    "-t": 10157,
    "-u": 10158,
    "-v": 10159,
    "-w": 10160,
    "-x": 10161,
    "-y": 10162,
    "-z": 10163,
    "-а": 10164,
    "-б": 10165,
    "-в": 10166,
    "-г": 10167,
    "-д": 10168,
    "-е": 10169,
    "-ё": 10170,
    "-ж": 10171,
    "-з": 10172,
    "-и": 10173,
    "-й": 10174,
    "-к": 10175,
    "-л": 10176,
    "-м": 10177,
    "-н": 10178,
    "-о": 10179,
    "-п": 10180,
    "-р": 10181,
    "-с": 10182,
    "-т": 10183,
    "-у": 10184,
    "-ф": 10185,
    "-х": 10186,
    "-ц": 10187,
    "-ч": 10188,
    "-ш": 10189,
    "-щ": 10190,
    "-ъ": 10191,
    "-ы": 10192,
    "-ь": 10193,
    "-э": 10194,
    "-ю": 10195,
    "-я": 10196,
    "-ә": 10197,
    "-і": 10198,
    "-ң": 10199,
    "-ғ": 10200,
    "-ү": 10201,
    "-ұ": 10202,
    "-қ": 10203,
    "-ө": 10204,
    "-һ": 10205,
    "-1": 10206,
    "-2": 10207,
    "-3": 10208,
    "-4": 10209,
    "-5": 10210,
    "-6": 10211,
    "-7": 10212,
    "-8": 10213,
    "-9": 10214,
    "-0": 10215,
    "-!": 10216,
    "-@": 10217,
    "-#": 10218,
    "-$": 10219,
    "-%": 10220,
    "-^": 10221,
    "-:": 10222,
    "-&": 10223,
    "-*": 10224,
    "-(": 10225,
    "-)": 10226,
    "-_": 10227,
    "-+": 10228,
    "-=": 10229,
    "--": 10230,
    "-?": 10231,
    "-/": 10232,
    "->": 10233,
    "-.": 10234,
    "-<": 10235,
    "-,": 10236,
    "-`": 10237,
    "-|": 10238,
    "-\\": 10239,
    "-'": 10240,
    "-\"": 10241,
    "-[": 10242,
    "-]": 10243,
    "-{": 10244,
    "-}": 10245,
    "- ": 10246,
    "?a": 10247,
    "?b": 10248,
    "?c": 10249,
    "?d": 10250,
    "?e": 10251,
    "?f": 10252,
    "?g": 10253,
    "?h": 10254,
    "?i": 10255,
    "?j": 10256,
    "?k": 10257,
    "?l": 10258,
    "?m": 10259,
    "?n": 10260,
    "?o": 10261,
    "?p": 10262,
    "?q": 10263,
    "?r": 10264,
    "?s": 10265,
    "?t": 10266,
    "?u": 10267,
    "?v": 10268,
    "?w": 10269,
    "?x": 10270,
    "?y": 10271,
    "?z": 10272,
    "?а": 10273,
    "?б": 10274,
    "?в": 10275,
    "?г": 10276,
    "?д": 10277,
    "?е": 10278,
    "?ё": 10279,
    "?ж": 10280,
    "?з": 10281,
    "?и": 10282,
    "?й": 10283,
    "?к": 10284,
    "?л": 10285,
    "?м": 10286,
    "?н": 10287,
    "?о": 10288,
    "?п": 10289,
    "?р": 10290,
    "?с": 10291,
    "?т": 10292,
    "?у": 10293,
    "?ф": 10294,
    "?х": 10295,
    "?ц": 10296,
    "?ч": 10297,
    "?ш": 10298,
    "?щ": 10299,
    "?ъ": 10300,
    "?ы": 10301,
    "?ь": 10302,
    "?э": 10303,
    "?ю": 10304,
    "?я": 10305,
    "?ә": 10306,
    "?і": 10307,
    "?ң": 10308,
    "?ғ": 10309,
    "?ү": 10310,
    "?ұ": 10311,
    "?қ": 10312,
    "?ө": 10313,
    "?һ": 10314,
    "?1": 10315,
    "?2": 10316,
    "?3": 10317,
    "?4": 10318,
    "?5": 10319,
    "?6": 10320,
    "?7": 10321,
    "?8": 10322,
    "?9": 10323,
    "?0": 10324,
    "?!": 10325,
    "?@": 10326,
    "?#": 10327,
    "?$": 10328,
    "?%": 10329,
    "?^": 10330,
    "?:": 10331,
    "?&": 10332,
    "?*": 10333,
    "?(": 10334,
    "?)": 10335,
    "?_": 10336,
    "?+": 10337,
    "?=": 10338,
    "?-": 10339,
    "??": 10340,
    "?/": 10341,
    "?>": 10342,
    "?.": 10343,
    "?<": 10344,
    "?,": 10345,
    "?`": 10346,
    "?|": 10347,
    "?\\": 10348,
    "?'": 10349,
    "?\"": 10350,
    "?[": 10351,
    "?]": 10352,
    "?{": 10353,
    "?}": 10354,
    "? ": 10355,
    "/a": 10356,
    "/b": 10357,
    "/c": 10358,
    "/d": 10359,
    "/e": 10360,
    "/f": 10361,
    "/g": 10362,
    "/h": 10363,
    "/i": 10364,
    "/j": 10365,
    "/k": 10366,
    "/l": 10367,
    "/m": 10368,
    "/n": 10369,
    "/o": 10370,
    "/p": 10371,
    "/q": 10372,
    "/r": 10373,
    "/s": 10374,
    "/t": 10375,
    "/u": 10376,
    "/v": 10377,
    "/w": 10378,
    "/x": 10379,
    "/y": 10380,
    "/z": 10381,
    "/а": 10382,
    "/б": 10383,
    "/в": 10384,
    "/г": 10385,
    "/д": 10386,
    "/е": 10387,
    "/ё": 10388,
    "/ж": 10389,
    "/з": 10390,
    "/и": 10391,
    "/й": 10392,
    "/к": 10393,
    "/л": 10394,
    "/м": 10395,
    "/н": 10396,
    "/о": 10397,
    "/п": 10398,
    "/р": 10399,
    "/с": 10400,
    "/т": 10401,
    "/у": 10402,
    "/ф": 10403,
    "/х": 10404,
    "/ц": 10405,
    "/ч": 10406,
    "/ш": 10407,
    "/щ": 10408,
    "/ъ": 10409,
    "/ы": 10410,
    "/ь": 10411,
    "/э": 10412,
    "/ю": 10413,
    "/я": 10414,
    "/ә": 10415,
    "/і": 10416,
    "/ң": 10417,
    "/ғ": 10418,
    "/ү": 10419,
    "/ұ": 10420,
    "/қ": 10421,
    "/ө": 10422,
    "/һ": 10423,
    "/1": 10424,
    "/2": 10425,
    "/3": 10426,
    "/4": 10427,
    "/5": 10428,
    "/6": 10429,
    "/7": 10430,
    "/8": 10431,
    "/9": 10432,
    "/0": 10433,
    "/!": 10434,
    "/@": 10435,
    "/#": 10436,
    "/$": 10437,
    "/%": 10438,
    "/^": 10439,
    "/:": 10440,
    "/&": 10441,
    "/*": 10442,
    "/(": 10443,
    "/)": 10444,
    "/_": 10445,
    "/+": 10446,
    "/=": 10447,
    "/-": 10448,
    "/?": 10449,
    "//": 10450,
    "/>": 10451,
    "/.": 10452,
    "/<": 10453,
    "/,": 10454,
    "/`": 10455,
    "/|": 10456,
    "/\\": 10457,
    "/'": 10458,
    "/\"": 10459,
    "/[": 10460,
    "/]": 10461,
    "/{": 10462,
    "/}": 10463,
    "/ ": 10464,
    ">a": 10465,
    ">b": 10466,
    ">c": 10467,
    ">d": 10468,
    ">e": 10469,
    ">f": 10470,
    ">g": 10471,
    ">h": 10472,
    ">i": 10473,
    ">j": 10474,
    ">k": 10475,
    ">l": 10476,
    ">m": 10477,
    ">n": 10478,
    ">o": 10479,
    ">p": 10480,
    ">q": 10481,
    ">r": 10482,
    ">s": 10483,
    ">t": 10484,
    ">u": 10485,
    ">v": 10486,
    ">w": 10487,
    ">x": 10488,
    ">y": 10489,
    ">z": 10490,
    ">а": 10491,
    ">б": 10492,
    ">в": 10493,
    ">г": 10494,
    ">д": 10495,
    ">е": 10496,
    ">ё": 10497,
    ">ж": 10498,
    ">з": 10499,
    ">и": 10500,
    ">й": 10501,
    ">к": 10502,
    ">л": 10503,
    ">м": 10504,
    ">н": 10505,
    ">о": 10506,
    ">п": 10507,
    ">р": 10508,
    ">с": 10509,
    ">т": 10510,
    ">у": 10511,
    ">ф": 10512,
    ">х": 10513,
    ">ц": 10514,
    ">ч": 10515,
    ">ш": 10516,
    ">щ": 10517,
    ">ъ": 10518,
    ">ы": 10519,
    ">ь": 10520,
    ">э": 10521,
    ">ю": 10522,
    ">я": 10523,
    ">ә": 10524,
    ">і": 10525,
    ">ң": 10526,
    ">ғ": 10527,
    ">ү": 10528,
    ">ұ": 10529,
    ">қ": 10530,
    ">ө": 10531,
    ">һ": 10532,
    ">1": 10533,
    ">2": 10534,
    ">3": 10535,
    ">4": 10536,
    ">5": 10537,
    ">6": 10538,
    ">7": 10539,
    ">8": 10540,
    ">9": 10541,
    ">0": 10542,
    ">!": 10543,
    ">@": 10544,
    ">#": 10545,
    ">$": 10546,
    ">%": 10547,
    ">^": 10548,
    ">:": 10549,
    ">&": 10550,
    ">*": 10551,
    ">(": 10552,
    ">)": 10553,
    ">_": 10554,
    ">+": 10555,
    ">=": 10556,
    ">-": 10557,
    ">?": 10558,
    ">/": 10559,
    ">>": 10560,
    ">.": 10561,
    "><": 10562,
    ">,": 10563,
    ">`": 10564,
    ">|": 10565,
    ">\\": 10566,
    ">'": 10567,
    ">\"": 10568,
    ">[": 10569,
    ">]": 10570,
    ">{": 10571,
    ">}": 10572,
    "> ": 10573,
    ".a": 10574,
    ".b": 10575,
    ".c": 10576,
    ".d": 10577,
    ".e": 10578,
    ".f": 10579,
    ".g": 10580,
    ".h": 10581,
    ".i": 10582,
    ".j": 10583,
    ".k": 10584,
    ".l": 10585,
    ".m": 10586,
    ".n": 10587,
    ".o": 10588,
    ".p": 10589,
    ".q": 10590,
    ".r": 10591,
    ".s": 10592,
    ".t": 10593,
    ".u": 10594,
    ".v": 10595,
    ".w": 10596,
    ".x": 10597,
    ".y": 10598,
    ".z": 10599,
    ".а": 10600,
    ".б": 10601,
    ".в": 10602,
    ".г": 10603,
    ".д": 10604,
    ".е": 10605,
    ".ё": 10606,
    ".ж": 10607,
    ".з": 10608,
    ".и": 10609,
    ".й": 10610,
    ".к": 10611,
    ".л": 10612,
    ".м": 10613,
    ".н": 10614,
    ".о": 10615,
    ".п": 10616,
    ".р": 10617,
    ".с": 10618,
    ".т": 10619,
    ".у": 10620,
    ".ф": 10621,
    ".х": 10622,
    ".ц": 10623,
    ".ч": 10624,
    ".ш": 10625,
    ".щ": 10626,
    ".ъ": 10627,
    ".ы": 10628,
    ".ь": 10629,
    ".э": 10630,
    ".ю": 10631,
    ".я": 10632,
    ".ә": 10633,
    ".і": 10634,
    ".ң": 10635,
    ".ғ": 10636,
    ".ү": 10637,
    ".ұ": 10638,
    ".қ": 10639,
    ".ө": 10640,
    ".һ": 10641,
    ".1": 10642,
    ".2": 10643,
    ".3": 10644,
    ".4": 10645,
    ".5": 10646,
    ".6": 10647,
    ".7": 10648,
    ".8": 10649,
    ".9": 10650,
    ".0": 10651,
    ".!": 10652,
    ".@": 10653,
    ".#": 10654,
    ".$": 10655,
    ".%": 10656,
    ".^": 10657,
    ".:": 10658,
    ".&": 10659,
    ".*": 10660,
    ".(": 10661,
    ".)": 10662,
    "._": 10663,
    ".+": 10664,
    ".=": 10665,
    ".-": 10666,
    ".?": 10667,
    "./": 10668,
    ".>": 10669,
    "..": 10670,
    ".<": 10671,
    ".,": 10672,
    ".`": 10673,
    ".|": 10674,
    ".\\": 10675,
    ".'": 10676,
    ".\"": 10677,
    ".[": 10678,
    ".]": 10679,
    ".{": 10680,
    ".}": 10681,
    ". ": 10682,
    "<a": 10683,
    "<b": 10684,
    "<c": 10685,
    "<d": 10686,
    "<e": 10687,
    "<f": 10688,
    "<g": 10689,
    "<h": 10690,
    "<i": 10691,
    "<j": 10692,
    "<k": 10693,
    "<l": 10694,
    "<m": 10695,
    "<n": 10696,
    "<o": 10697,
    "<p": 10698,
    "<q": 10699,
    "<r": 10700,
    "<s": 10701,
    "<t": 10702,
    "<u": 10703,
    "<v": 10704,
    "<w": 10705,
    "<x": 10706,
    "<y": 10707,
    "<z": 10708,
    "<а": 10709,
    "<б": 10710,
    "<в": 10711,
    "<г": 10712,
    "<д": 10713,
    "<е": 10714,
    "<ё": 10715,
    "<ж": 10716,
    "<з": 10717,
    "<и": 10718,
    "<й": 10719,
    "<к": 10720,
    "<л": 10721,
    "<м": 10722,
    "<н": 10723,
    "<о": 10724,
    "<п": 10725,
    "<р": 10726,
    "<с": 10727,
    "<т": 10728,
    "<у": 10729,
    "<ф": 10730,
    "<х": 10731,
    "<ц": 10732,
    "<ч": 10733,
    "<ш": 10734,
    "<щ": 10735,
    "<ъ": 10736,
    "<ы": 10737,
    "<ь": 10738,
    "<э": 10739,
    "<ю": 10740,
    "<я": 10741,
    "<ә": 10742,
    "<і": 10743,
    "<ң": 10744,
    "<ғ": 10745,
    "<ү": 10746,
    "<ұ": 10747,
    "<қ": 10748,
    "<ө": 10749,
    "<һ": 10750,
    "<1": 10751,
    "<2": 10752,
    "<3": 10753,
    "<4": 10754,
    "<5": 10755,
    "<6": 10756,
    "<7": 10757,
    "<8": 10758,
    "<9": 10759,
    "<0": 10760,
    "<!": 10761,
    "<@": 10762,
    "<#": 10763,
    "<$": 10764,
    "<%": 10765,
    "<^": 10766,
    "<:": 10767,
    "<&": 10768,
    "<*": 10769,
    "<(": 10770,
    "<)": 10771,
    "<_": 10772,
    "<+": 10773,
    "<=": 10774,
    "<-": 10775,
    "<?": 10776,
    "</": 10777,
    "<>": 10778,
    "<.": 10779,
    "<<": 10780,
    "<,": 10781,
    "<`": 10782,
    "<|": 10783,
    "<\\": 10784,
    "<'": 10785,
    "<\"": 10786,
    "<[": 10787,
    "<]": 10788,
    "<{": 10789,
    "<}": 10790,
    "< ": 10791,
    ",a": 10792,
    ",b": 10793,
    ",c": 10794,
    ",d": 10795,
    ",e": 10796,
    ",f": 10797,
    ",g": 10798,
    ",h": 10799,
    ",i": 10800,
    ",j": 10801,
    ",k": 10802,
    ",l": 10803,
    ",m": 10804,
    ",n": 10805,
    ",o": 10806,
    ",p": 10807,
    ",q": 10808,
    ",r": 10809,
    ",s": 10810,
    ",t": 10811,
    ",u": 10812,
    ",v": 10813,
    ",w": 10814,
    ",x": 10815,
    ",y": 10816,
    ",z": 10817,
    ",а": 10818,
    ",б": 10819,
    ",в": 10820,
    ",г": 10821,
    ",д": 10822,
    ",е": 10823,
    ",ё": 10824,
    ",ж": 10825,
    ",з": 10826,
    ",и": 10827,
    ",й": 10828,
    ",к": 10829,
    ",л": 10830,
    ",м": 10831,
    ",н": 10832,
    ",о": 10833,
    ",п": 10834,
    ",р": 10835,
    ",с": 10836,
    ",т": 10837,
    ",у": 10838,
    ",ф": 10839,
    ",х": 10840,
    ",ц": 10841,
    ",ч": 10842,
    ",ш": 10843,
    ",щ": 10844,
    ",ъ": 10845,
    ",ы": 10846,
    ",ь": 10847,
    ",э": 10848,
    ",ю": 10849,
    ",я": 10850,
    ",ә": 10851,
    ",і": 10852,
    ",ң": 10853,
    ",ғ": 10854,
    ",ү": 10855,
    ",ұ": 10856,
    ",қ": 10857,
    ",ө": 10858,
    ",һ": 10859,
    ",1": 10860,
    ",2": 10861,
    ",3": 10862,
    ",4": 10863,
    ",5": 10864,
    ",6": 10865,
    ",7": 10866,
    ",8": 10867,
    ",9": 10868,
    ",0": 10869,
    ",!": 10870,
    ",@": 10871,
    ",#": 10872,
    ",$": 10873,
    ",%": 10874,
    ",^": 10875,
    ",:": 10876,
    ",&": 10877,
    ",*": 10878,
    ",(": 10879,
    ",)": 10880,
    ",_": 10881,
    ",+": 10882,
    ",=": 10883,
    ",-": 10884,
    ",?": 10885,
    ",/": 10886,
    ",>": 10887,
    ",.": 10888,
    ",<": 10889,
    ",,": 10890,
    ",`": 10891,
    ",|": 10892,
    ",\\": 10893,
    ",'": 10894,
    ",\"": 10895,
    ",[": 10896,
    ",]": 10897,
    ",{": 10898,
    ",}": 10899,
    ", ": 10900,
    "`a": 10901,
    "`b": 10902,
    "`c": 10903,
    "`d": 10904,
    "`e": 10905,
    "`f": 10906,
    "`g": 10907,
    "`h": 10908,
    "`i": 10909,
    "`j": 10910,
    "`k": 10911,
    "`l": 10912,
    "`m": 10913,
    "`n": 10914,
    "`o": 10915,
    "`p": 10916,
    "`q": 10917,
    "`r": 10918,
    "`s": 10919,
    "`t": 10920,
    "`u": 10921,
    "`v": 10922,
    "`w": 10923,
    "`x": 10924,
    "`y": 10925,
    "`z": 10926,
    "`а": 10927,
    "`б": 10928,
    "`в": 10929,
    "`г": 10930,
    "`д": 10931,
    "`е": 10932,
    "`ё": 10933,
    "`ж": 10934,
    "`з": 10935,
    "`и": 10936,
    "`й": 10937,
    "`к": 10938,
    "`л": 10939,
    "`м": 10940,
    "`н": 10941,
    "`о": 10942,
    "`п": 10943,
    "`р": 10944,
    "`с": 10945,
    "`т": 10946,
    "`у": 10947,
    "`ф": 10948,
    "`х": 10949,
    "`ц": 10950,
    "`ч": 10951,
    "`ш": 10952,
    "`щ": 10953,
    "`ъ": 10954,
    "`ы": 10955,
    "`ь": 10956,
    "`э": 10957,
    "`ю": 10958,
    "`я": 10959,
    "`ә": 10960,
    "`і": 10961,
    "`ң": 10962,
    "`ғ": 10963,
    "`ү": 10964,
    "`ұ": 10965,
    "`қ": 10966,
    "`ө": 10967,
    "`һ": 10968,
    "`1": 10969,
    "`2": 10970,
    "`3": 10971,
    "`4": 10972,
    "`5": 10973,
    "`6": 10974,
    "`7": 10975,
    "`8": 10976,
    "`9": 10977,
    "`0": 10978,
    "`!": 10979,
    "`@": 10980,
    "`#": 10981,
    "`$": 10982,
    "`%": 10983,
    "`^": 10984,
    "`:": 10985,
    "`&": 10986,
    "`*": 10987,
    "`(": 10988,
    "`)": 10989,
    "`_": 10990,
    "`+": 10991,
    "`=": 10992,
    "`-": 10993,
    "`?": 10994,
    "`/": 10995,
    "`>": 10996,
    "`.": 10997,
    "`<": 10998,
    "`,": 10999,
    "``": 11000,
    "`|": 11001,
    "`\\": 11002,
    "`'": 11003,
    "`\"": 11004,
    "`[": 11005,
    "`]": 11006,
    "`{": 11007,
    "`}": 11008,
    "` ": 11009,
    "|a": 11010,
    "|b": 11011,
    "|c": 11012,
    "|d": 11013,
    "|e": 11014,
    "|f": 11015,
    "|g": 11016,
    "|h": 11017,
    "|i": 11018,
    "|j": 11019,
    "|k": 11020,
    "|l": 11021,
    "|m": 11022,
    "|n": 11023,
    "|o": 11024,
    "|p": 11025,
    "|q": 11026,
    "|r": 11027,
    "|s": 11028,
    "|t": 11029,
    "|u": 11030,
    "|v": 11031,
    "|w": 11032,
    "|x": 11033,
    "|y": 11034,
    "|z": 11035,
    "|а": 11036,
    "|б": 11037,
    "|в": 11038,
    "|г": 11039,
    "|д": 11040,
    "|е": 11041,
    "|ё": 11042,
    "|ж": 11043,
    "|з": 11044,
    "|и": 11045,
    "|й": 11046,
    "|к": 11047,
    "|л": 11048,
    "|м": 11049,
    "|н": 11050,
    "|о": 11051,
    "|п": 11052,
    "|р": 11053,
    "|с": 11054,
    "|т": 11055,
    "|у": 11056,
    "|ф": 11057,
    "|х": 11058,
    "|ц": 11059,
    "|ч": 11060,
    "|ш": 11061,
    "|щ": 11062,
    "|ъ": 11063,
    "|ы": 11064,
    "|ь": 11065,
    "|э": 11066,
    "|ю": 11067,
    "|я": 11068,
    "|ә": 11069,
    "|і": 11070,
    "|ң": 11071,
    "|ғ": 11072,
    "|ү": 11073,
    "|ұ": 11074,
    "|қ": 11075,
    "|ө": 11076,
    "|һ": 11077,
    "|1": 11078,
    "|2": 11079,
    "|3": 11080,
    "|4": 11081,
    "|5": 11082,
    "|6": 11083,
    "|7": 11084,
    "|8": 11085,
    "|9": 11086,
    "|0": 11087,
    "|!": 11088,
    "|@": 11089,
    "|#": 11090,
    "|$": 11091,
    "|%": 11092,
    "|^": 11093,
    "|:": 11094,
    "|&": 11095,
    "|*": 11096,
    "|(": 11097,
    "|)": 11098,
    "|_": 11099,
    "|+": 11100,
    "|=": 11101,
    "|-": 11102,
    "|?": 11103,
    "|/": 11104,
    "|>": 11105,
    "|.": 11106,
    "|<": 11107,
    "|,": 11108,
    "|`": 11109,
    "||": 11110,
    "|\\": 11111,
    "|'": 11112,
    "|\"": 11113,
    "|[": 11114,
    "|]": 11115,
    "|{": 11116,
    "|}": 11117,
    "| ": 11118,
    "\\a": 11119,
    "\\b": 11120,
    "\\c": 11121,
    "\\d": 11122,
    "\\e": 11123,
    "\\f": 11124,
    "\\g": 11125,
    "\\h": 11126,
    "\\i": 11127,
    "\\j": 11128,
    "\\k": 11129,
    "\\l": 11130,
    "\\m": 11131,
    "\\n": 11132,
    "\\o": 11133,
    "\\p": 11134,
    "\\q": 11135,
    "\\r": 11136,
    "\\s": 11137,
    "\\t": 11138,
    "\\u": 11139,
    "\\v": 11140,
    "\\w": 11141,
    "\\x": 11142,
    "\\y": 11143,
    "\\z": 11144,
    "\\а": 11145,
    "\\б": 11146,
    "\\в": 11147,
    "\\г": 11148,
    "\\д": 11149,
    "\\е": 11150,
    "\\ё": 11151,
    "\\ж": 11152,
    "\\з": 11153,
    "\\и": 11154,
    "\\й": 11155,
    "\\к": 11156,
    "\\л": 11157,
    "\\м": 11158,
    "\\н": 11159,
    "\\о": 11160,
    "\\п": 11161,
    "\\р": 11162,
    "\\с": 11163,
    "\\т": 11164,
    "\\у": 11165,
    "\\ф": 11166,
    "\\х": 11167,
    "\\ц": 11168,
    "\\ч": 11169,
    "\\ш": 11170,
    "\\щ": 11171,
    "\\ъ": 11172,
    "\\ы": 11173,
    "\\ь": 11174,
    "\\э": 11175,
    "\\ю": 11176,
    "\\я": 11177,
    "\\ә": 11178,
    "\\і": 11179,
    "\\ң": 11180,
    "\\ғ": 11181,
    "\\ү": 11182,
    "\\ұ": 11183,
    "\\қ": 11184,
    "\\ө": 11185,
    "\\һ": 11186,
    "\\1": 11187,
    "\\2": 11188,
    "\\3": 11189,
    "\\4": 11190,
    "\\5": 11191,
    "\\6": 11192,
    "\\7": 11193,
    "\\8": 11194,
    "\\9": 11195,
    "\\0": 11196,
    "\\!": 11197,
    "\\@": 11198,
    "\\#": 11199,
    "\\$": 11200,
    "\\%": 11201,
    "\\^": 11202,
    "\\:": 11203,
    "\\&": 11204,
    "\\*": 11205,
    "\\(": 11206,
    "\\)": 11207,
    "\\_": 11208,
    "\\+": 11209,
    "\\=": 11210,
    "\\-": 11211,
    "\\?": 11212,
    "\\/": 11213,
    "\\>": 11214,
    "\\.": 11215,
    "\\<": 11216,
    "\\,": 11217,
    "\\`": 11218,
    "\\|": 11219,
    "\\\\": 11220,
    "\\'": 11221,
    "\\\"": 11222,
    "\\[": 11223,
    "\\]": 11224,
    "\\{": 11225,
    "\\}": 11226,
    "\\ ": 11227,
    "'a": 11228,
    "'b": 11229,
    "'c": 11230,
    "'d": 11231,
    "'e": 11232,
    "'f": 11233,
    "'g": 11234,
    "'h": 11235,
    "'i": 11236,
    "'j": 11237,
    "'k": 11238,
    "'l": 11239,
    "'m": 11240,
    "'n": 11241,
    "'o": 11242,
    "'p": 11243,
    "'q": 11244,
    "'r": 11245,
    "'s": 11246,
    "'t": 11247,
    "'u": 11248,
    "'v": 11249,
    "'w": 11250,
    "'x": 11251,
    "'y": 11252,
    "'z": 11253,
    "'а": 11254,
    "'б": 11255,
    "'в": 11256,
    "'г": 11257,
    "'д": 11258,
    "'е": 11259,
    "'ё": 11260,
    "'ж": 11261,
    "'з": 11262,
    "'и": 11263,
    "'й": 11264,
    "'к": 11265,
    "'л": 11266,
    "'м": 11267,
    "'н": 11268,
    "'о": 11269,
    "'п": 11270,
    "'р": 11271,
    "'с": 11272,
    "'т": 11273,
    "'у": 11274,
    "'ф": 11275,
    "'х": 11276,
    "'ц": 11277,
    "'ч": 11278,
    "'ш": 11279,
    "'щ": 11280,
    "'ъ": 11281,
    "'ы": 11282,
    "'ь": 11283,
    "'э": 11284,
    "'ю": 11285,
    "'я": 11286,
    "'ә": 11287,
    "'і": 11288,
    "'ң": 11289,
    "'ғ": 11290,
    "'ү": 11291,
    "'ұ": 11292,
    "'қ": 11293,
    "'ө": 11294,
    "'һ": 11295,
    "'1": 11296,
    "'2": 11297,
    "'3": 11298,
    "'4": 11299,
    "'5": 11300,
    "'6": 11301,
    "'7": 11302,
    "'8": 11303,
    "'9": 11304,
    "'0": 11305,
    "'!": 11306,
    "'@": 11307,
    "'#": 11308,
    "'$": 11309,
    "'%": 11310,
    "'^": 11311,
    "':": 11312,
    "'&": 11313,
    "'*": 11314,
    "'(": 11315,
    "')": 11316,
    "'_": 11317,
    "'+": 11318,
    "'=": 11319,
    "'-": 11320,
    "'?": 11321,
    "'/": 11322,
    "'>": 11323,
    "'.": 11324,
    "'<": 11325,
    "',": 11326,
    "'`": 11327,
    "'|": 11328,
    "'\\": 11329,
    "''": 11330,
    "'\"": 11331,
    "'[": 11332,
    "']": 11333,
    "'{": 11334,
    "'}": 11335,
    "' ": 11336,
    "\"a": 11337,
    "\"b": 11338,
    "\"c": 11339,
    "\"d": 11340,
    "\"e": 11341,
    "\"f": 11342,
    "\"g": 11343,
    "\"h": 11344,
    "\"i": 11345,
    "\"j": 11346,
    "\"k": 11347,
    "\"l": 11348,
    "\"m": 11349,
    "\"n": 11350,
    "\"o": 11351,
    "\"p": 11352,
    "\"q": 11353,
    "\"r": 11354,
    "\"s": 11355,
    "\"t": 11356,
    "\"u": 11357,
    "\"v": 11358,
    "\"w": 11359,
    "\"x": 11360,
    "\"y": 11361,
    "\"z": 11362,
    "\"а": 11363,
    "\"б": 11364,
    "\"в": 11365,
    "\"г": 11366,
    "\"д": 11367,
    "\"е": 11368,
    "\"ё": 11369,
    "\"ж": 11370,
    "\"з": 11371,
    "\"и": 11372,
    "\"й": 11373,
    "\"к": 11374,
    "\"л": 11375,
    "\"м": 11376,
    "\"н": 11377,
    "\"о": 11378,
    "\"п": 11379,
    "\"р": 11380,
    "\"с": 11381,
    "\"т": 11382,
    "\"у": 11383,
    "\"ф": 11384,
    "\"х": 11385,
    "\"ц": 11386,
    "\"ч": 11387,
    "\"ш": 11388,
    "\"щ": 11389,
    "\"ъ": 11390,
    "\"ы": 11391,
    "\"ь": 11392,
    "\"э": 11393,
    "\"ю": 11394,
    "\"я": 11395,
    "\"ә": 11396,
    "\"і": 11397,
    "\"ң": 11398,
    "\"ғ": 11399,
    "\"ү": 11400,
    "\"ұ": 11401,
    "\"қ": 11402,
    "\"ө": 11403,
    "\"һ": 11404,
    "\"1": 11405,
    "\"2": 11406,
    "\"3": 11407,
    "\"4": 11408,
    "\"5": 11409,
    "\"6": 11410,
    "\"7": 11411,
    "\"8": 11412,
    "\"9": 11413,
    "\"0": 11414,
    "\"!": 11415,
    "\"@": 11416,
    "\"#": 11417,
    "\"$": 11418,
    "\"%": 11419,
    "\"^": 11420,
    "\":": 11421,
    "\"&": 11422,
    "\"*": 11423,
    "\"(": 11424,
    "\")": 11425,
    "\"_": 11426,
    "\"+": 11427,
    "\"=": 11428,
    "\"-": 11429,
    "\"?": 11430,
    "\"/": 11431,
    "\">": 11432,
    "\".": 11433,
    "\"<": 11434,
    "\",": 11435,
    "\"`": 11436,
    "\"|": 11437,
    "\"\\": 11438,
    "\"'": 11439,
    "\"\"": 11440,
    "\"[": 11441,
    "\"]": 11442,
    "\"{": 11443,
    "\"}": 11444,
    "\" ": 11445,
    "[a": 11446,
    "[b": 11447,
    "[c": 11448,
    "[d": 11449,
    "[e": 11450,
    "[f": 11451,
    "[g": 11452,
    "[h": 11453,
    "[i": 11454,
    "[j": 11455,
    "[k": 11456,
    "[l": 11457,
    "[m": 11458,
    "[n": 11459,
    "[o": 11460,
    "[p": 11461,
    "[q": 11462,
    "[r": 11463,
    "[s": 11464,
    "[t": 11465,
    "[u": 11466,
    "[v": 11467,
    "[w": 11468,
    "[x": 11469,
    "[y": 11470,
    "[z": 11471,
    "[а": 11472,
    "[б": 11473,
    "[в": 11474,
    "[г": 11475,
    "[д": 11476,
    "[е": 11477,
    "[ё": 11478,
    "[ж": 11479,
    "[з": 11480,
    "[и": 11481,
    "[й": 11482,
    "[к": 11483,
    "[л": 11484,
    "[м": 11485,
    "[н": 11486,
    "[о": 11487,
    "[п": 11488,
    "[р": 11489,
    "[с": 11490,
    "[т": 11491,
    "[у": 11492,
    "[ф": 11493,
    "[х": 11494,
    "[ц": 11495,
    "[ч": 11496,
    "[ш": 11497,
    "[щ": 11498,
    "[ъ": 11499,
    "[ы": 11500,
    "[ь": 11501,
    "[э": 11502,
    "[ю": 11503,
    "[я": 11504,
    "[ә": 11505,
    "[і": 11506,
    "[ң": 11507,
    "[ғ": 11508,
    "[ү": 11509,
    "[ұ": 11510,
    "[қ": 11511,
    "[ө": 11512,
    "[һ": 11513,
    "[1": 11514,
    "[2": 11515,
    "[3": 11516,
    "[4": 11517,
    "[5": 11518,
    "[6": 11519,
    "[7": 11520,
    "[8": 11521,
    "[9": 11522,
    "[0": 11523,
    "[!": 11524,
    "[@": 11525,
    "[#": 11526,
    "[$": 11527,
    "[%": 11528,
    "[^": 11529,
    "[:": 11530,
    "[&": 11531,
    "[*": 11532,
    "[(": 11533,
    "[)": 11534,
    "[_": 11535,
    "[+": 11536,
    "[=": 11537,
    "[-": 11538,
    "[?": 11539,
    "[/": 11540,
    "[>": 11541,
    "[.": 11542,
    "[<": 11543,
    "[,": 11544,
    "[`": 11545,
    "[|": 11546,
    "[\\": 11547,
    "['": 11548,
    "[\"": 11549,
    "[[": 11550,
    "[]": 11551,
    "[{": 11552,
    "[}": 11553,
    "[ ": 11554,
    "]a": 11555,
    "]b": 11556,
    "]c": 11557,
    "]d": 11558,
    "]e": 11559,
    "]f": 11560,
    "]g": 11561,
    "]h": 11562,
    "]i": 11563,
    "]j": 11564,
    "]k": 11565,
    "]l": 11566,
    "]m": 11567,
    "]n": 11568,
    "]o": 11569,
    "]p": 11570,
    "]q": 11571,
    "]r": 11572,
    "]s": 11573,
    "]t": 11574,
    "]u": 11575,
    "]v": 11576,
    "]w": 11577,
    "]x": 11578,
    "]y": 11579,
    "]z": 11580,
    "]а": 11581,
    "]б": 11582,
    "]в": 11583,
    "]г": 11584,
    "]д": 11585,
    "]е": 11586,
    "]ё": 11587,
    "]ж": 11588,
    "]з": 11589,
    "]и": 11590,
    "]й": 11591,
    "]к": 11592,
    "]л": 11593,
    "]м": 11594,
    "]н": 11595,
    "]о": 11596,
    "]п": 11597,
    "]р": 11598,
    "]с": 11599,
    "]т": 11600,
    "]у": 11601,
    "]ф": 11602,
    "]х": 11603,
    "]ц": 11604,
    "]ч": 11605,
    "]ш": 11606,
    "]щ": 11607,
    "]ъ": 11608,
    "]ы": 11609,
    "]ь": 11610,
    "]э": 11611,
    "]ю": 11612,
    "]я": 11613,
    "]ә": 11614,
    "]і": 11615,
    "]ң": 11616,
    "]ғ": 11617,
    "]ү": 11618,
    "]ұ": 11619,
    "]қ": 11620,
    "]ө": 11621,
    "]һ": 11622,
    "]1": 11623,
    "]2": 11624,
    "]3": 11625,
    "]4": 11626,
    "]5": 11627,
    "]6": 11628,
    "]7": 11629,
    "]8": 11630,
    "]9": 11631,
    "]0": 11632,
    "]!": 11633,
    "]@": 11634,
    "]#": 11635,
    "]$": 11636,
    "]%": 11637,
    "]^": 11638,
    "]:": 11639,
    "]&": 11640,
    "]*": 11641,
    "](": 11642,
    "])": 11643,
    "]_": 11644,
    "]+": 11645,
    "]=": 11646,
    "]-": 11647,
    "]?": 11648,
    "]/": 11649,
    "]>": 11650,
    "].": 11651,
    "]<": 11652,
    "],": 11653,
    "]`": 11654,
    "]|": 11655,
    "]\\": 11656,
    "]'": 11657,
    "]\"": 11658,
    "][": 11659,
    "]]": 11660,
    "]{": 11661,
    "]}": 11662,
    "] ": 11663,
    "{a": 11664,
    "{b": 11665,
    "{c": 11666,
    "{d": 11667,
    "{e": 11668,
    "{f": 11669,
    "{g": 11670,
    "{h": 11671,
    "{i": 11672,
    "{j": 11673,
    "{k": 11674,
    "{l": 11675,
    "{m": 11676,
    "{n": 11677,
    "{o": 11678,
    "{p": 11679,
    "{q": 11680,
    "{r": 11681,
    "{s": 11682,
    "{t": 11683,
    "{u": 11684,
    "{v": 11685,
    "{w": 11686,
    "{x": 11687,
    "{y": 11688,
    "{z": 11689,
    "{а": 11690,
    "{б": 11691,
    "{в": 11692,
    "{г": 11693,
    "{д": 11694,
    "{е": 11695,
    "{ё": 11696,
    "{ж": 11697,
    "{з": 11698,
    "{и": 11699,
    "{й": 11700,
    "{к": 11701,
    "{л": 11702,
    "{м": 11703,
    "{н": 11704,
    "{о": 11705,
    "{п": 11706,
    "{р": 11707,
    "{с": 11708,
    "{т": 11709,
    "{у": 11710,
    "{ф": 11711,
    "{х": 11712,
    "{ц": 11713,
    "{ч": 11714,
    "{ш": 11715,
    "{щ": 11716,
    "{ъ": 11717,
    "{ы": 11718,
    "{ь": 11719,
    "{э": 11720,
    "{ю": 11721,
    "{я": 11722,
    "{ә": 11723,
    "{і": 11724,
    "{ң": 11725,
    "{ғ": 11726,
    "{ү": 11727,
    "{ұ": 11728,
    "{қ": 11729,
    "{ө": 11730,
    "{һ": 11731,
    "{1": 11732,
    "{2": 11733,
    "{3": 11734,
    "{4": 11735,
    "{5": 11736,
    "{6": 11737,
    "{7": 11738,
    "{8": 11739,
    "{9": 11740,
    "{0": 11741,
    "{!": 11742,
    "{@": 11743,
    "{#": 11744,
    "{$": 11745,
    "{%": 11746,
    "{^": 11747,
    "{:": 11748,
    "{&": 11749,
    "{*": 11750,
    "{(": 11751,
    "{)": 11752,
    "{_": 11753,
    "{+": 11754,
    "{=": 11755,
    "{-": 11756,
    "{?": 11757,
    "{/": 11758,
    "{>": 11759,
    "{.": 11760,
    "{<": 11761,
    "{,": 11762,
    "{`": 11763,
    "{|": 11764,
    "{\\": 11765,
    "{'": 11766,
    "{\"": 11767,
    "{[": 11768,
    "{]": 11769,
    "{{": 11770,
    "{}": 11771,
    "{ ": 11772,
    "}a": 11773,
    "}b": 11774,
    "}c": 11775,
    "}d": 11776,
    "}e": 11777,
    "}f": 11778,
    "}g": 11779,
    "}h": 11780,
    "}i": 11781,
    "}j": 11782,
    "}k": 11783,
    "}l": 11784,
    "}m": 11785,
    "}n": 11786,
    "}o": 11787,
    "}p": 11788,
    "}q": 11789,
    "}r": 11790,
    "}s": 11791,
    "}t": 11792,
    "}u": 11793,
    "}v": 11794,
    "}w": 11795,
    "}x": 11796,
    "}y": 11797,
    "}z": 11798,
    "}а": 11799,
    "}б": 11800,
    "}в": 11801,
    "}г": 11802,
    "}д": 11803,
    "}е": 11804,
    "}ё": 11805,
    "}ж": 11806,
    "}з": 11807,
    "}и": 11808,
    "}й": 11809,
    "}к": 11810,
    "}л": 11811,
    "}м": 11812,
    "}н": 11813,
    "}о": 11814,
    "}п": 11815,
    "}р": 11816,
    "}с": 11817,
    "}т": 11818,
    "}у": 11819,
    "}ф": 11820,
    "}х": 11821,
    "}ц": 11822,
    "}ч": 11823,
    "}ш": 11824,
    "}щ": 11825,
    "}ъ": 11826,
    "}ы": 11827,
    "}ь": 11828,
    "}э": 11829,
    "}ю": 11830,
    "}я": 11831,
    "}ә": 11832,
    "}і": 11833,
    "}ң": 11834,
    "}ғ": 11835,
    "}ү": 11836,
    "}ұ": 11837,
    "}қ": 11838,
    "}ө": 11839,
    "}һ": 11840,
    "}1": 11841,
    "}2": 11842,
    "}3": 11843,
    "}4": 11844,
    "}5": 11845,
    "}6": 11846,
    "}7": 11847,
    "}8": 11848,
    "}9": 11849,
    "}0": 11850,
    "}!": 11851,
    "}@": 11852,
    "}#": 11853,
    "}$": 11854,
    "}%": 11855,
    "}^": 11856,
    "}:": 11857,
    "}&": 11858,
    "}*": 11859,
    "}(": 11860,
    "})": 11861,
    "}_": 11862,
    "}+": 11863,
    "}=": 11864,
    "}-": 11865,
    "}?": 11866,
    "}/": 11867,
    "}>": 11868,
    "}.": 11869,
    "}<": 11870,
    "},": 11871,
    "}`": 11872,
    "}|": 11873,
    "}\\": 11874,
    "}'": 11875,
    "}\"": 11876,
    "}[": 11877,
    "}]": 11878,
    "}{": 11879,
    "}}": 11880,
    "} ": 11881,
    " a": 11882,
    " b": 11883,
    " c": 11884,
    " d": 11885,
    " e": 11886,
    " f": 11887,
    " g": 11888,
    " h": 11889,
    " i": 11890,
    " j": 11891,
    " k": 11892,
    " l": 11893,
    " m": 11894,
    " n": 11895,
    " o": 11896,
    " p": 11897,
    " q": 11898,
    " r": 11899,
    " s": 11900,
    " t": 11901,
    " u": 11902,
    " v": 11903,
    " w": 11904,
    " x": 11905,
    " y": 11906,
    " z": 11907,
    " а": 11908,
    " б": 11909,
    " в": 11910,
    " г": 11911,
    " д": 11912,
    " е": 11913,
    " ё": 11914,
    " ж": 11915,
    " з": 11916,
    " и": 11917,
    " й": 11918,
    " к": 11919,
    " л": 11920,
    " м": 11921,
    " н": 11922,
    " о": 11923,
    " п": 11924,
    " р": 11925,
    " с": 11926,
    " т": 11927,
    " у": 11928,
    " ф": 11929,
    " х": 11930,
    " ц": 11931,
    " ч": 11932,
    " ш": 11933,
    " щ": 11934,
    " ъ": 11935,
    " ы": 11936,
    " ь": 11937,
    " э": 11938,
    " ю": 11939,
    " я": 11940,
    " ә": 11941,
    " і": 11942,
    " ң": 11943,
    " ғ": 11944,
    " ү": 11945,
    " ұ": 11946,
    " қ": 11947,
    " ө": 11948,
    " һ": 11949,
    " 1": 11950,
    " 2": 11951,
    " 3": 11952,
    " 4": 11953,
    " 5": 11954,
    " 6": 11955,
    " 7": 11956,
    " 8": 11957,
    " 9": 11958,
    " 0": 11959,
    " !": 11960,
    " @": 11961,
    " #": 11962,
    " $": 11963,
    " %": 11964,
    " ^": 11965,
    " :": 11966,
    " &": 11967,
    " *": 11968,
    " (": 11969,
    " )": 11970,
    " _": 11971,
    " +": 11972,
    " =": 11973,
    " -": 11974,
    " ?": 11975,
    " /": 11976,
    " >": 11977,
    " .": 11978,
    " <": 11979,
    " ,": 11980,
    " `": 11981,
    " |": 11982,
    " \\": 11983,
    " '": 11984,
    " \"": 11985,
    " [": 11986,
    " ]": 11987,
    " {": 11988,
    " }": 11989,
    "  ": 11990
}